#version: 0.2 - Trained by `huggingface/tokenizers`
Ġ t
h e
Ġ a
o n
i n
Ġ o
Ġt he
r e
i t
Ġo f
i s
e n
a t
e r
Ġ w
Ġ c
i on
Ġ s
Ġ p
a l
i c
Ġ in
n d
e s
Ġ b
Ġt h
o r
Ġt o
Ġ m
c e
c t
Ġ f
in g
a n
e d
Ġ n
Ġ e
s e
o u
Ġ is
l y
Ġ Ġ
l e
Ġ re
Ġ it
Ġa nd
Ġc on
Ġ d
Ġb e
s t
o m
en t
Ġw h
o t
a r
a s
u t
ic h
e ct
Ġ h
Ġp r
Ġa s
l l
Ġwh ich
Ġth at
Ġ u
t he
i v
i m
it ion
at ion
o s
it y
Ġa n
Ġe x
Ġ on
Ġ l
ic al
Ġn ot
ĠĠ ĠĠ
p t
Ġth is
j ect
es s
o w
Ġw e
it h
Ġf or
i d
b ject
Ġs u
i b
en ce
ce pt
t er
u re
l d
i r
Ġ g
Ġw ith
t h
u r
c i
v er
Ġ I
q u
o g
iv e
re s
is t
cept ion
Ġo r
as on
a y
e re
Ġc an
g h
a in
e c
Ġb y
i f
a nd
se l
p er
â Ģ
s ib
Ġa ll
r om
u l
e m
Ġpr o
p p
Ġre ason
Ġ T
Ġo bject
Ġa re
v e
at e
c on
c h
Ġf rom
en d
Ġd e
u st
o re
Ġin t
i l
Ġa l
p le
Ġb ut
the r
a ct
he n
u s
Ġit s
os sib
Ġh a
Ġcon ception
i ll
Ġon ly
a w
a m
p l
a b
Ġu n
ou ld
d ition
Ġa t
nd er
ou gh
âĢ Ķ
sel f
d e
u m
o l
in ci
ĠĠĠĠ ĠĠĠĠ
i g
Ġc a
Ġ (
an s
t ain
Ġo ur
Ġthe re
m in
i es
Ġl aw
ter min
t r
Ġm ust
Ġs p
Ġc om
n ot
o f
c c
al ity
Ġp ossib
Ġpr inci
Ġ r
es t
ec ess
res ent
ou s
Ġe m
Ġw or
Ġs o
id e
Ġp ure
Ġex ist
Ġo ther
Ġm e
he r
Ġu nder
i ence
Ġha ve
per ience
Ġde termin
st and
Ġt r
Ġd o
Ä ł
ct ion
Ġs en
Ġ v
Ġm ere
Ġw ill
og n
f ore
ĠT he
im e
o d
Ġ B
u se
Ġcon dition
ar y
ver y
Ġan y
Ġn ecess
a k
p r
g e
om en
Ġit self
Ġ im
Ġ he
ou nd
Ġm ay
hen omen
Ġp er
or i
Ġfor m
Ġthe m
Ġa b
Ġn at
al l
Ġn o
a d
Ġthe y
stand ing
ar d
Ġth ing
am e
p ir
s u
Ġs y
u ition
p os
Ġt ime
Ġ k
e ver
ab le
Ġre g
Ġex perience
in d
i ori
pir ical
o se
Ġu s
il ity
Ġ if
an t
Ġs h
Ġ F
f f
Ġbe ing
p h
e x
end ent
Ġcan not
a ce
act ical
ation s
ar t
ou t
Ġs e
Ġc ogn
om e
Ġh as
Ġon e
u d
Ġs t
Ġ qu
Ġ ide
Ġthe se
Ġp henomen
Ġre l
v es
Ġe v
ĠB ut
Ġpossib le
gh t
or d
p resent
w h
Ġm or
i re
an ce
Ġpr iori
Ġcon s
n ow
Ġg iv
Ġint uition
Ġ A
ou r
Ġ j
at ive
a c
Ġnat ure
Ġa cc
Ġm an
Ġem pirical
th ing
ul t
on e
ans c
Ġw ould
pl es
Ã ł
Ġthere fore
Ġsu ch
em ent
Ġa pp
Ġunder standing
Ġthe ir
Ġexist ence
u n
ansc endent
c a
Ġconception s
it e
se qu
Ġpr actical
Ġa d
f or
Ġcogn ition
Ġprinci ple
p on
al ly
Ġsu bject
ĠF or
n the
Ġreg ard
ut e
er s
Ġ P
t o
Ġd is
Ġ Ãł
sel ves
Ġgiv en
pos ition
Ġ y
) ,
ent ly
Ġobject s
s o
e t
Ġwor ld
Ġmere ly
Ġk now
anscendent al
wh ich
i ght
ic t
on g
ion s
Ġp re
m ent
he re
f ere
st r
ĠT h
Ġ le
Ġwith out
t e
fere n
c l
Ġp art
Ġc h
en er
t ical
Ġphenomen a
Ġre present
Ġs ame
Ġs ome
er tain
Ġmor al
Ġa r
s p
Ġthing s
Ġe very
Ġme ans
Ġprinci ples
ĠĠĠĠĠĠĠĠ ĠĠĠĠĠĠĠĠ
c es
ter n
ough t
ak e
g ement
Ġsy nthe
is e
s is
sequ ently
i e
Ġwh at
Ġ S
Ġh ow
at ter
Ġun ity
h ing
Ġp h
at ed
Ġnecess ary
s ol
ord ing
e l
Ġev en
Ġm y
res s
l ed
ay s
Ġwh o
en s
Ġh is
p re
Ġca se
pp os
f in
Ġ N
o y
n ess
o p
th at
ca use
a g
ph y
ud gement
tern al
Ġsu b
th ough
Ġ O
in t
Ġth an
Ġlaw s
ener al
p ossib
m at
Ġs er
im it
Ġm ore
Ġide a
Ġf re
Ġrel ation
sol ute
Ġn e
Ġa ction
ce d
Ġm a
con dition
Ġcon tain
ec ul
Ġbe cause
d u
n ect
Ġal so
Ġf ar
Ġd if
Ġdo es
ĠI n
il os
b er
b e
i z
led ge
w ays
Ġp resent
Ġu pon
Ġc ertain
Ġp l
Ġtr anscendental
Ġca us
Ġcom ple
Ġcondition s
Ġbe l
Ġnot hing
or t
Ġ end
ĠI t
Ġcon t
Ġpossib ility
og ical
Ġ G
o ll
Ġ W
he ther
Ġint o
re at
Ġj udgement
on d
ation al
ult y
oll ow
ci ous
u e
Ġthe n
Ġu se
Ġw hen
Ġacc ording
o st
Ġca use
Ġn ever
ff ect
Ġsen se
Ġpro position
pl oy
Ġg r
g or
Ġg eneral
ir st
ig n
Ġcon tr
Ġg o
ate gor
T he
Ġcon sequently
u ch
r it
Ġal one
m e
Ġab solute
st em
Ġ C
i al
Ġpro per
Ġth ought
a st
Ġo w
Ġh im
Ġsp ace
iv ers
Ġl imit
at es
Ġal ways
Ġas s
Ġre qu
for m
Ġcon nect
Ġo b
con ception
is m
Ġp os
a re
Ġd es
c om
it her
Ġf ound
Ġthem selves
Ġcom m
Ġd ist
o ld
Ġow n
Ġc ould
Ġknow ledge
Ġf ac
Ġsh ould
possib le
Ġph ilos
f ect
ar i
pr o
Ġf ollow
Ġem ploy
Ġs ay
Ġal though
Ġser ies
Ġw as
Ġobject ive
Ġc all
Ġf irst
sp ect
r o
ic i
Ġqu est
ed om
is h
Ġr ational
Ġdif feren
Ġre spect
Ġbe en
Ġp ur
w ith
Ġre m
Ġdis c
ot her
Ġcons id
Ġcomple te
ĠN ow
a ch
Ġin de
in k
in e
i ed
Ġsy stem
Ġex am
ere d
Ġ H
d er
Ġha pp
Ġw hether
Ġth us
âĢ ľ
âĢ Ŀ
ĠTh is
Ġa ct
Ġf e
w e
Ġex t
Ġbel ong
ut h
in ation
Ġfac ulty
Ġre ality
Ġform er
Ġc ategor
x im
in ess
re e
ecul ative
s ess
Ġsynthe sis
Ġ very
Ġor der
Ġa g
d ic
Ġv al
Ġsome thing
o ver
Ġ en
Ġm ake
Ġl atter
Ġhow ever
u nder
su ous
Ġwe re
Ġgr ound
m it
p ar
um an
l ess
cious ness
Ġpl ace
Ġs ci
Ġun ivers
m ed
Ġ âĢľ
Ġnecess ity
Ġy ou
Ġfre edom
Ġgo od
o de
p ose
Ġf ind
st it
Ġcaus ality
Ġth ose
Ġ R
b y
Ġe ffect
Ġwho le
ad ict
Ġ E
e ll
ic s
h a
Ġp res
o bject
Ġth ink
pre me
Ġo ut
al y
Ġt er
Ġd ut
i le
Ġex p
w o
Ġquest ion
Ġma xim
k e
Ġsen sib
o phy
Ġh uman
Ġpos sess
s y
t y
re ason
ex ist
u al
Ġre al
ig in
o ve
e ar
s er
r ough
Ġj ust
Ġpro du
Ġapp l
Ġp ow
Ġa m
Ġm ind
Ġper fect
ut en
ĠI f
a v
ber g
ari ly
Ġy et
uten berg
Ġn ame
Ġc rit
th is
o int
Ġsp eculative
Ġm at
Ġs im
Ġat t
Ġdetermin ed
s en
ou n
m an
Ġsub st
Ġdifferen t
phy s
og it
ic ation
ed u
ere st
le ct
ib le
in ce
Ġrepresent ation
Ġsp here
Ġsynthe tical
ie w
ur al
k s
ce ed
l f
Ġ D
iv ed
Ġg reat
ol ogical
Ġ ent
he d
Ġt wo
Ġb as
) .
Ġman if
i ke
Ġf act
id ent
b le
Ġdut y
he mat
Ġs ec
Ġval id
ff ici
or y
Ġide as
ro ject
u le
Ġsen suous
con s
an g
as s
Ġin cl
Ġin ternal
de termin
Ġim p
Ġth rough
Ġse lf
Ġdetermin ation
Ġsh all
Ġcall ed
c ogn
Ġwor d
Ġsci ence
Ġper ception
pr inci
condition ed
ar act
r ib
o o
Ġv iew
Ġor igin
ut ion
under standing
Ġsubject ive
Ġfe el
ĠW e
aract er
ul ar
y p
y ond
Ġcon stit
Ġc or
Ġphilos ophy
T h
ic e
fin ite
f ul
the re
Ġin v
Ġh ig
og y
Ġp oint
Ġpur pose
v ed
Ġr ule
Ġabsolute ly
us ion
Ġexam ple
Ġhe re
e ci
n ecess
Ġnat ural
Ġcons ciousness
Ġm ode
ent s
ot h
Ġsh ow
an ge
Ġwh ile
Ġunivers al
t ed
Ġ _
Ġin f
Ġst ill
Ġe ach
Ġim possible
Ġhim self
Ġbe t
Ġ est
Ġc ogit
Ġnecess arily
Ġphenomen on
ĠP roject
i ate
er n
ire ct
Ġex ternal
c an
Ġex pl
Ġdetermin e
Ġpow er
Ġad mit
act ion
Ġint erest
s ion
Ġconnect ion
i res
n er
Ġan other
Ġsen s
Ġle ast
w ise
at ing
Ġg ive
a phys
Ġaction s
Ġw ay
ell ig
Ġbe yond
Ġint ellig
Ġqu ite
Ġrequ ire
Ġqu ant
ĠG utenberg
Ġl ike
Ġwe ll
ex perience
Ġhapp iness
ĠR e
Ġname ly
Ġk ind
Ġdetermin ing
at is
Ġmanif old
Ġ M
y s
Ġn or
Ġe ither
Ġour selves
an ces
Ġh and
u ght
Ġcontain s
Ġa p
Ġcategor ies
d is
ab l
Ġinde ed
a ge
it s
Ġw here
Ġs tr
Ġconsid er
Ġch aracter
Ġlimit s
cc ess
Ġcon c
Ġd em
Ġapp ear
Ġpro ceed
p henomen
t ic
atis f
Ġre st
. ,
Ġan aly
Ġst ate
a pp
ot he
r a
Ġmor ality
g in
em pt
ing u
oo k
ffici ent
Ġre f
Ġter m
iz e
g um
Ġd iv
Ġsu m
ppos ition
Ġcomm on
Ġcontr ary
Ġnot ion
Ġpro of
yp othe
ol ogy
m uch
Ġcom p
is hed
Ġad v
Ġse e
Ġm atter
Ġd edu
ĠTh us
Ġcontr adict
ar k
r ing
ak es
re g
Ġfre e
Ġass um
Ġfollow s
Ġfeel ing
e v
feren ce
B ut
Ġsu preme
exist ence
Ġ L
Ġcon cl
Ġrepresent ations
conception s
Ġcon ce
Ġsec ond
con tr
en ces
i ous
ab ly
Ġtr ue
Ġb oth
Ġtr uth
Ġrem ain
Ġo ught
E R
sib le
p endent
l u
Ġha d
Ġm ost
u nd
med iate
Ġre s
f rom
Ġs ince
Ġd ec
Ġ 1
ic ism
Ġt ake
Ġdist in
ĠRe ason
f ter
str u
Ġme t
Ġpart s
Ġsensib ility
Ġpres u
t en
Ġsubst ance
ic ular
iv es
f ic
er t
we en
Ġm uch
Ġm ight
Ġbe gin
Ġbeing s
Ġman ner
Ġregard s
Ġ U
Ġat tain
le ar
Ġsu pp
as much
Ġl ogical
Ġpre dic
Ġexp ress
Ġcons ist
Ġwor k
Ġph ys
ir m
Ġcont ent
Ġ ill
Ġab le
Ġn ow
int uition
Ġregard ed
Ġma de
it ed
Ġto t
Ġd irect
Ġbe fore
Ġfound ation
a id
b ut
Ġa im
on str
he st
Ġcon f
Ġmat hemat
re present
ppos ed
Ġdisc over
a cc
p end
I n
m a
Ġm ot
os m
v ing
Ġa ff
Ġun conditioned
Ġar gum
Ġcon cept
est ig
pon d
t m
Ġh ypothe
Ġexist s
Ġconsid ered
Ġc l
o id
is ion
Ġcondition ed
at ic
Ġjudgement s
Ġbet ween
Ġquant ity
Ġ [
res pond
Ġother s
Ġab ove
ĠA nd
s on
ou b
le ment
em pirical
Ġpro ble
ĠO n
ĠC on
og ic
re l
as ure
w ard
Ġs atisf
Ġth ough
c ise
at h
k now
Ġde g
Ġproposition s
princi ple
en e
p able
w or
Ġcon form
ĠO f
O O
n at
Ġin d
Ġsu ccess
Ġde fin
su b
Ġse t
Ġwor th
Ġp le
on ly
ul es
iz ed
Ġst and
i qu
ra ph
ut es
ial ect
Ġc lear
Ġsim ple
Ġbas ed
re d
om y
ore tical
pr actical
Ġs our
ag raph
Ġdes ire
Ġag ain
Ġu p
ak en
un ction
Ġar r
be ing
re ad
ĠP ure
Ġhig hest
E N
Ġr ight
if e
Ġim per
Ġreg ress
Ġemploy ed
Ġest abl
th od
the m
c rib
Ġo cc
Ġan s
mat ical
n ing
l aw
Ġman y
Ġcognition s
Ġcaus es
Ġext end
T I
Ġd er
per ception
Ġob ser
Ġconc ern
, âĢĿ
ĠG od
od u
Ġe l
O N
Ġa c
Ġle g
op her
the less
cogn ition
Ġ er
Ġcomplete ly
Ġans w
Ġin asmuch
Ġany thing
Ġim ag
iqu e
ent al
e p
Ġch ange
Ġa fter
av our
Ġr ules
Ġpresent ed
Ġdist ingu
c ertain
ign if
oun t
m on
tr ib
Ġso le
Ġin finite
Ġcon sequ
Ġper son
Ġbelong s
Ġmaxim s
Ġmet aphys
m um
I t
Ġemploy ment
m ust
Ġse em
Ġpart icular
Ġne ed
Ġrequ ires
phenomen a
t le
Ġconnect ed
u de
Ġn um
at her
Ġm od
Ġf ur
Ġl ife
Ġim mediate
Ġmy self
there fore
necess ary
Ġres ult
ent ion
ir t
Ġg u
ect ion
con t
on um
Ġw ant
ord ance
Ġcont ing
Ġground s
Ġent ire
hen ce
lu ence
OO K
Ġin dic
Ġend s
Ġevery thing
ĠĠĠĠĠĠĠĠĠĠĠĠĠĠĠĠ ĠĠĠĠĠĠĠĠ
Ġvalid ity
Ġappl ication
Ġsystem atic
Ġf in
Ġatt empt
Ġre ally
he s
m is
c y
Ġs c
m ere
Ġc op
B OOK
our se
Ġintuition s
Ġne g
id es
ou l
Ġ i
possib ility
Th is
Ġinv estig
Ġtot ality
su bject
Ġ "
H A
Ġne w
Ġm ain
h ow
oub t
a im
Ġan t
c ome
p ect
contr adict
' s
Ġe lement
Ġcor respond
Ġintellig ible
p art
du ct
Ġs ide
Ġb od
it self
er cise
Ġb onum
Ġl ogic
Ġme thod
condition s
Ġcontain ed
Ġass ert
Ġcomm and
Ġdeg ree
l ig
Ġre ad
a se
Ġe as
Ġphys ical
) ;
Ġr ather
Ġme an
Ġv irt
r aw
is l
d o
ar r
Ġthere by
ens ion
Ġphilos opher
with out
man ent
Ġsens es
o v
ct r
p s
Ġbel ie
Ġimp ort
I f
Ġword s
read y
ĠT H
Ġm en
un ity
Ġ hence
tr anscendental
W e
ak ing
g o
Ġd og
Ġother wise
og ress
b ec
er ial
Ġo ver
A L
T ER
Ġer r
Ġn on
Ġsp eci
Ġl ong
par agraph
i ly
an e
Ġl ess
Ġdem onstr
sy nthe
id ed
Ġs ol
Ġh old
Ġat trib
Ġab str
Ġrel ations
Ġremain s
Ġansw er
it ies
m or
an ation
Ġe qu
nat ure
Ġ ^
Ġ {
is es
Ġs ignif
Ġs oul
ate ver
Ġide al
Ġinde pendent
Ġbas is
Ġsum mum
b it
Ġc o
Ġperfect ly
Ġthe oretical
Ġp ost
Ġex cept
ĠThe re
Ġform al
Ġacc ordance
ĠTh at
Ġproble m
Ġentire ly
o b
C HA
P TER
d om
Ġm em
ĠP r
ĠS u
Ġne ither
Ġ es
Ġcont in
Ġsensib le
Ġproper ly
Ġinf luence
e ing
Ġto o
u ally
al though
Ġb ound
Ġcon duct
Ġgiv es
ĠH ence
Ġthink ing
Ġnum ber
uth or
en cy
Ġin qu
com ple
a use
ce ive
Ġbe come
Ġal ready
Ġexpl ain
i ar
Ġe ver
Ġsu fficient
as es
osm ological
re ct
Ġs aid
pr iori
Ġpre v
Ġdif fic
CHA PTER
m en
Ġ her
m all
ce ived
r anscendental
Ġex ercise
Ġacc ount
ĠO F
Ġvirt ue
w ill
a il
an y
Â §
Ġ ut
Ġple asure
Ġform s
in ations
Ġd oubt
Ġdetermin es
Ġdistin ction
Ġ ident
hen sion
Ġ ess
ĠI I
p ure
Ġpro v
Ġin st
Ġexp ect
g r
Ġt aken
Ġd ialect
Ġh ar
Ġh op
ced ure
Ġprodu ce
Ġcogit ated
ecul iar
lect ual
Ġp ass
Ġpro ve
Ġpre ced
Ġdedu ction
Ġargum ent
Ġel se
Ġ 2
Ġm is
Ġd en
Ġapp re
Ġmat erial
Ġab out
Ġcon stru
ound ation
ĠA s
Ġapp ly
sen sible
Ġerr or
ir c
d ist
it ive
Ġo p
Ġre nder
Ġc ourse
N ow
t ime
Ġa ffect
Ġm akes
Ġpr ogress
Ġg ener
ult ies
ĠĠĠĠĠĠĠĠĠĠĠĠĠĠĠĠ ĠĠĠĠĠĠĠĠĠĠĠĠĠĠĠĠĠĠĠĠĠĠĠĠ
Ġob lig
Ġrem ark
Ġbegin ning
u p
Ġl ies
Ġall ow
Ġlimit ed
ĠĠ Ġ
Ġpr om
Ġde pend
Ġv ari
object s
cons ciousness
Ġpredic ate
bec ause
t ies
reg ard
ant age
Ġf all
Ġsu per
ex t
Ġcons cious
Ġappl ied
ut ed
con sequently
ĠB eing
can not
Ġassum e
Ġconsist s
Ġimper ative
Ġcop y
ab ility
Ġch ang
Ġcogn ize
the se
pp ose
Ġexist ing
ppos ite
Ġnever theless
Ġquest ions
ha ve
sy ch
Ġa id
o c
Ġl ook
Ġca pable
ĠTH E
Ġa w
Ġp eculiar
the y
Ġshow n
Ġexpl anation
Ġleg isl
Ġmain tain
de qu
Ġp ath
* *
on ic
Ġd raw
he ma
ie ld
Ġdiv ision
. âĢĿ
Ġf al
Ġwh ose
Ġincl inations
princi ples
Ġhig her
Ġaff irm
Ġimag ination
Ġsole ly
mere ly
ctr ine
d if
im ate
s im
F or
in ed
ov ered
Ġunder stand
n t
Ġre ference
Ġwh atever
Ġpure ly
Ġad dition
Ġfollow ing
Ġdifferen ce
Ġcontradict ion
con nect
b l
Ġ ed
ab solute
w ould
Ġpro cedure
ĠSu preme
in te
n e
ical ly
ul ative
a ve
object ive
ten ess
the ir
Ġad d
Ġag re
Ġwith in
Ġter med
ward s
Ġhar mon
og ism
pos es
str ict
on t
Ġwor ks
_ ,
Ġw ish
Ġc irc
Ġsp e
Ġev ident
Ġy our
Ġhapp ens
Ġill usion
Ġhypothe sis
Ġsour ce
s ome
u ll
dis c
ou men
e avour
dequ ate
h ib
Ġe B
Ġd one
Ġint el
Ġcertain ly
Ġeffect s
Ġincl ination
Ġanaly tical
Ġdefin ition
Ġconting ent
Ġfal se
e very
g iv
on omy
Ġb r
or ough
Ġu nd
i a
Ġ Y
wh at
lect r
Ġa v
Ġcogit ate
R E
w hether
Ġs mall
Ġagain st
Ġhop e
Ġc e
i o
n i
pos ed
ha ps
c or
Ġrel ate
ha pp
acc ording
r ight
Ġcon j
Ġd id
Ġper manent
Ġrepresent ed
Ġcategor y
Ġfur ther
c ing
t ing
Äł Äł
mor al
ent ial
am ental
Ġcertain ty
Ġempirical ly
Ġext ension
determin ation
Ġdem and
und amental
Ġimmediate ly
Ġsc hema
Ġneg ative
ph ilos
l ar
Ġs ing
Ġv ol
im es
pro position
Ġo pposite
ow n
ĠT o
us ions
ĠThe y
Ġjust if
Ġsubst ances
Ġsens ation
Ġmathemat ics
rel ation
Ġintel lectual
c ategor
l es
ur n
i x
Ġj ud
et aphys
s ist
Ġf ut
o ph
p ly
Ġt reat
Ġb ring
ĠT ranscendental
rit ique
Ġperfect ion
Ġconcl usion
Ġdistin ct
Ġconsequ ence
Ġinqu ir
id ence
ign or
er se
Ġcl aim
cons id
comple te
Ġt e
Ġo per
iv id
pt ion
Ġsp ring
Ġadv antage
0 0
Ġint r
ĠA n
ppos es
Ġend eavour
Ġproper ties
Ġperception s
know ledge
Ġconform ity
y n
s es
om ent
Ġcon v
Ġser ve
j udgement
is ed
ev en
Ġcor rect
it tle
Ġth ree
Ġth orough
su ch
ĠA ll
Ġaccording ly
Ġbelong ing
represent ations
Ġseem s
c k
d es
in de
e ad
are d
c all
t og
im al
Ġpre t
s h
Ġrel ates
Ġdist rib
Ġval ue
Ġrest s
tog e
is hes
Ġf unction
Ġan al
Ġl ie
Ġdetermin ations
Ġab s
thing s
Ġdis position
Ġch o
Ġproper ty
Ġpossess es
Ġam ong
them selves
Ġeas ily
lectr onic
toge ther
l imit
b r
ir d
og ene
ll ig
f er
sen suous
Ġbod y
Ġappre hension
Ġagre ement
h at
Ġob tain
Ġdisc overed
ĠH e
Ġext ent
Ġcrit er
Ġconce ive
ĠĠĠĠĠĠĠĠĠĠĠĠĠĠĠĠĠĠĠĠĠĠĠĠĠĠĠĠĠĠĠĠĠĠĠĠĠĠĠĠ Ġ
Ġp ar
as ion
R A
ode ict
A ll
i or
le ction
Ġknow n
Ġpow ers
Ġinv ol
Ġc ases
al ways
Ġthere of
ĠF oundation
ud ed
Ġev ent
Ġcrit icism
Ġinf er
Ġap perception
ĠCon sequently
Ġchang es
Ġfut ure
g an
p res
ac k
E C
Ġpro ved
Ġ Â§
Ġ ignor
Ġdetermin ate
ex am
Ġcrit ical
w here
Ġa uthor
Ġint u
Ġact ual
Ġterm s
o od
bit r
Ġf ul
yn am
n o
wor ld
h il
p eci
Ġle ad
Ġstr ict
ec h
Ġcontin u
. [
a p
Ġm ed
Ġn oumen
Ġl ittle
il ar
Ġdo ctrine
Ġexpress ion
Ġmathemat ical
Ġder ived
Ġinvestig ation
giv en
iv erse
ow er
ivid ual
Ġconce ived
sub st
p ens
re qu
Ġcom par
Ġan te
m ay
es ides
Ġm oment
Ġn ay
Ġd ynam
Ġsu pposed
Ġha ving
Ġreg ulative
Ġconstit utes
ĠU n
Ġelement s
do es
Ġmem ber
le g
pro c
r ational
feren t
Ġas k
at ement
inte llig
A R
Ġe t
Ġsupp ort
re edom
Ġin fin
end ed
ĠThe se
su fficient
ac es
ens ive
Ġanaly sis
Ġsuccess ion
Ġestabl ished
Ġdiffic ulty
he nd
p ur
I S
j ust
Ġsol ution
ll ogism
Ġcomple teness
Ġs ch
Ġf ield
Ġex hib
Ġtr ans
Ġar ises
ĠE x
Ġrequire d
Ġsee k
Ġaim s
Ġmot ive
Ġargum ents
Ġestabl ish
Ġdistingu ish
Ġmetaphys ics
how ever
Ġcorrespond ing
b el
re m
n it
f e
ord in
et y
Ġre cogn
Ġpro f
Ġp ain
Ġex cl
Ġsp ont
Ġcom b
Ġv ain
Ġrequ is
Ġdisc us
Ġap art
Ġdirect ly
Ġsour ces
Ġdog matical
Ġprev ious
Ġsing le
Ġspont ane
ca us
Ġin s
TI ON
com m
o le
n ever
Ġregard ing
Ġf r
Ġcogn ized
in omy
Ġon ce
Ġsu pposition
Ġhe l
Ġper haps
ĠĠĠĠĠĠĠĠĠĠĠĠĠĠĠĠ ĠĠĠĠ
ĠC ritique
Ġdes ign
Ġen ough
Ġunivers ality
Ġgreat est
Th us
Ġintellig ence
Ġobser v
Ġante ced
iv ing
qu est
d em
Ġ 3
Ġto ge
ar n
synthe tical
Ġtoge ther
m ost
Ġt akes
ing dom
Ġbe com
Ġev il
Ġsatisf action
oph ical
in ion
Ġc osmological
ĠI de
Ġtr anscendent
ĠS uch
ecul ation
Ġpresent s
Ġfac ulties
Ġcategor ical
Ġlike wise
represent ation
Ġsuccess ive
Ġabstr act
Ġsuper sensible
Ġdynam ical
r ow
at t
im p
ist ic
as k
Ġcom e
is ing
Ġcom pre
n ame
g eneral
in cl
not hing
ell ed
S ection
Ġth ird
Ġd on
Ġsu r
Ġal together
ĠA r
Ġpur su
Ġprodu ced
Ġconstit ution
Ġbet ter
Ġsupp ose
Ġocc up
Ġmean ing
Ġdialect ical
Ġpreced ing
app l
res pect
f ollow
Ġk e
i gh
Ġb l
pro per
iv ity
en se
f t
ab our
Ġe y
Ġre strict
ative ly
Ġof ten
Ġp sych
Ġe lectronic
Ġde l
ca pable
Ġdes tr
Ġhuman ity
Ġcrit ique
sen se
Ġap odeict
Ġpredic ates
Ġconstru ct
Ġharmon y
Ġintr odu
call ed
ic able
Ġf ore
app ear
ni hil
Ġin g
if ic
sy stem
ve l
ens ions
se par
I I
it um
ori z
Ġ 5
Ġapp ro
ogene ous
in es
Ġappear ance
Ġo pposition
Ġf ull
ut ing
Ġex act
Ġun less
Ġr a
Ġk ingdom
ud ing
Ġst ates
Ġpre cept
Ġar ise
Ġmanif est
Ġref er
Ġadv ance
Ġimport ance
Ġaffect ed
Ġrequis ite
in v
I N
s um
Ġ *
pr odu
Ġc he
th ought
cons ist
Ġess ential
h as
i um
Ġs ort
Ġl ast
Ġv oid
sp ace
ĠS p
Ġobjective ly
Ġsim ply
Ġdec l
contradict ion
Ġread er
Ġattrib ute
Ġbound s
Ġcirc um
some thing
Ġcriter ion
peci ally
Ġhel p
Ġ V
ct ive
com p
ome tr
ment s
u bl
is on
id ance
cc ording
Ġle t
Ġag ree
b ers
Ġa dequate
Ġor gan
Ġappear s
Ġbelie f
al one
ut onomy
Ġso on
Ġle ave
Ġar bitr
Ġmore over
me ans
form ation
Ġact ually
determin ed
Ġconstit ute
Ġadmit ted
Ġconcept s
Ġind ividual
law s
Ġabstr action
Ġsignif ic
Ġpost ul
ĠPr inci
Ġaw ay
name ly
em ploy
ici p
c re
Ġe ar
un ivers
ict ion
consid er
E S
Ġfin ite
pl ace
Ġ J
s c
the n
Ġl ine
crib e
Ġav oid
l atter
at um
qu ant
oo ks
l ove
re ality
Ġin ev
Ġf undamental
ception s
Ġun iverse
Ġr o
ĠB y
ĠS ection
Ġpos itive
Ġplace d
Ġgreat er
Ġorigin al
necess ity
Ġpresu ppose
know n
Ġfur n
Ġconj unction
Ġvol ition
Ġinev it
per fect
p e
y ing
dist ingu
ech an
ur d
ci proc
con tain
Ġ K
EN T
it er
Ġse par
ag es
R O
Ġt est
ut ive
con stit
sp eculative
Ġc reat
ot e
pt y
ol ly
Ġca re
mat hemat
aly tic
Ġconc re
phenomen on
Ġphilosopher s
Ġident ical
Ġvari ous
con f
m etaphys
ĠR E
Ġ ly
RA N
o ol
wor th
ul a
T H
re n
T here
pt er
Ġg e
sib ility
ff ort
d iv
Ġof f
Ġimport ant
Ġut ter
Ġet c
f reedom
it le
Ġw it
ci ence
Ġev ents
Ġdis p
Ġuse ful
Ġfound ed
Ġexam ination
mit ted
Ġdedu ced
Ġmot ives
Ġclear ly
Ġdistingu ished
Ġindic ates
synthe sis
Ġbr ought
happ iness
categor ies
ph ist
Ġ 4
gr ound
in s
Ġ ens
i p
he tic
Ġc arr
Ġs cept
Ġf a
ure s
Ġpos ition
Ġclaim s
u pon
Ġt ask
Ġw is
Ġun able
Ġsp eculation
Ġper ceive
pos sess
Ġst atement
our selves
Ġle arn
Ġle ft
Ġact ing
Ġsci ences
Ġpossess ion
Ġatt ention
Ġconsider ation
Ġhypothe tical
Ġac cept
Ġac qu
Ġresult s
Ġcopy right
Ġspe ak
ĠeB ook
Ġey es
c ogit
ib er
E very
m y
Ġp ut
ur s
e termin
f ac
o pt
Ġc re
h im
ubl ic
C E
ar ch
Ġsu ffici
Ġg en
Ġdetermin able
Ġthe ology
Ġwh om
Ġwh olly
end s
Ġad opt
Ġmoral s
Ġinterest s
Ġpresu pposes
Ġdirect ed
Ġstand s
Ġconsequ ences
Ġant inomy
connect ion
Ġbecom es
v en
l t
g g
l ict
sp eci
ch ange
Ġst ep
v al
at a
ar ks
Ġg ain
Ġsim ilar
Ġdraw n
Ġo pp
Ġm ental
Ġf avour
Ġfor ce
end ing
h is
is hing
Ġc osm
ous ly
Ġem pty
un conditioned
ĠS t
Ġlimit ation
Ġdes ires
Ġexam ples
Ġen able
Ġmot ion
Ġproble matical
Ġgu idance
Ġindic ate
Ġattempt s
mis sion
Ġbod ies
Ġes pecially
Ġlegisl ation
absolute ly
Ġapodeict ic
Ġcircum st
Ġsignific ance
Ġconcre to
t ot
th ink
pres u
p ic
Ġl ight
t un
ort ion
quest ion
m ore
Ġf ig
nder standing
pos ite
crib ed
s atisf
at ives
st ood
Ġpro p
um e
Ġacc om
? âĢĿ
x i
Ġo pposed
Ġsu re
Ġde finite
Ġdes er
Ġpur poses
ser ies
pend ence
Ġocc asion
Ġconcern s
Ġcommand s
Ġdog mat
Ġinst ead
Ġoblig ed
Ġdepend s
ĠY ou
philos ophy
Ġjustif ied
Ġjud ge
Ġsch ool
Ġins ight
Ġarbitr ary
Ġ Ã
in ction
ure d
ain t
int erest
iz ing
are nt
av oid
us ed
Ġphilos ophical
W hen
in to
Ġre ach
Ġwh y
Ġh igh
Ġfor th
Ġsy llogism
Ġphenomen al
ac hed
ĠW hen
Ġcomm unity
Ġhapp en
man ence
Ġsubjective ly
Ġmod es
contradict ory
Ġassert ions
Ġeas y
Ġbelie ve
Ġcho ice
Ġdestr oy
iter ary
Ġge ometr
Ġwis dom
o ly
EN D
bel ong
g u
an aly
k ind
Ġt a
Ġo ld
ic ense
or igin
f ree
Ġt imes
Ġin ter
pl ine
sh ould
im ent
ive ly
ate ly
con form
ud es
Ġs ought
an gement
Ġcon ver
Ġsub tle
go od
G utenberg
T o
e ither
s ame
Ġe ffort
Ġpr ior
im possible
ci pline
ch ive
pre dic
ppos ing
Ġrespect ing
Ġunivers ally
Ġfind s
Ġwhere by
Ġref lection
Ġextend ed
Ġder ive
Ġident ity
Ġconstru ction
Ġop inion
Ġgener ally
dif ferent
caus ality
Ġke ep
Ġinevit ably
fac ulty
lt imate
I T
r op
s ens
I C
re al
m s
Ġw ise
g ed
edu ction
Ġd om
as ing
th an
dem onstr
em ark
Ġc oun
pur pose
Ġm ag
c ould
Ġa utonomy
Ġc ol
al so
Ġin capable
Ġb esides
Ġm aking
Ġm echan
ce de
Ġpr imal
Ġan nihil
Ġl ay
ĠĠĠĠ ĠĠĠ
th ose
Ġexist ed
Ġreg ion
wh ole
ca se
Ġpractical ly
Ġevery one
Ġsub ordin
Ġprodu ces
Ġcomp elled
Ġassum ed
Ġconcl usions
Ġmetaphys ic
Ġconting ency
Ġfin ally
Ġindependent ly
Ġinquir y
ĠAn alytic
Ġcompar ison
intellig ible
Ġutter ly
etermin ed
id ing
su ccess
Ġful ly
p ath
ib ility
ch aracter
Ġp e
ENT AL
ĠA N
cont ent
j ud
c ess
l ike
it able
im in
m ort
r u
ar ge
stru ction
Ġt able
Ġh on
Ġattain ed
P roject
in ternal
Ġthe ory
Ġre du
Ġd own
Ġex per
Ġl abour
Ġnot ions
us ory
Ġun condition
ide a
Ġtr ansc
Ġim pl
Ġhe ter
ant ed
str atum
feren ces
Ġdut ies
sen sibility
ful ly
Ġpoint s
Ġcontradict ory
contr ary
Ġconf lict
Ġarr ive
Ġmem bers
Ġfunction s
subst ance
Ġinfin ity
Ġdon ations
Ġcosm ical
c rit
pro v
ene tr
U T
g reg
hen sible
Ġar t
S C
ist s
if ication
ck on
f ar
er it
con ce
ex pl
ac y
i ang
m atter
ie f
oun ce
Ġsec ure
ang er
w w
ing s
ar s
ad v
ire ction
Ġgiv ing
Ġacc ess
form er
a ight
s cience
re t
er iori
Ġs ake
Ġin dis
Ġto wards
Ġf ill
Ġd irection
om ogeneous
Ġcan on
Ġde f
Ġde pendent
act ions
Ġthere in
Ġme et
pir icism
Ġmor ally
Ġad m
be en
ĠW ith
ĠW hat
ither to
ĠH ow
necess arily
Ġkind s
ĠL iterary
Ġpresu pposed
Ġarr angement
Ġspeci al
ĠPr actical
ĠII I
Ġdialect ic
Ġoper ations
Ġsuffici ently
n on
ab str
R e
g reat
ant e
Ġse qu
disc over
l ight
cor respond
so ci
h ig
Ġ 9
as h
com pre
w hen
or row
H ow
f irst
al ent
Ġpr ud
im mediate
el f
univers al
is ible
Ġpro b
Ġper ceived
ÄłÄł ÄłÄł
o in
t imes
Ġf an
Ġn one
Ġre ciproc
Ġpr iv
Ġex position
Ġl os
ur ally
ore tic
us iness
Ġcom posite
Ġr ise
ex ternal
Ġev idence
Ġacc ident
Ġma j
Ġpl ain
Ġpur ity
Ġfe ar
Ġprodu ct
determin ing
Ġwhere as
Ġstr aight
Ġtot al
Ġcl ass
Ġequ al
ĠThere fore
Ġden y
Ġoblig ation
ĠeB ooks
Ġpret ensions
Ġanal ogy
limit ed
Ġignor ance
Ġspontane ity
Ġcompre hend
ĠAr chive
Ġpsych ology
ĠPrinci ples
Ġcarr y
O R
Ġ ir
inv estig
d en
i an
le v
e ffect
o cc
ob ser
xi om
p ress
sub sist
p oint
ix ed
e em
s ince
or g
pens able
Ġs ever
Ġun ited
W hat
s ide
Ġf ail
Ġre ceived
Ġd ivers
Ġas soci
Ġu ltimate
Ġl ove
if ice
Ġreason ing
Ġde fect
Ġso phist
ĠA ccording
sp here
Ġsub stratum
Ġcontain ing
exist ent
Th at
Ġfeeling s
ĠCon ceptions
Ġimper atives
Ġobser ve
Ġattrib utes
Ġsignif ication
Ġprev ent
Ġprov ided
Ġop en
Ġanal og
Ġnoumen on
mort ality
iang le
N D
S u
v ious
as ant
ren g
A S
c ceed
h and
ib nit
ibnit z
it ude
e ibnitz
p ower
it es
at or
mis sible
Ġspeci es
l at
Ġs k
Ġp ublic
am ed
Ġpres ence
stru ct
Ġt itle
Ġs he
Ġb ack
Ġf our
st hetic
ut y
ĠI m
Ġde t
ĠF rom
ĠP ro
Ġpl an
Ġcont em
ĠG eneral
Ġass ign
with standing
ĠU nderstanding
Ġstand ard
certain ty
Ġassert ion
Ġlong er
Ġdemonstr ate
Ġlegisl ative
Ġund etermined
Ġce ase
proposition s
Ġthorough ly
Ġabs urd
Ġpar agraph
Ġnoumen a
Ġprevious ly
ĠSp ace
Ġopp on
Ġcircumst ances
Ġschool s
avoid able
Ġsever al
uth oriz
v ol
ire d
at tain
cl aim
vel op
a pt
in f
ĠO R
en ess
Ġus ed
iz ation
i ld
i ally
ang u
O U
op ular
cont in
part icular
u ous
Ġworth y
Ġpr act
th rough
ign ity
iber ty
val id
t ion
Ġs ight
Ġre c
Ġh um
Ġjust ice
) âĢĶ
P r
W h
a ir
it ing
Ġw rit
Ġp ast
Ġin du
Ġin formation
Ġm ention
Ġre ce
Ġcon fin
Ġh itherto
Ġas c
ir med
Ġpro cess
Ġun known
Ġv ent
ound ed
Ġform ula
Ġnat urally
ad emark
Ġqu ality
Ġrel atively
ĠA t
Ġpart ly
Ġch ain
Ġen lar
ha pter
Ġmind s
man if
Ġproceed s
Ġdec ide
Ġdefin ed
Ġmetaphys ical
Ġprov ide
Ġdemand s
Ġintu ited
ĠUn ited
Ġdiscus s
Ġobserv ation
Ġfurn ish
m ot
j oy
p ost
iz es
tr uth
pro ceed
t urn
u it
nat ural
** *
at er
th rop
a dequate
Ġ =
Ġt urn
re st
is sim
Ġs a
the oretical
we ll
ust r
Ġhe ld
Ġsatisf ied
crib es
Ġconcern ed
Ġs ent
Ġin separ
Ġb ene
Ġb orrow
Ġb usiness
Ġf irm
Ġe lev
Ġd ata
Ġwe ight
Ġsu cceed
Ġcom position
Ġper manence
Ġst ud
ac hes
ĠS o
ĠS y
ĠO ur
Ġcontr ib
Ġob st
Ġob sc
Ġdisc ern
âĢĿ ;
Ġadmit ting
Ġquant ities
Ġaff ord
rel ate
Ġwant s
Ġdemonstr ation
Ġhold s
Ġproblem s
Ġden ied
Ġvari ety
every thing
Ġspring s
Ġignor ant
exam ple
Ġauthor ity
Ġdiscus sion
Ġanteced ent
Ġfore ign
Ġexact ly
quant ity
Ġscept icism
Ġdom ain
Ġmaj or
u g
Ġan g
Ġo m
l ook
al s
pl ay
ma xim
TI C
n ex
Ġm ist
sel ess
ialect ic
E D
a ff
s ay
be fore
distingu ish
END ENTAL
SC ENDENTAL
Ġp un
ur ing
if ied
Ġunder stood
Ġprodu ction
Ġexpect ed
Ġadd ed
B y
o ple
Ġa xiom
re es
it led
le ast
Ġd est
Ġd anger
ent ific
Ġl ost
Ġl ower
cept ivity
ol iness
ĠĠĠĠĠĠĠĠ Ġ
Ġpossib ly
Äł in
Ġim mortality
Ġper form
Ġapp arent
ĠP h
ag ed
Ġsci entific
Ġpres er
Ġappl ies
ĠD e
Ġimp ul
Ġconstit utive
Ġadmit s
Ġpresu pposition
Ġill usory
Ġind if
Ġafter wards
Ġant it
Ġinst ance
Ġ2 00
connect ed
Ġspe aking
Ġinquir ies
Ġabs ence
Ġear th
RAN SCENDENTAL
Ġeffort s
issim um
Äł c
p sych
d raw
v ere
cont ing
Äł s
att empt
O n
ic o
ci es
st ant
min d
oub ted
Ġg l
ig ion
Ġca p
Ġse en
Ġen g
ne g
a fter
Ġtr y
phys ical
ur ity
Ġint ention
act ory
Ġim age
ind ic
Ġqu al
are r
Ġappl icable
Ġp ay
Ġin ference
Ġm ark
ed ience
Ġe th
Ġre ckon
Ġd ignity
ut ation
Ġpro ves
Ġtr iangle
Ġnecess it
Ġst reng
one y
ĠN ay
Ġsub sum
ĠC osmological
Ġrem o
Ġexam ine
Ġorigin ate
Ġdiv ided
Ġdedu ce
Ġconcl ude
Ġsecond ly
Ġind irect
being s
Ġdemonstr ated
Ġequ ally
Ġrender s
Ġsmall est
complete ly
Ġendeavour s
Ġconv iction
Ġexhib it
Ġra ised
mathemat ics
worth y
Ġlearn ed
Ġdivers ity
con sequ
Äł f
ex press
g ress
su per
ex pect
gg est
A s
a e
Ġf it
J EC
Ġa uthoriz
Ġc r
Ġan ci
ir it
ag ain
app re
inde pendent
Ġfig ure
. )
_ .
l ies
Ġest im
subject ive
Ġprop ortion
manif old
, "
T ranscendental
g es
g utenberg
o very
t ake
in asmuch
Ġb est
Ġm erit
Ġm oney
an other
Ġre ceive
Ġfor ces
th us
Ġde velop
Ġsp irit
Ġem piricism
Äł re
ori ous
ĠP U
ĠP RO
Ġrepresent s
ĠĠĠĠĠĠĠĠĠĠĠĠĠĠĠĠ ĠĠ
ĠN o
Ġsub l
imit ive
Ġdifferen ces
ĠH ere
Ġag greg
Ġproceed ing
Ġanaly tic
Ġref lect
Ġbegin s
Ġexpress ions
Ġhypothe ses
cise ly
Ġdeg rees
Ġinvestig ations
go ing
Ġpost eriori
Ġes ca
Ġerror s
Ġinvol ves
Ġinfer red
nit ude
Ġprof ess
Ġpostul ate
him self
ĠSt ates
Ġpriv ate
Ġlos s
subsist ent
angu age
g l
ici ans
con c
pr i
leg isl
reg ress
fe el
C on
S T
ain s
um er
y ou
as ser
if y
ER G
j un
o ined
v ice
st ep
Ġform ed
pro of
B ERG
o per
Ġu su
wh ile
Ġconsist ent
Ġgu ard
Ġcontin ue
Ġallow ed
a res
Ġp opular
Ġre p
as ed
Ġon es
ul ate
Ġha bit
not ion
Ġobser ved
Ġinvol ved
Ġlead s
Ġaccom p
H ence
t wo
Ġthe oretic
Ġw ishes
Ġs ign
Ġin cre
ou ble
Ġre turn
ent ially
Ġh oliness
Ġas cribe
Ġan imal
Ġex c
Ġnot withstanding
ĠT ime
Ġobject ions
Ġcom es
ide as
Ġany one
Ġform ing
Ġsh ort
Ġsubject s
Ġdis appear
tern ally
Ġser ves
Ġpl aces
Ġfollow ed
Ġrem arks
ĠH ume
Ġact ivity
Ġfe w
Ġext ensive
Ġthink s
Ġreal issimum
Ġent er
Ġincl uded
determin e
Ġshow s
Ġrequire ment
Ġappear ances
Ġproof s
fic ial
Ġexpress es
Ġsatisf y
Ġneg ation
Ġco existence
Ġinqu ire
Ġpreced es
Ġprom ise
ĠY OU
ĠIde as
Ġche ck
employ ment
cogit ate
ĠÃ ¦
Ġpe ople
Ġindis pensable
Re ason
t t
p or
h ypothe
Ġ 7
er c
con d
ar gum
Ġon t
i k
Ġre n
IT Y
im ag
ain ed
b id
h uman
and on
em ber
Ġse arch
Ġw ays
cons cious
Ġ 6
it imate
Ġex ception
pl ic
. "
Ġm o
se ly
F rom
t il
Ġc al
Ġs ays
Ġb ad
Ġb old
Ġm ult
le ase
Ġbe h
Ġh omogeneous
Ġpr os
Ġex ec
Ġex tr
Ġl iberty
ist ance
âĢ Ļ
Ġde v
ol ution
Ġv iz
Ġim manent
Ġper su
Ġper mission
ever theless
Ġdis cipline
Ġdis play
Ġpre cede
fin itum
Ġcaus al
Ġend less
ĠG UT
ĠC h
Ġob edience
ish ment
Ġrespect s
Ġdisc overy
Ġfe e
Ġen joy
ĠE m
Ġatt end
ĠD o
ĠD iv
Ġent itled
determin es
Ġstr ong
Ġconsider ations
Ġref und
Ġcommon ly
Ġcomp ly
Ġassum ption
ĠL eibnitz
EN BERG
Ġocc ur
Ġperson s
Ġgu ide
Ġsc hemat
Ġcop ies
mor ality
Ġco existent
Ġprom ot
regard s
Ġav ail
Ġcho ose
Ġful f
Ġcontinu ous
Ġinfin itum
incl ination
Ġbl ind
Ġconstruct ed
Ġintrodu ce
Ġprecept s
consist ent
Ġsepar ate
Ġcreat ure
Ġstatement s
Ġgen u
Ġgeometr y
Ġuncondition al
conce it
Ġassoci ated
Ġsophist ical
Ġoppon ent
JEC T
ĠGUT ENBERG
re f
for tun
ob lig
d og
de fin
l ogical
ult iv
ici an
S E
it ect
conc ern
dif fic
in ct
de pend
p ass
Äł un
un te
pre t
Ġmed iate
l ine
an k
Ġu r
ust om
f ound
Ġpl ay
inf luence
Ġang les
in finite
Ġh oly
Ġpr im
ple asure
ord er
Ġacc ur
Ġle a
ang ed
Ġsa fe
conting ent
f oundation
w ere
Ġt w
he sis
in ary
at io
er ted
Ġw ond
Ġc ost
Ġp aid
Ġin ferences
Ġb u
le ological
Ġre ceptivity
Ġcon stant
Ġh ist
ow ed
Ġsu ggest
Ġreason s
Ġun avoidable
Ġim possibility
Ġhe av
Ġrel igion
Ġacc ord
nthe tical
Ġknow s
str aint
Ġpart y
ĠS olution
sol ution
Ġgo es
ach ing
ĠE pic
exist s
Ġconstit uted
ĠM or
Ġcommon est
Ġassum ing
ĠL icense
Ġattain ment
acc ordance
Ġdefin e
Ġder iv
cognition s
Ġimag ine
Ġcorrespond s
Ġspeci f
Ġideal ism
Ġut ility
Ġremark able
regard ed
Ġfall s
judgement s
Ġmed ium
AR T
never theless
appl ication
follow s
Ġadvance d
metaphys ics
urs ive
tot ality
Ġta x
Ġmag nitude
Ġmechan ism
Ġhon est
Ġexper iment
Ġimpl ies
correspond ing
investig ation
Ġstud y
Ġantit hesis
plic ity
su pp
P L
e qu
i ent
i ol
Ġm in
con ci
Äł m
pro ble
Ġstr u
v iew
de g
obser v
in qu
or s
im er
con v
con cept
inte l
O G
P R
c he
al t
ou red
ad dition
Ġus ing
I R
s cept
al ogism
se cond
intel lectual
f ind
s ignif
nd ered
Ġfor ward
ĠN O
Ġact s
Ġaw are
br ated
n or
Ġt al
Äł d
Ġapp e
Ġch arge
Ġgr ad
Ġhapp y
abl es
Ġphys ics
Ġconv in
in ions
le brated
Ġas ide
Ġl ist
Ġl anguage
Ġwe ak
Ġpro posed
Ġreason able
ĠT O
Ġun til
ĠĠĠĠĠĠĠĠ ĠĠĠĠ
Ġtr ademark
Ġdo ctr
Ġhe ad
Ġper mit
present ed
Ġad apt
et ent
Ġsome times
Ġar ising
ĠN at
ĠN ot
Ġsub sist
Ġfre qu
be yond
The se
Ġlimit ations
Ġsay ing
ĠE very
ĠE ven
Ġatt ached
ĠD eduction
Ġsec ret
Ġest eem
Ġconcl uded
Ġill ustr
Ġconf ess
Ġaff irmed
Ġdesire d
Ġfin al
Ġdiffic ult
Ġess entially
Ġmaterial s
Ġprom ote
Ġcirc le
consid ered
Ġdistrib ution
subst ances
Ġtrans gress
Ġcomb ination
Ġoccup ied
system atic
div ision
satisf action
Ġsyllogism s
Ġsubordin ate
hig hest
immediate ly
Ġrec ourse
Ġvent ure
Ġinsepar ably
Ġaxiom s
Ġeng aged
jun ctive
ĠÃ¦ sthetic
Ġont ological
Ġlea ves
in ter
E M
p ot
est abl
t al
ol og
in st
il i
pre ced
requ ire
Ġ ver
Ġfor tun
Ġim it
oy al
d edu
f act
s how
Ġat ion
com mon
I L
re am
en ed
ce asing
iv alent
il st
pos itive
ment ion
Ġ1 5
dist inction
philos opher
oriz on
unte ers
l ing
Ġ 0
Ġpr ot
Ġl ines
ĠI V
tr odu
Ġv an
Ġpre p
ĠD I
Ġ2 0
Ġprud ence
Ġsk ill
O f
d uty
f undamental
g ive
r ong
r ule
y et
in ity
Ġo be
it as
Ġw ide
Ġs ac
Ġin sufficient
ing ly
Ġh ind
Ġpr imitive
Ġas cribed
Ġsu itable
ur ious
Ġun limited
tr ans
Ġcom pl
Ġme asure
Ġim poses
Ġhe art
Ġper i
ac ity
Ġad du
ĠS EC
ress ions
ĠIn t
Ġcomple x
ĠIt s
ĠW h
ĠW hether
Ġgo al
Ġgo ver
Ġemploy ing
ĠH is
Ġpres cribes
Ġsubst ant
ĠD is
Ġincl uding
determin ations
Ġcharacter istic
Ġdec lar
Ġconf irm
Ġdiscover ing
OO F
Ġmod er
Ġwant ing
Ġinvestig ate
Ġant icip
part s
Ġexplain ed
Ġgener a
Ġfall a
Ġpath ological
Ġaffirm ative
Ġaddition al
Ġdefinition s
Ġjustif y
inde ed
Ġobtain ed
exam ination
requ ires
Ġsch ol
Ġprof ound
Ġanteced es
appl ied
proper ly
Ġpsych ological
Ġrefer red
Ġdecl ared
Ġorgan ized
Ġro ot
ĠK ant
Ġcare fully
Ġcre ation
tot al
compre hensible
Ġreciproc al
Ġdefect ive
AS ON
lat o
Ġcontem pl
Ġpract ice
appre hension
ĠPRO JECT
Ġsign s
Ġgenu ine
PR OOF
Ġor d
I M
at trib
im per
ve y
ru pt
Ġg et
d irect
s ing
re strict
be gin
app ro
imp ort
d oubt
f all
m ain
it ious
er y
Ġl ed
su ffici
ex cept
A n
A CE
the ology
tr anscendent
A ccording
P RE
c ul
e lement
i ences
l abour
u el
Ġp at
ent ire
am ong
wh o
Ġcl ose
wor k
ix t
analy tical
adv antage
/ /
re me
ic k
Ġe fficient
Ġd ur
ch itect
ant s
AR K
Ġfr uit
: //
A nd
g ing
m ode
o pposition
Ġt re
Ġt ill
re ally
Ġw ar
Ġs ound
Ġin j
Ġin struction
or ical
Ġre ject
Ġwh ilst
ar ies
Ġh yp
im ents
Ġfor bid
Ġsu ff
Ġat tr
Ġsp aces
Ġtr ouble
ĠB esides
Ġper mitted
Ġab andon
Ġsy m
ant ages
Ġst art
Ġrel ated
Ġev id
ac ing
ĠP henomen
so ever
Ġpre jud
Ġch a
ĠĠĠĠĠĠĠĠĠĠĠĠĠĠĠĠ ĠĠĠ
Ġthen ce
Ġwhen ce
Ġgr anted
ĠC ON
Ġconnect s
Ġob vious
Ġdes c
Ġcomm ence
Ġcomm un
Ġrem ove
other wise
Ġinde pendence
ĠE go
exist ing
ĠD ialectic
Ġincl ude
cogn ize
Ġsens ations
Ġrequire ments
Ġdiv ine
Ġcontradict ions
Ġsupp ly
Ġexpress ed
intuition s
Ġconf idence
Ġconf used
ma de
ĠOn ly
Ġac ute
Ġattrib uted
Ġdiffic ulties
Ġher self
Ġdoubt s
Ġaffirm ation
objective ly
Ġsmall er
Ġce lebrated
Ġte leological
Ġoper ation
Ġcomb ined
ĠIde a
Ġoccup ies
follow ing
Ġra ise
ĠJ udgement
perfect ly
ĠRE M
ĠRE ASON
Every thing
Ġgen us
speci es
change able
Ġaccom pl
Ġdeser ves
conform ity
Ġconver sely
Ġsubordin ated
Ġredu ce
Ġheter onomy
Ġadm ir
ĠWith out
abstr action
Ġsequ ence
ĠSy nthetical
Ġom ni
Ġdest ination
Ġimpul ses
Ġaggreg ate
Ġesca pe
Ġones elf
Ġschemat a
Ġmin or
Ġperi od
E x
ver s
ĠI N
ante ced
d ec
Ġab ility
per son
pos ing
abstr act
A TION
C T
b ig
o x
en omen
le ad
Äł p
Ġly ing
A M
b od
n ce
con cl
sim ilar
ug ment
W ith
i able
it io
ition s
if t
ple asant
Ġtr ib
main tain
a ps
a enomen
at us
an throp
st atement
Ġsp ect
ac her
Ġad missible
ialect ical
f ace
i ance
Ġc ultiv
Ġs ection
ur ality
ec ond
Ġal ter
Ġr id
su pposition
Ġmor tal
un al
Ġ1 0
rel ations
Ġsatisf actory
Ġset t
Ġleg itimate
Ġcoun ter
asser t
b oth
e ach
m ake
Ġt ast
Ġt yp
Ġa ir
is able
is ibility
Ġw rong
Ġc ur
Ġs ides
Ġs light
al og
Ġf ive
ou se
Ġis ol
Ġre ndered
Ġd ict
st ate
ut ions
ect ed
Ġh y
the ological
Ġex posed
Ġl ose
Ġl oc
Ġsu sp
qu ite
Ġpro pose
Ġobject ion
Ġde ep
Ġal ong
ab ove
Ġun ceasing
um ber
um ption
tr ue
Ġr ank
Ġme ant
pr op
Ġim posed
ex ercise
Ġse at
Ġst ated
Ġrel ating
ĠP lato
Ġdis junctive
Ġpre mis
Ġpre cisely
Ġpart ies
Ġch imer
ĠS ince
ĠN e
ĠN evertheless
ĠO bject
Ġser vice
Ġpresent ing
ĠC om
ast ic
Ġass erted
Ġgood ness
Ġout side
Ġpossess ed
oun ces
Ġimp art
ĠM at
ĠM etaphys
Ġcomp are
Ġadv antages
Ġill usions
Ġright ly
Ġextend ing
Ġconcern ing
certain ly
Ġmod ality
Ġequ ivalent
Ġsignif ies
comple teness
Ġut most
sim ple
Ġed ifice
Ġharmon ize
Ġund oubted
Ġconj oined
Ġtreat s
Ġdistrib ute
Ġdistrib uting
Ġcriter ia
Ġstrict ly
Ġexhib its
Ġexcl uded
Ġpursu e
Ġbl ame
Ġdel usion
Ġfore going
Ġappro xim
sum mum
ĠSp eculative
ĠPrinci ple
consider ation
contain s
contain ed
ground s
Ġadopt ed
think ing
belong ing
predic ates
sens ation
Ġannihil ated
success ion
expl anation
Ġsequ el
ĠAccording ly
Ġconfin e
Ġborrow ed
Ġobst ac
Ġpreser ve
Ġstreng th
tt p
hypothe sis
Ġbeh ind
deg ree
Ġgover n
ixt ure
Ġdur ation
cor rect
R I
ib ly
aff irm
pr ogress
occ up
8 0
se t
g ain
Äł l
comm and
V E
a uthor
g er
g ener
i er
o ot
or m
so le
c lear
s our
if orm
Ġple asant
AR RAN
c ks
e e
f it
ic ion
ot t
con struction
pr ight
un condition
com par
av oured
ane ous
ogene ity
inqu ir
H ere
d eduction
Ġt aking
Ġb re
ut able
Ġl ink
ab s
Ġun ion
Äł b
op e
Ġcogit ating
Ġattempt ed
ash ion
expect ed
C hapter
G od
L et
d ialectical
m ight
n ay
Ġt end
Ġt ell
Ġthe sis
re ference
it ate
Ġc le
Ġp enetr
Ġin ward
Ġf ict
se c
Ġre sol
Ġre comm
Ġre place
Ġcon straint
Ġd r
Ġd im
Ġd ream
Ġbe ar
Ġh id
Ġh ard
Ġex ert
Ġl aid
ĠT RANSCENDENTAL
con ceived
Ġde pr
Ġint ended
us ive
ill usion
Ġun worthy
Ġthere to
of old
Ġunder t
Ġwill s
Ġany where
Ġform at
Ġst op
ĠA uthor
un less
Ġsubject ed
ĠP er
Ġdis claim
Ġpre fer
Ġar chitect
tern ity
Ġwhat soever
ĠS to
Ġne arer
Ġcomple tion
Ġgr ant
ĠC ategor
ĠC hapter
Ġthought s
com b
Ġconsid ers
Ġen ables
ĠE BOOK
ser ve
Ġam big
man ner
man uel
Ġorigin ated
ĠM y
Ġcomp ared
ev ident
ĠL ogic
Ġattain ing
Ġbefore hand
empirical ly
ĠCon ception
Ġset s
Ġdistingu ishing
Ġperson al
Ġnum er
ane ously
ail ed
any thing
Ġexpect ation
Ġappre hend
Ġop inions
Ġallow able
Ġprom ises
Ġdepend ence
regard ing
ext ension
Ġmaintain ed
dif ference
Ġbring ing
Ġte ach
Ġte aches
Ġcorrect ness
limit s
Ġask ed
Ġseek ing
Ġrecogn ize
Ġrecogn ized
Ġspontane ous
ĠĠĠĠĠĠĠĠĠĠĠĠĠĠĠĠĠĠĠĠ ĠĠĠ
ĠIde al
incl uding
ĠJ ust
Ġro om
distingu ished
mathemat ical
ins ic
presu pposes
predic ate
Ġannihil ate
Ġhon our
Ġtransc end
Ġheter ogeneous
Ġprob ably
Ġanalog ies
ĠIm manuel
valid ity
Ġmention ed
Ġrece iving
draw n
Ġeth ics
Ġremo ved
Ġindirect ly
again st
ĠPU RE
Ġfulf il
depend s
Ġdoctr ines
Ġadapt ed
Ġcha pter
ĠJudgement s
Ġtast e
Ġhy per
Ġsusp icion
en lar
dist rib
Q U
or ph
il is
ans w
ne ed
A N
c ol
m od
r i
Ġm on
se e
Ġat e
p rom
me thod
c o
ar bitr
res ult
cl os
a f
r ist
iv able
ob tain
oc k
c hed
i us
u ity
re ciproc
er able
Äł de
el s
R IN
v ari
in c
re nder
im ity
Ġpro ving
ori ly
Ġj oin
Ġact ive
Ġread y
Ġcompre hensible
ÄłÄłÄłÄł ÄłÄłÄłÄł
i ating
l ong
w as
Ġa ge
al th
Ġan n
ir ing
ur ther
Ġpro pri
ĠT r
el se
und red
metaphys ic
neg ative
Ġaccomp an
defin ition
Ġfortun e
imper ative
F ACE
c osmological
e lectronic
f ers
i ology
l ied
m ember
n umber
o pposite
Ġt alent
Ġa ugment
Ġthe ological
is ions
at ur
at icism
Ġc ent
Ġin adequate
Ġf ashion
an ations
Ġe ternity
Ġre ve
Ġre pro
Ġre ached
Ġd am
Ġd ays
Ġd imin
Ġh orizon
Ġpr a
Ġex erc
Ġl arge
Ġwe lf
Ġfor ced
ur us
ist ics
Ġde ath
Ġde part
ore over
Ġal leg
Ġal most
ill ed
Ġun certain
Ġsp ite
est y
Ġem br
Ġdo ll
ĠB oth
ad missible
Ġsh ap
ĠF irst
ĠF reedom
Ġide ality
Ġrel ative
Ġch ance
Ġsome what
ĠO N
ĠO r
Ġass ured
Ġemploy s
Ġdisc ursive
Ġinde termin
Ġinde finite
ĠH im
Ġext reme
Ġen ounce
under stood
Ġout ward
Ġprodu cing
Ġsynthetical ly
Ġincl udes
Ġimp ly
Ġview ed
Ġcor relate
Ġest imate
Ġpower ful
Ġsee ks
ĠL et
Ġdec ided
ĠU se
Ġclear ness
Ġright s
crib ing
Ġextend s
Ġansw ered
Ġcommand ed
Ġread ily
Ġvirt uous
ĠTH IS
Ġover step
Ġerr one
Ġhold ing
Ġdoubt ful
pure ly
Ġpass es
Ġpreced ed
Ġprogress ion
Ġpeculiar ity
Ġdraw ing
ne ither
disc overed
Ġanalytical ly
categor ical
Ġte acher
inde pendence
Ġpar alogism
Ġmoment a
ĠEx perience
Ġestablish ment
caus es
ĠĠĠĠĠĠĠĠĠĠĠĠĠĠĠĠĠĠĠĠ Ġ
ĠĠĠĠĠĠĠĠĠĠĠĠĠĠĠĠĠĠĠĠ ĠĠ
Ġdestr u
Ġche cks
Ġdecl ares
ĠV II
Ġorgan on
constit ute
constit utive
Ġdisp ute
Ġdisp utes
Ġscept ical
Ġfa ith
my self
Ġcre ated
speci al
Ġgain ed
Ġdeser ve
Ġdogmat ic
Ġhigh ly
sens es
Ġmag n
Ġcol our
ĠAN Y
Ġredu ced
Ġuncondition ally
crit ical
ĠHow ever
hig her
Ġaccident al
Su preme
Ġfirm ly
Ġobsc urity
nex ion
Ġindif ference
Ġindif ferent
psych ology
legisl ation
Ġdisappear s
Ġenjoy ment
Ġavail able
Ġwond er
Ġbu ild
Ġhist ory
observ ation
ĠNat ure
mention ed
import ant
According ly
PRE FACE
Ġtre ated
Ġwar ning
ĠPhenomen a
ĠREM ARK
Ġtrib unal
aenomen on
Ġslight est
Ġwelf are
Q u
S I
il ities
Äł t
P H
a ffect
Äł h
ant icip
gr ad
O M
Ġ id
er r
en g
7 8
Ġ -
ag ree
mat erial
U C
a u
c op
c oun
m o
ar ante
pr of
ost at
acc om
dem and
che ty
n oumen
Ġin c
con duct
con struct
A B
C I
f lu
i ality
ce ll
se arch
ore al
est eem
o ad
s mall
w ord
Ġin ner
ent ia
ter m
ci ation
ind ividual
under stand
ert itude
Ġchange able
irt ue
Ġchang ed
path ological
vere ign
Ġusu al
proble matical
? "
n ed
Ġ ve
Ġin struct
Ġf l
Ġd ay
as is
im ental
Ġan throp
Ġr ation
su preme
Ġ5 0
success ive
feel ing
" ;
T RANSCENDENTAL
c ases
h omogeneous
o ice
p oreal
v iz
w ay
in ally
Ġw a
Ġw id
Ġw ater
Ġc red
al f
Ġin here
Ġin stit
Ġb ase
Ġth y
Ġth reat
Ġm ut
Ġm und
Ġf ile
Ġf oot
Ġn ull
Ġe rect
Ġre pe
Ġcon ject
st ill
Ġh undred
Ġpr ide
Ġu seless
Ġu pright
Ġex pose
Ġsu scept
Ġg ift
ain ted
Ġpro pens
ĠT ot
Ġint ensive
ab led
Ġun b
Ġun necessary
Ġun iform
Ġprinci p
Ġr ange
Ġexist ences
Äł P
Ġv iol
Ġim prov
Ġhe ar
ĠF OR
Ġqu ar
now ledge
ĠA l
ĠA pp
ĠA nt
ac ks
Ġy ear
et ween
Ġar chety
Ġsynthe tic
ĠS elf
Ġsub mit
Ġpl urality
ort unity
Ġend owed
pro ved
pro cedure
Ġrem ote
Ġsystem s
Ġexam ined
Ġen abled
Ġyou th
Ġatt ack
lect ive
Ġent ered
cogn ized
Ġorigin ally
Ġshow ing
Ġquant um
ĠM e
Ġconsider ing
Ġdiv isible
Ġadv isable
Ġmatter s
Ġconce al
Ġremain ing
lu ences
Ġdec om
Ġdec ision
Ġpresu pposing
Ġconf usion
Ġaff inity
Ġconform s
Ġset ting
Ġple ase
Ġarr anged
Ġimper fect
Ġregress ive
Ġel aps
Ġperson ality
Ġseem ed
Ġindic ating
do ctrine
Ġconduct ed
Ġess ence
Ġfall acy
Ġsuper ior
happ ens
Ġsing ular
Ġvol unteers
Ġtreat ise
Ġbring s
Ġdistrib uted
limit ation
Ġintu itive
peci al
Ġcontinu ed
ap perception
ĠUn ity
intellig ence
Ġexhib ited
ĠEx position
ordin ated
Ġdesign ate
Ġobserv ations
quest ions
synthetical ly
Ġbecom ing
Ġsur face
Ġsort s
Ġpostul ates
Ġro ad
ĠK nowledge
Ġoff ice
Ġacqu ainted
cogit ated
ĠÃ Ĩ
Ġgeometr ical
demonstr ation
Ġcol lection
Ġmechan ical
Ġpe ace
ww w
Ġdirection s
Ġprud ent
Ġaccident s
Ġproduct s
Ġanalog ous
ĠPro of
ĠPro ble
Ġcontem por
Ġassign ed
Ġhum ili
Ġobst in
Ġpun ishment
ĠPh ilos
ĠPh ys
Ġcap acity
consequ ences
super sensible
Ġanci ent
Ġanci ents
Ġdevelop ment
Ġsubl ime
argum ents
imag ination
Ġmult itude
Ġpros pect
ĠDiv ision
oblig ation
Ġtw ofold
Ġheav en
ĠEpic urus
IR ST
Ġappe al
Ġgrad ually
ĠĠĠĠĠĠĠĠĠĠĠĠ Ġ
Ġvan ity
Ġsac r
Ġcompl iance
ĠInt uition
ĠDis cipline
suffici ency
entire ly
Ġhyp ostat
Ġadmir ation
bod y
econd ly
Ġsett led
Ġisol ated
Ġdoll ars
Ġelaps ed
o pp
Äł ex
c id
ar mon
ad d
ind is
an c
Äł dis
so phist
ev ol
arr ass
IL ITY
A G
C L
T Y
U L
c our
p et
ic ated
b arrass
se m
ad mit
Ġcl os
00 0
ap odeict
6 8
B e
f ig
o ast
Ġa f
Ġa st
om orph
ple x
ab or
ca p
ne w
IN G
contin u
k en
p o
Ġ 8
at iv
al id
ul g
cont em
ech n
a el
l imin
o res
ich ael
Ġu m
ist inction
sol u
ress ion
form al
sy llogism
Ġcogit able
IT ED
AM AG
B eing
in al
es pect
Ġm ov
Ġf ix
Ġre conci
ist ence
if ies
et ch
Ġpos ited
Ġprodu ctive
Ġam ount
lect ed
determin ate
Ġself ish
app ly
acc ount
wor ks
des ire
Ġrestrict ed
anteced ent
flu ous
, [
; _
B ook
O ur
b ased
b asis
e avoured
g ives
j unction
v irtue
w ish
Ġ ic
Ġt echn
Ġs ite
Ġin consistent
Ġb ott
or ies
Ġm id
Ġf iction
Ġf latter
Ġre vol
Ġd ue
Ġd atur
Ġbe a
om ogeneity
ot le
Ġh ouse
Ġpr int
os en
Ġon line
ow ers
Ġsu pposing
ur y
ver se
per haps
Ġde al
Ġun changeable
âĢĶ âĢľ
ĠĠĠĠĠĠĠĠ ĠĠĠ
ĠĠĠĠĠĠĠĠ ĠĠĠĠĠĠĠ
Ġ( Â§
Ġthere with
tr y
Ġr ad
Ġr ash
Ġr oyal
Ġso vereign
Ġv is
Ġwill ing
ĠB e
Ġno ble
ad istinction
Ġsh ar
Ġsh are
ement s
Ġad mission
ĠP ossib
Ġworld s
fere d
Ġch ar
Ġch osen
sp eculation
ĠĠĠĠĠĠĠĠĠĠĠĠĠĠĠĠ ĠĠĠĠĠĠĠĠĠĠĠĠĠĠĠĠ
Ġma ch
Ġfar ther
Ġcomple ted
Ġbel ow
Ġcont act
ĠG ree
ĠW ARRAN
Ġgr ow
Ġgr and
Ġcontr ast
are st
Ġdes p
ĠH art
Ġfe es
Ġag ent
Ġen umer
Ġground ed
ĠE X
Ġmaxim um
Ġpossess ing
av ing
Ġsim plicity
Ġatt ended
ang es
Ġimp ressions
Ġfeel s
there by
Ġmode l
Ġinf all
Ġexpl anations
ĠM an
Ġwhere in
Ġproceed ed
Ġcomp ut
Ġcomp ens
Ġsee ing
reg ulative
Ġfree ly
Ġ1 2
Ġsupp lied
Ġphys ico
Ġdirect s
Ġarr ange
Ġarr iving
Ġocc urs
perception s
ON D
Ġansw ers
Ġimag inary
Ġparticular ly
Ġgu arante
Ġindic ated
contradict ions
Ġmethod s
Ġbelie ves
Ġover look
Ġequ ip
Ġtheoretical ly
Ġpost ed
Ġbound aries
Ġexplain ing
Ġmis understanding
Ġapply ing
Ġlook ing
Ġlook ed
Ġmaintain s
Ġaddition s
Ġfalse ly
philos ophical
Ġdisposition s
br ought
Ġobtain ing
Ġtrans ition
rem ains
Ġrecogn izes
Ġexcl ude
Ġ3 0
Ġpursu it
Ġpursu es
appl icable
Ġadvance ment
produ ce
produ ced
Ġpostul ated
univers ality
Ġpositive ly
perfect ion
conf idence
Ġwit ness
Ġfa ult
possess es
Ġaccept ed
Ġcircumst ance
Ġdogmat ism
Ġhappen ed
Ġkeep ing
path y
Ġlabour s
Ġconflict ing
enetr ability
Ġfan aticism
Ġreciproc ally
Ġir re
effect s
point s
Wh ile
Ġasc ending
mot ive
Ġelev ated
ĠSy stem
Ġobsc ure
Ġafford s
Ġdanger ous
Ġmark ed
Ġeth ical
independent ly
Ġsubl imity
Con sequently
Ġusu ally
Ġincre ase
Ġexec ution
Ġpersu asion
ĠCh rist
ĠEm pirical
dog mat
diffic ulties
ustom ed
Ġaccur ately
Ġstru gg
OG Y
Ġtal ents
Ġconvin ced
Ġfrequ ent
Ġfalla cious
Ġschol astic
IM ITED
Ġevid ently
Ġcommence ment
Ġomni pot
Ġspect ator
Ġpremis ses
ĠNe w
Ġundoubted ly
Ġbre ak
Ġhid den
clos ed
Ġrepro ach
Ġshap e
Ġindetermin ate
Ġerrone ous
ĠTot ality
Ġquar ter
Ġcontempor aneously
Ġbott om
Ġ z
un t
an im
pr act
L I
int u
ass um
edu c
ag greg
O L
c irc
ic ial
Ġit y
em br
ide al
Ġform ation
w ant
re pt
le x
ĠS T
acc ident
rem ain
f urn
m ist
s us
Ġp o
Ġp ress
st ead
em onstr
Äł S
vey ed
A C
O D
O RE
a ult
d on
i hil
m echan
r og
r ust
u ct
er ci
th row
res ist
am ent
Ġv ice
ge t
ie ve
arr ow
argum ent
b ound
m ong
y right
in om
in separ
re nt
Ġc our
Ġm ixed
ter s
ol f
tain s
ph ism
ex per
pon s
form ula
AL EC
Ġconv en
comm un
ole m
ES IS
TH ESIS
psych ological
Ġauthoriz ed
S IS
a per
p gl
at ory
Ġn amed
ut ter
Ġas certain
ir th
ul ation
Ġal tern
Ġr un
Äł w
Ġqu a
dis position
abl eness
Ġpass ing
up il
Ġsupport ed
Ġear ly
crit icism
TIC AL
Ġaccur ate
olog ia
begin ning
N o
U nderstanding
W hether
] ,
a pons
c ritique
h ood
h ope
p perception
p ublic
p owers
r ance
r ather
u ly
on ically
it ation
it ative
it les
Ġof ficial
is en
Ġw ww
Ġp aper
ic ability
Ġin complete
Ġin comp
Ġb ook
Ġb oast
Ġto uch
Ġm arks
an cing
Ġn ext
Ġe ternal
Ġe go
se en
Ġcon nexion
Ġd ate
ot ed
Ġan nex
Ġex empt
Ġex ceptions
Ġex cell
Ġl ic
Ġl ur
Ġl iving
Ġl ater
Ġnot ice
ĠĠĠĠ ĠĠ
Ġsu n
Ġsu it
th ics
og icians
ul ates
Ġde tr
act ing
us ively
ab out
Ġun f
tain ing
Ġour s
Ġsp o
not ions
Ġso phism
Ġtr ied
Ġv ac
ad ed
su ppose
Ġse es
Ġcogn izing
Ġman kind
un avoidable
Ġsubject ing
ĠP RIN
Ġevery where
ĠĠĠĠĠĠĠĠĠĠĠĠĠĠĠĠ Ġ
ĠS ome
Ġph aenomenon
ens es
ĠN or
Ġsub stit
ĠIn formation
Ġpresent ly
Ġcont empt
Ġlimit ing
Ġass ent
Ġass ure
Ġrequ iring
form s
form ed
Ġown er
Ġphilos oph
with in
other s
Ġinde finitum
âĢĿ âĢĶ
Ġext inction
Ġformer ly
Ġen ounces
Ġground less
Ġeffect ed
ĠE ither
Ġpres umption
Ġreal ization
Ġjust ly
av id
man y
phys ico
Ġent ertain
Ġent itle
Ġorigin ating
ĠWe b
ful ness
Ġinv alid
Ġinf luences
Ġcogit ates
ĠM oreover
ys s
phenomen al
ra se
Ġdiv ide
Ġdiv isibility
Ġcomp etent
Ġ1 9
Ġpredic ated
Ġconform ed
Ġconform ably
Ġarr ived
Ġregress us
TI THESIS
Ġel abor
Ġinfinite ly
Ġneed s
Ġmod ern
Ġresult ing
Ġindic ation
HA T
Ġant inom
Ġelement ary
Ġread ers
bec ome
Ġspeci fic
Ġsol ic
Ġsol id
Ġsol ve
Ġhold er
Ġco inc
Ġprov ince
Ġinst inct
Ġhar m
Ġelse where
Ġden om
Ġgener ated
ext ent
ĠTHE SIS
Ġmaintain ing
Ġpath s
Ġadd s
Ġconj oin
categor y
Ġjud ged
Ġjud ging
Ġtreat ing
Ġtreat ment
Ġoper ating
Ġintr insic
Ġcorrect ly
Ġpret ended
Ġamong st
Ġintu ite
Ġcontinu ity
requ ired
Ġcompar ative
Ġmoment um
just ice
Ġexcl udes
Ġexcl usively
Ġcomb at
Ġspontane ously
incl inations
Ġke y
Ġapodeict ically
appear s
appear ance
consist ency
employ ed
Ġavoid ed
Ġinevit able
Ġsepar ated
Ġacqu ired
Ġopp ortunity
ĠSt ill
presu pposed
satisf actory
Ġdogmat ist
analy sis
Ġta ught
ĠAN AL
Ġexper iences
Ġimpl ied
Ġdef end
great er
Ġ9 0
Ġassoci ation
Ġfour th
attain able
Ġwrit ing
Ġrece ives
Ġconfin ed
Ġformula e
Ġenlar gement
Ġdiscuss ions
mot ion
post eriori
rest s
maxim s
Ġimpul se
indic ate
Ġreckon ed
Ġsubsum ption
Ġauthoriz e
Ġspirit ual
Ġaccomp any
ik es
Ġmo on
Ġmo ving
Ġcal cul
Ġmult i
ĠDiv ine
concern ed
Ġmediate ly
Ġprim ary
Ġcost s
Ġconstant ly
ĠMor ality
Ġderiv ative
signif ication
ĠNot hing
preced ing
dedu ced
philosopher s
Ġprep are
ĠDI ALEC
ĠSEC TION
Ġsubstant ial
Ġconfirm ation
Ġmoder ate
element s
Ġinj urious
assert ions
Ġtyp e
Ġloc ated
ĠMat hemat
sole ly
sour ce
Ġlink s
Ġreplace ment
ĠCategor ies
Ġwonder ful
eng th
Ġfl ow
Ġration is
Ġdecom position
ĠÃĨ sthetic
ĠPhilos ophy
Ġheaven ly
Ġsacr ifice
limin ary
solu ble
ĠGree k
Ġequip ment
ĠChrist ian
pgl af
Ġ ion
Äł C
Äł v
pur su
Ġt en
le t
qu al
Äł r
accom p
des tr
inv ol
s ed
des er
rem ark
at i
Äł a
me an
U ND
an nihil
M etaphys
P er
ut ic
em per
ex cl
cl ass
ine v
oc r
disc ern
compre hend
conv in
destr oy
on y
ci l
de v
Äł A
su al
D UC
L eibnitz
S p
S t
Ġo l
re ction
Ġis t
Ġhe s
ad m
Ġgo ing
expl ain
PL ES
ATION S
mean ing
4 1
E AS
S EC
h armon
t reat
y m
Ġ ***
in fin
en evol
if ferent
de fect
ig ination
Ġr u
Äł D
ad ox
Ġst ead
pre vious
ha ust
ev il
ĠV I
RO DUC
OR AL
dog matical
RODUC TION
r y
s oul
re ement
Ġf at
Ġf ixed
an cy
ess ential
ure an
th ree
de finite
tr ay
ex position
Ġser ved
me ll
Ġconsider able
Ġchang ing
produ ction
Ġfa ir
Ġsuffici ency
Ġstep s
IC T
sec ure
CI PLES
! "
P ure
P lease
P ART
S uch
S econdly
T RODUCTION
a de
a seless
c ame
f urther
i ability
l ogic
l ife
m akes
p ute
r ules
u ality
Ã ¦
Ġt itles
he res
Ġo mit
Ġo ppose
re ceive
it ates
Ġof fer
Ġs il
Ġs alt
Ġp ortion
Ġp upil
Ġin ex
Ġin ability
Ġin ternally
Ġin admissible
Ġin soluble
es pecially
Ġb and
Ġb ind
Ġb irth
Ġto pic
Ġn arrow
Ġe lectr
Ġre action
Ġbe ars
Ġbe tray
Ġbe came
st one
ut ility
Ġh ttp
Ġh alf
Ġh omogeneity
Ġpr ime
the oretic
im possibility
os es
Ġex ternally
Ġex posing
Ġl ot
Ġl ab
Ġl icense
Ġl ength
Ġwe al
ter med
Ġg ave
ur a
ĠI s
ist otle
if ying
per manent
Ġpro poses
ĠT ake
end er
Ġde ce
us es
Ġun fortun
Ġat ions
Ġthere from
tr ademark
Ġsp urious
ecess ity
her ing
Ġtr ust
Ġtr ack
Ġtr ying
Äł con
Ġv oice
Ġim pose
Ġhe ight
Ġper plex
Ġab ide
ad ly
ad mitted
ĠF IRST
Ġst atus
wh ose
ĠA b
Ġacc ustomed
ult ure
ult aneous
un iverse
ĠP art
Ġdis similar
Ġknow ing
Ġpre liminary
Ġpart icip
Ġch ild
Ġrepresent ing
Ġar isen
Ġmy st
fin ally
Ġdif fer
ort ions
Ġlimit ative
Ġass ist
Ġass istance
Ġconnect ing
com position
Ġdist ance
pro ve
Ġrational is
ĠH uman
Ġfe ll
Ġen closed
less ness
Ġpres cribed
Ġthink er
Ġthink ers
aly tical
Ġreal ized
oun ced
ĠD IS
ĠD AMAG
ĠD avid
Ġgreat ly
Ġimp ed
Ġview s
Ġconstit uting
there of
Ġinv isible
Ġshow ed
Ġintellig ent
Ġintellig ences
ĠM ichael
ĠM ORAL
Ġstr ange
Ġcharacter istics
Ġcomp ass
Ġadv ancing
Ġdedu cing
Ġres ide
Ġattain s
Ġphys iology
Ġcontent ment
Ġdirect ing
ĠCon cl
Ġconform able
Ġset tle
Ġestabl ishes
Ġleg al
Ġdistingu ishes
Ġnum bers
Ġmod ific
Ġread able
Ġdemonstr ations
Ġsol ved
Ġprov iding
Ġpass ed
Ġ2 5
Ġrender ing
Ġaw aken
Ġlegisl ating
sim ply
bl es
Ġagre es
Ġinfer ring
exam ples
Ġintu iting
Ġstrict est
Ġmed iating
Ġcompar ing
ĠEx istence
bel ief
Ġfr ame
Ġfr amed
Ġobserv ance
Ġanteced ently
Ġabstract ed
ĠAr istotle
Ġpursu ed
proper ty
Ġey e
Ġrestrict ion
Ġrestrict ions
Ġdel iber
Ġintrodu ction
Ġintrodu cing
Ġdecl are
consider ations
sc hema
Ġfurn ished
metaphys ical
Ġoff ers
Ġfavour able
presu pposition
Ġfig ures
Ġdeser ving
interest s
belong s
origin al
free ly
Ġcoun try
like wise
Ġtransc ends
Ġadm ixture
correspond s
How ever
Ġprob ability
Ġfan cy
Ġclass es
Ġcomprehend s
Ġir resist
obser ved
power ful
Ġsk etch
Ġparagraph s
Ġoppon ents
Wh atever
Ġwrit ten
Ġindu bit
Ġasc end
Ġenlar ge
Ġinsepar able
Ġbene fit
Ġcontrib ute
Ġcontrib utes
distinguish able
ĠDe ity
Ġ200 2
Ġqual ities
Ġqual itative
Ġpay ing
Ġnecessit ated
Ġsubsum ed
express ion
Ġdevelop ed
ik ing
Ġren ounce
Ġexec uted
Ġdisplay ing
ĠDo ctrine
pret ensions
Ġfrequ ently
Ġtransgress ion
establ ished
inst ead
show n
Ġobe y
Ġaddu ced
ĠSEC OND
Ġpat ient
Ġclose ly
Ġforbid s
Ġsuff er
Ġattr action
Ġsym pathy
lead s
Ġcultiv ation
Ġrid ic
Ġapproxim ate
Ġobstac le
Ġdream s
Ġarchitect onic
ĠSto ics
ri ption
Ġpropri ety
Ġalleg ed
Ġembr ace
Ġdestru ction
Ġbuild ing
Ġconject ure
Ġgift s
Ġpropens ity
Ġimprov ement
Ġyear s
Ġhumili ation
Ġclos er
apodeict ic
fig ure
ativ um
ores aid
Ġmov ements
Ġtechn ical
Ġrad ical
utter ly
Ġelectr onically
ĠDAMAG ES
Ġmodific ations
T r
Ġre d
Ġat ed
pre v
des ign
or gan
Äł e
tr ansc
contem pl
an ci
ist rib
pro b
Ġ ical
Äł M
pon t
sp e
disc us
Ġ il
se em
ge ometr
EN CE
speci f
1 5
G r
N ot
y llogism
¢ Ä
he ter
ici ous
ass ign
acc ur
Ġmis sion
TH E
supp ort
prop ortion
accomp an
. .
H e
U D
a x
h ab
i pp
al le
ic es
Ġu l
iv il
ject ed
th orough
ain ing
end eavour
of t
ex c
arr ant
bec om
proc ess
adv ance
A r
D e
U n
b al
b ol
c osm
h on
i i
s pont
in cre
in trodu
Ġn ihil
de utic
um b
pos it
ex hib
Ġy ield
ag ger
sy m
Ġent ity
cor rupt
CE P
EM ENT
ick ed
abs urd
E TH
M ETH
a ccess
d ated
e ed
i ans
m erit
p eculiar
re ckon
er ity
ic ate
nd eed
Ġan im
Ġl est
ci ated
Ġso ever
Äł pr
ex ception
for th
ie ce
Ġconce ivable
ane ity
** ***
sh all
pens ably
Pr odu
dec lar
answ er
PH Y
d id
e ffort
m oment
s ight
t on
t ext
u ary
u ge
Ġ Qu
Ġt ext
re fer
en ing
er o
al e
Ġm ine
Ġf il
Ġn ess
Ġe ase
se ct
se ction
Ġre str
os s
Ġwe b
ur ies
ci ent
og ant
ch ain
us h
Ġca st
Ġtr ace
ary ing
ant ly
ĠA G
Ġch ief
el t
Ġgr at
ari um
lu cid
Ġconsist ency
Ġworth iness
TI QU
Ġequ ality
ext ensive
oc ation
Ġprob able
OG IC
Ġconvin cing
establ ish
Ġfruit ful
RI TIQU
Ġaccompan ied
OD OL
METH ODOL
1 6
C TICAL
S o
S ince
Y ou
a utonomy
b its
b onum
c ision
c ourse
d ay
d one
d ialectic
g ulative
h ttp
l iberty
m ixed
n a
s aid
ĉ ĉ
on ations
in finitum
Ġthe ories
it ful
en cies
Ġw ished
Ġc at
Ġs ize
Ġp olem
al ed
al ready
Ġin n
Ġin sist
Ġin comprehensible
Ġin consistency
Ġb on
Ġb urd
Ġth ou
or n
ct ory
Ġf ate
Ġe lective
Ġre tain
Ġre view
Ġd ark
Ġbe gan
om ents
ar ise
Ġpr ag
Ġex agger
Ġl ate
Ġsu st
Ġsu pposes
ĠI ll
if ference
per ceive
ul er
em piricism
ĠT hen
Ġare na
con ceive
con junction
Ġde ceived
act ive
act ual
us ing
ill ion
aw ay
am es
Ġun it
Ġun expected
Ġcom pr
Ġcom posed
Ġr ound
Ġr ace
Ġr atio
Ġr uler
Ġem ail
Ġem barrass
Ġdetermin ative
Ġdo ing
Ġv it
Ġv ict
Ġv ag
Ġcondition al
Ġcondition ally
Ġhe alth
Ġper ce
Ġab yss
Ġsy non
Ġus er
ĠF undamental
Ġse ven
Ġse vere
Ġst e
present ation
wh atever
ĠA fter
ĠA SC
ĠA pperception
un able
un known
un ciation
pon ed
pon ent
ĠP RA
Ġdis pens
Ġdis gu
et s
et ary
here nce
Ġle aving
Ġar ound
Ġar ose
Ġph rase
ress ed
op ing
op inion
ag reement
Ġsub ter
Ġne ar
Ġma st
ĠIn trodu
Ġpl acing
Ġend eavoured
ĠG r
ĠG er
ĠG ood
ĠW ill
ĠW here
Ġcontr over
rit ical
ĠC RITIQU
Ġrequ est
Ġdes cribe
com posite
Ġdist ant
Ġdist ress
Ġcall s
Ġcall ing
Ġen cour
ĠR ational
ĠE nd
Ġpres cribe
Ġsensib ly
Ġreal ize
ser ves
Ġcrit ic
Ġatt ach
Ġatt acks
ĠD es
Ġsensuous ly
Ġcor poreal
Ġquant a
ĠRe gulative
ĠM is
Ġstr ike
Ġstr ives
Ġanaly sing
Ġref use
Ġref ers
Ġdiv erse
Ġcomp els
Ġadv ances
Ġcontradict s
ĠL ogical
ĠL IMITED
ĠL OGIC
Ġconcl uding
Ġconce iving
Ġremain ed
Ġres istance
Ġdec ides
Ġ1 78
Ġlogical ly
Ġdiscover able
Ġsatisf ies
know s
practical ly
TI ES
Ġobser ving
Ġac knowledge
Ġseem ingly
Ġmod est
ĠĠĠĠĠĠĠĠĠĠĠĠĠĠĠĠĠĠĠĠĠĠĠĠ ĠĠ
ĠĠĠĠĠĠĠĠĠĠĠĠĠĠĠĠĠĠĠĠĠĠĠĠ ĠĠĠĠĠĠĠ
Ġattempt ing
Ġneg lect
subject ively
aim s
Ġbelie ved
Ġspeci ally
Ġideal s
ĠPr int
Ġes pecial
Ġcontin ually
Ġtoo k
Ġess ay
Ġinst ances
Ġexpect ations
Ġpass ive
Ġden ies
Ġaffect s
Ġallow s
Ġsuper fluous
Ġcopy ing
oc ke
Ġed ition
Ġed itions
Ġyour self
giv ing
according ly
Ġjustif ies
Ġinquir ing
ĠAn alytical
Ġconv ince
Ġthorough ness
Ġpret end
Ġobtain s
Ġinvol ve
Ġinvol ving
pur poses
just ified
Ġrecogn ise
Ġfr i
Ġabstract o
att ention
imp enetrability
Ġdon ate
Ġsur pr
Ġoccup ation
Ġdel usive
Ġconstruct ing
separ ate
Ġappro ach
Ġmanifest ations
produ ctive
consist s
Ġdecl ine
comp elled
Ġlet ter
Ġadequate ly
Ġorgan ization
constit ution
Ġcreat or
Ġcreat ing
Ġcreat ures
There fore
ground ed
ins ight
Ġacqu ire
Ġacqu aint
Ġproblematical ly
more over
Ġfig ur
Ġdefinite ly
gu idance
real ization
Ġcoun sel
Ġsecure ly
Ġfill ing
Ġfill ed
Ġdef ence
Ġdef ici
Ġmeet s
great est
Ġfan cies
Ġfail ed
Ġultimate ly
Su ppose
ator s
ĠIm possibility
Ġdet ected
Ġdet ailed
attain ed
Ġwrit ings
Ġindu ce
Ġasc ent
Ġsent iment
Ġsent iments
Ġbene ficial
Ġsucceed ed
Ġmist akes
Ġmist aken
Ġpun ct
Ġperform s
Ġ200 1
Ġpay ments
Ġstreng then
consequ ence
Ġfit ness
Ġestim ated
Ġestim ating
Ġmerit orious
Ġesca p
oper ation
Ġdev oted
Ġdisplay ed
Ġcomply ing
Ġpromot ion
Ġpromot ing
Ġfulf illed
ref lection
fortun e
diffic ulty
Ġur ged
Ġprim arily
Ġhist orical
Ġheav y
Ġaccord s
Ġderiv ation
Ġspecif ied
supp ly
concept s
ĠNO T
Ġtal k
Ġweak ness
Ġsubsist s
Ġesteem ed
preced es
Ġimit ated
Ġobe ying
Ġwide ly
Ġhind er
Ġhind rance
trans ition
Ġanticip ate
Ġfalla cies
Ġcontempl ation
attrib ute
An alytic
Ġaccompl ish
Ġaccompl ished
With out
statement s
Ġalter ation
Ġdeep ly
ĠObject s
Ġservice able
Ġimpart ial
ĠMetaphys ic
Ġobstac les
Ġgovern ment
occup ied
author ity
gener ally
uncondition al
uncondition ally
inquir y
inquir ies
Ġtend ency
Ġfict ions
Ġfict itious
Ġdim ensions
Ġexert ions
Ġdepr ive
Ġundert aking
Ġambig uity
Ġpra ise
au sible
AB ILITY
Ġwid est
Ġmund us
Ġrepe ated
Ġupright ness
Ġsuscept ible
Ġprincip al
ĠAl though
ĠAnt inomy
ĠMe thod
indis pensable
Be fore
Ġaf oresaid
Ġast on
ĠĠĠĠĠĠĠĠĠĠĠĠĠĠĠĠĠĠĠĠĠĠĠĠĠĠĠĠĠĠĠĠ ĠĠĠĠĠĠĠĠĠĠĠĠĠĠĠĠĠĠ
ĠWARRAN TY
Ġcomput er
aggreg ate
embr acing
mechan ism
rog ative
insepar ably
exper iences
Ġincomp etent
Ġexcell ent
Ġsophism s
ĠPRIN CIPLES
Ġantinom ies
Ġdenom in
Ġmulti plicity
ĠDIALEC TIC
Metaphys ic
infin ity
enevol ence
Ġfat al
Ã¦ deutic
Ġirresist ible
ĠAG RE
METHODOL OGY
Ġpolem ic
ĠASC II
ĠPRA CTICAL
ĠCRITIQU E
Ġ ive
I ON
an alog
Äł E
I de
en joy
gu ard
ar m
est im
des c
I ES
m et
s ch
Ġ ies
Ġa x
pt ions
Äł st
ma j
oc in
occ asion
RI B
prof ess
ati ocin
P h
s ur
in ing
Ġe ll
rem o
conf irm
O S
T RIB
b ar
re vol
it iz
ib oly
de l
de t
Äł n
Äł per
Äł su
all ow
pir ic
ag on
Ġpos it
ĠE ND
av ag
app e
acc ord
cont est
occ ur
Pr inci
anthrop omorph
prev ent
2 2
5 0
T RA
c reat
k ing
m ag
r own
t est
v ation
y our
y ield
Ġ ign
Ġo st
re cogn
qu e
min is
du c
ke ep
ext end
Ġstru ct
E m
F L
O SE
P RO
b ed
b ring
l ast
n is
r am
s pr
s let
Ġ educ
in tr
at ir
Ġto l
Ġm al
Ġm ent
ou d
ib ilis
og ram
if ul
ill a
am p
pr ud
art es
to o
so on
cl ose
pre cept
ivers al
ile ge
Ġ1 3
TI VE
bl ing
Ġce asing
ird ly
TH ER
hypothe tical
alle l
7 1
A PHY
E T
R espect
S IC
V IS
d ut
f und
f avour
l oad
n et
o e
o ose
p opular
t ent
Ġ ions
Ġa ut
it ory
is k
en cing
Ġs w
Ġp ol
ct ible
ent ity
os ing
th ird
ver sion
ĠI ND
res h
ul ous
ul sion
pp ing
Ġr ic
ph iboly
Ġse ld
te llig
mat ic
Ġpresent ation
ro ken
Ġsec urity
ma il
Ġple ases
RE CT
leg itimate
Ġ4 5
vol ition
Ġprep ared
rupt ed
err or
? âĢĶ
A t
B oth
G eneral
N evertheless
S ome
S mall
S ee
_ âĢĶ
a cious
b ation
b etween
c ertitude
d le
e es
e go
f ield
f ounded
f uge
h ad
j oined
l ain
l able
l ittle
l ines
m aking
n g
r ies
s ort
u b
u x
u ent
u um
v oid
v arying
w are
Ġ ence
Ġa str
in ently
in sufficient
Ġthe ore
re ceptivity
is ive
en ough
en able
er ms
Ġw arn
Ġw icked
Ġc ens
Ġc ertitude
Ġs l
Ġs aw
Ġs ave
Ġp ubl
Ġp arent
al together
Ġin sp
Ġin cor
Ġb enevolence
Ġm ar
Ġm ass
Ġf elt
an illa
Ġis su
Ġre fin
Ġre ply
Ġre vel
Ġre ferences
Ġre lease
Ġre serve
Ġre distrib
Ġd as
Ġd atum
as ions
Ġas pect
Ġan xi
Ġl ow
Ġl ime
Ġl ays
Ġl ogicians
Ġl iability
Ġwe aken
Ġwe apons
ir able
Ġg ot
Ġwith draw
ĠI D
ĠI F
ĠI ndeed
ist ered
Ġor igination
per mitted
per manence
ul ated
Ġpro hib
Ġpro long
con cre
ch anges
Ġde ad
act ually
act orily
am ples
Ġun ite
Ġun its
Ġun avoid
Ġun success
Ġun certainty
Ġun pleasant
Ġun attainable
de pendent
de pendence
ans ition
tr iangle
Ġsp ecul
Ġr ig
Ġr are
Ġr atiocin
Ġunder take
Ġdetermin ability
Ġtr uly
Ġv es
Ġv ision
Ġv isible
ĠB E
ĠB RE
pr iate
pr imitive
Ġhe at
Ġper pet
ad ing
su asion
Ġreg ular
Ġreg istered
ant inomy
Ġse lect
Ġcogn itive
Ġst ake
Ġst age
Ġqu oad
Ġrel uct
present s
Ġcons ult
ĠA gain
ĠA mong
ac ities
Ġapp ell
Ġsubject ion
ĠP sych
Ġdis satisfaction
), âĢĿ
Ġpre par
Ġpre cise
Ġpre cision
Ġpre rogative
Ġle vel
te aches
Ġpart ial
Ġar ms
ĠS e
ĠS cience
pre cisely
ĠN either
ag ogic
Ġsub div
Ġsub division
ĠIn stead
ĠW olf
Ġgr oping
Ġcontr ol
Ġcontr adistinction
ĠC an
ĠC ogn
Ġdes ert
Ġcomm erci
Ġown s
fect s
ish ments
der ived
Ġfe et
Ġcategor ically
Ġval u
Ġyou ng
Ġfind ing
ĠR el
ĠR oyal
ĠE ach
ell ing
Ġpres cribing
object ions
Ġexp ense
Ġexp enses
reason s
Ġreal ities
Ġreal izing
av ed
av ity
Ġsim pl
Ġsim ultaneous
phys ics
ĠD etermin
ĠD onations
Ġsec uring
ang ing
Ġimp ression
Ġthrough out
Ġview ing
Ġorigin ates
there in
Ġinv ent
Ġhere after
Ġinf ring
ĠM on
ĠM ET
Ġap agogic
Ġstr ikes
Ġanaly se
Ġcomp ares
ev idence
ĠL aw
Ġconce it
Ġconce de
und etermined
Ġres pon
Ġdec iding
Ġdec isive
ten ance
ĠU ltimate
ĠU SE
Ġsupp lies
Ġnow here
Ġtot ally
Ġmathemat icians
Ġmathemat ician
Ġcl ue
rel atively
Ġsatisf ying
Ġsuccess ful
Ġdefin es
Ġarr ives
Ġestabl ishing
Ġder ives
Ġleg ality
Ġconsequ ent
Ġseem ing
Ġmod i
Ġmod ification
Ġconting ently
Ġfin ality
mis understanding
Ġcorrespond ence
part y
Ġdemonstr ating
Ġsignif y
Ġsoul s
Ġpost poned
ĠSu bject
Ġconduct s
comple ted
Ġexplain s
gr anted
Ġhop es
Ġmis conception
Ġmis understood
Ġprogress us
Ġgener ation
ĠĠĠĠĠĠĠĠĠĠĠĠĠĠĠĠĠĠĠĠĠĠĠĠĠĠĠĠĠĠĠĠĠĠĠĠĠĠĠĠ ĠĠ
Ġoblig e
Ġremark ed
Ġdepend ing
Ġfall en
Ġaffirm ations
Ġadd ress
Ġharmon ious
disc ursive
Ġfalse hood
giv er
happ y
Ġdemand ing
Ġdemand ed
Ġnegative ly
Ġjustif ication
Ġjud ges
Ġte aching
Ġthorough going
des ires
Ġpret ension
Ġabs ent
Ġcho oses
Ġpar adox
where as
Ġlead ing
Ġstrict ness
Ġtrans itory
Ġdistinguish able
Ġprof it
Ġrequis ites
Ġsupposition s
Ġhel ps
Ġdesign ation
Ġobserv able
Ġ3 5
imp ressions
Ġpursu ing
Ġoccup y
proper ties
Ġrestrict ing
Ġrestrict ive
Ġintrodu ces
Ġintrodu ced
appear ances
ific es
II I
Ġappro pri
Ġexact ness
Ġmanifest s
produ ces
Ġche m
Ġlast ing
Ġlast ly
comp ared
Ġsoon er
Ġarbitr arily
quant ities
Ġfurn ishes
constit utes
ren ce
Ġoff ender
Ġdisp ense
ip se
Ġfa cil
Ġaccept ing
Ġput ting
Ġsimilar ity
presu ppose
pic ion
satisf ied
interest ed
Ġta ut
Ġdom inion
demonstr ated
Ġdown load
Ġconflict s
prov ided
conce ivable
ounce ment
Ġaccess ion
Ġfill s
Ġarrangement s
discover able
Ġlos ing
Ġir rational
investig ations
Ġprevent ed
Ġdet ach
claim s
Ġhum bles
Pr actical
Wh y
Ġenlar ged
Ġdiscuss ing
Ġdiscuss ed
mot ives
post ulates
proceed s
proceed ing
theoretical ly
Ġsent ence
Ġbene fic
Ġelev ation
Ġcontrib utions
Ġdiscern ed
Ġom nis
Ġperform ing
Ġantit hetic
Ġearth s
attempt s
Ġgl adly
Ġcap acities
indic ates
Ġnecessit ation
Ġremo ving
Ġcr ime
Ġcr ude
Ġestim ation
Ġprofess ed
legisl ative
feel ings
asser tion
Ġincre ased
Ġexc ite
Ġ6 0
Ġpromot ive
oblig ed
pass ing
Ġsafe ly
ĠEpic urean
ĠMor al
Ġspecif ication
Ġspecif ically
proble ms
conv iction
IR D
Ġgrad ual
ĠNat ural
require ments
Ġprot ected
ĠDI VIS
Ġsac red
Ġaddu ce
Ġdeclar ing
Ġdeclar ation
Ġdeclar ations
Ġconfirm s
Ġmoder ation
Ġfruit less
Ġforbid den
Ġprejud ice
Ġprejud icial
Ġobvious ly
Ġdesc ending
Ġcur rent
Ġunceasing ly
Ġchimer a
ĠObject ive
Ġpenetr ation
Ġpenetr ate
Ġrecomm end
ĠSto ic
comb ination
comb ined
Ġnumer ous
Ġhyper physical
AN TITHESIS
method s
arbitr ary
obtain ed
reciproc al
Ġaccompan ies
Ġcent uries
Ġreve als
Ġdam ages
Ġdimin ish
Ġdimin ished
Ġexerc ises
Ġexerc ised
Ġdepart ment
Ġextreme ly
Ġteacher s
ĠVII I
affect ed
coun ter
demand ed
noumen a
noumen on
Ġwa ver
Ġcred it
Ġmut ually
Ġunb ounded
Ġarchety p
Ġarchety pe
add ed
sophist ical
sem ble
ulg ence
Ġreconci led
Ġrevol ution
Ġbea uty
Ġprint ed
Ġrash ly
ĠPossib ility
Ġmach ine
Ġinfall ibly
Ġoverlook ed
Ġstrugg le
Ġomnipot ent
Ġz ero
sus picion
emonstr able
AC H
ORE M
don ate
Ġannex ed
Ġ19 9
Ġsolic it
convin ced
St ates
harmon y
ym ous
haust ed
Ġsalt us
Ġbind ing
Ġunfortun ately
Ġchild ren
ĠMORAL S
discus sion
becom es
Ġcat alog
Ġburd en
Ġdispens ed
Ġsubter fuge
Ġcontrover sy
Ġacquaint ance
Ġax is
APHY SIC
dut ies
Ġseld om
tellig ence
concre to
Ġunavoid ably
Ġunsuccess ful
ĠBRE ACH
ĠMET APHYSIC
ĠDIVIS ION
Äł pre
ind u
Ġan ce
Äł tr
Ġa ch
Ġat ing
Äł sub
gr at
subst ant
e ous
Ġ rom
Ġt ed
ac qu
Ġo g
it ted
ib us
Äł im
ob sc
oin c
f il
v an
Ġ ers
Ġe p
part icip
H T
c r
Ġ iv
Ġo us
ou ch
Ġis m
ll og
ĠI M
hen s
art ic
ĠH A
av ail
requ is
crit ic
B L
P END
b an
c oinc
d ict
n umer
p at
p un
t a
u c
at hemat
Ġp ot
an qu
Ġan c
Ġl ar
il ed
pl ain
ab andon
Äł en
all en
for t
pon der
int ention
iz able
Ġact ed
over t
know led
Ġstand ing
do ctr
Ġmis s
imp ul
conf ess
conf lict
circ um
llog istic
N I
U M
a uthoriz
b ene
c ultiv
f l
f r
f al
r ation
s k
s ent
re conci
Ġp et
se tt
Ġu re
ch ief
Ġexperience d
ex erc
for ce
ict ions
str um
med i
dist inct
IN D
Ide al
Ph ilos
1 3
1 7
1 8
A l
C a
E G
G HT
I TION
M athemat
N AL
N ITY
S y
b st
b our
b ered
d ivers
e al
f ill
l est
m em
m ast
n gl
t ow
t empt
u ating
w rit
x ious
he l
on es
it im
is y
or ic
Ġf lu
ed istrib
st reng
ib r
ur is
ver t
and er
per form
Ġat es
Ġso ci
Äł F
Äł ch
pr iv
ind ifferent
Ġsh ip
mat ism
Ġend ed
und ity
ĠU ND
Ġattain able
mis s
Ġi p
ps es
happ en
Ġ4 0
xiom s
signif ic
compar ison
SI TION
Ġconven ience
UD ING
TRIB UT
A D
A gain
B S
H app
I s
N OM
O F
O BS
V I
V ATIONS
a ordin
b et
d anger
e y
f ut
f ici
f unction
f ixed
h orizon
i pt
i ant
l ie
l ated
p el
p arent
r ain
r un
s mell
w it
he tical
Ġa ught
in fer
is s
Ġc ivil
Ġp air
Ġb es
Ġth rown
Ġm oun
ce ly
Ġd rop
iv er
im b
ec ided
Ġr ob
Äł g
Ġsen sual
ĠB OOK
ori al
ad es
ad ow
ant om
ĠF UND
our th
Ġad vers
Ġar tic
Ġcont est
ra de
TI NOM
row d
Ġra ising
Ġsa f
Ġappe ared
Ġimit ation
vari ous
hab it
CEP TION
tow ard
' t
) (
) :
- -
. âĢĶ
2 80
4 0
A ct
A uthor
B esides
C ritique
F oundation
F inally
H ume
I V
N ecessity
P lain
T ime
V EN
Y TIC
a gement
a ught
b ra
b usiness
c ulate
e thics
f old
f its
g ue
h oly
i atus
l ication
l icense
l ier
l osing
m utable
p one
p ite
p ared
p dated
r s
s ation
s ciousness
s cribe
t akes
t aken
v ention
Ġt one
Ġt emper
he ld
on ce
on ical
in ner
in capable
in ferences
in consistent
in comprehensible
Ġo mitted
it ute
it hetic
is ition
at eness
er al
er ably
Ġw ings
Ġw oe
Ġc ut
Ġc ard
Ġc ustom
Ġc ulture
Ġs an
Ġs ine
Ġs edu
Ġs mo
Ġs oft
Ġs aved
Ġp ays
Ġp age
Ġp ages
Ġp ortions
Ġp iece
al ogy
al most
ic a
Ġin sufficiency
Ġin cap
Ġin hering
Ġin contest
Ġb all
Ġb ooks
Ġb aseless
or ne
Ġm il
Ġm ixture
Ġm oments
Ġf ed
Ġf ire
Ġf lat
an while
an uary
Ġe con
Ġe lucid
Ġre ception
Ġre vere
Ġre straint
Ġre solution
Ġre verse
Ġd i
Ġd read
Ġd well
Ġd uring
Ġd oubted
Ġbe g
ent itled
ot ion
ar um
ar les
ar ched
ar cely
as us
ut iful
Ġh it
Ġh ollow
iv en
Ġl ive
Ġl of
Ġl ives
Ġl ooks
Ġl ively
Ġl oose
Ġl imb
Ġnot e
ĠĠĠĠ Ġ
Ġwe alth
Ġfor get
cept ive
ter ior
ter ms
Ġwith drawn
ur istic
ci ences
ver ted
qu ality
og matism
per ity
ul ating
ĠT HAT
ĠT erms
ch anged
Ġde ed
Ġde ceive
Ġint end
il t
il ty
Ġal ge
Ġal ike
ple teness
act ed
us ality
us ual
Ġha st
Ġha bits
ill usions
ill iant
am ents
Ġun law
Ġun ites
Ġun iting
Ġun conscious
Ġun inter
Ġun answ
Ġun observed
Ġun mixed
Ġun varying
um mum
um bling
Ġ( _
Ġthere on
Ġlaw giver
Ġsp are
Ġcom pos
Ġcom ponent
not withstanding
of ten
Ġr ises
Ġr ising
Ġr isk
est ors
Ġunder min
stand s
Ġtr oub
ĠB el
ĠB UT
Ġim pract
Ġhe uristic
Ġper sist
ad s
pos ited
Ġreg ulate
Ġsh adow
ĠF inally
ĠF UL
Ġst ability
Ġst opp
Ġqu it
Ġqu id
ord ination
Ġcons ent
ĠA ct
ac le
Ġapp et
un ited
ca ution
Ġad here
ĠP G
ĠP ers
ĠP ost
Ġdis regard
Ġy e
str ained
ĠTh ought
Ġle ap
te aching
Ġpart e
Ġpart iality
Ġch aract
Ġar gu
ĠĠĠĠĠĠĠĠĠĠĠĠĠĠĠĠ ĠĠĠĠĠĠĠĠĠĠĠĠĠĠĠĠĠĠĠĠĠĠĠ
ĠS c
ĠS en
ĠS ee
el ve
pre ted
pre cede
ppos ites
op yright
Ġsub mitted
Ġsub rept
ĠO p
possib ly
Ġser ious
Ġser ving
Ġdif fers
Ġdif fered
ĠIn ternal
Ġpl ane
Ġpl ausible
Ġnothing ness
ort s
ĠG os
reat or
Ġgr ate
Ġgr oss
ĠC a
ĠC ertain
ĠC osm
ĠC ritical
Ġow ing
Ġdes cribed
Ġdes irable
com ing
pro ving
Ġemploy ees
Ġfirst ly
Ġrem ed
Ġbelong ed
Ġag o
over ty
Ġen abl
ĠR espect
ĠR edistrib
ĠE ngl
ĠE VEN
ha ving
Ġpres um
Ġout set
Ġpossess ions
ear ance
Ġappl icability
Ġam id
Ġam phiboly
Ġmat ured
Ġatt aching
oun cing
ĠD O
ĠD ate
ĠD uty
ĠD ifference
ĠD ogmatism
ang les
ass ume
ass umption
Ġimp elled
there to
Ġinv iol
Ġhere by
Ġintellig ibilis
Ġlike ly
Ġhand s
dis posed
dis pute
Ġrest ing
app oint
Ġref uted
Ġref utation
Ġdiv isions
Ġproof read
Ġcomp el
Ġcontradict orily
Ġassum ptions
ev ent
ĠL IC
ĠL ocke
Ġconcl udes
contr adistinction
Ġtruth s
ER VATIONS
Ġ1 00
Ġconsist ing
Ġcontent ed
Ġconf ound
Ġconf irmed
Ġconf ounded
Ġmathemat ically
represent ed
Ġdiscover s
In telligence
Ġmot ions
Ġaff air
Ġconcept us
lement s
rel ates
Ġsatisf actorily
Ġind ul
Ġind ivid
Ġind emonstrable
sub ordinated
Ġstand point
Ġarr ogant
EN SE
Ġleg ally
Ġimag in
Ġimag es
Ġneed ed
Ġneed less
Ġgu ess
Ġgu ides
Ġgu ided
Ġgu iding
ĠĠĠĠĠĠĠĠĠĠĠĠĠĠĠĠĠĠĠĠĠĠĠĠ Ġ
ĠĠĠĠĠĠĠĠĠĠĠĠĠĠĠĠĠĠĠĠĠĠĠĠ ĠĠĠĠĠĠ
Ġsc arcely
Ġneg ativum
Ġinvestig ated
Ġinvestig ating
subject ed
Ġant iqu
part ly
Ġassert s
Ġassert or
Ġassert ing
Ġassert orical
ov al
ĠTH IRD
TER NAL
Ġattrib uting
mor ally
Ġco al
ĠSu ppose
Ġes se
comple tion
Ġprev ents
Ġher o
Ġdistinction s
Ġpass ages
Ġdeduction s
Ġmis led
Ġmis conceptions
Ġmaterial ism
Ġaffect ion
Ġvari ance
Ġfall ing
ĠTHE OREM
Ġfal s
Ġadd ing
Ġagre ed
ont ological
Ġcirc ular
Ġspe cious
Ġintel lect
every one
Ġbr ain
Ġbr anc
Ġbr illiant
Ġund en
ĠY et
Ġce ases
moral s
Ġvol unt
ignor ance
Ġadvantage ous
inde finitum
Ġpar allel
pres cribes
where by
Ġauthor s
Ġcontinu es
Ġcontinu um
Ġcompar atively
Ġante cede
ĠUn less
ĠUn iversal
just ify
Ġtrans fer
Ġtrans formed
ĠEx cept
bel ieve
Ġprof its
Ġexcl usion
Ġcomb ine
Ġdogmatical ly
Ġins cr
comm unity
Ġdesign s
Ġevil s
Ġtranscendent ally
Ġcompre hension
Ġsur vey
ĠAr gum
igh bour
Ġbl amed
Ġbl iss
Ġrestrict s
ific ent
Ġ5 68
Ġappro priate
IN TRODUCTION
ĠV anilla
employ ing
Ġear lier
ĠJ anuary
contain ing
Ġsepar ation
Ġtest s
Ġcare ful
Ġconcre te
TH ING
div isibility
ins ically
possess ion
Ġhypothetical ly
Ġacqu isition
Ġput s
fac ulties
Ġadopt ing
think s
Ġprop Ã¦deutic
Ġreach ing
Ġhappen ing
Ġdestroy ed
analy se
kind s
conform able
conform ably
Ġconver t
Ġconver sion
Ġsubtle ty
sens ations
demonstr ative
Ġcol lected
Ġannihil ates
Ġlay ing
character istic
character istics
ĠAN TINOM
content ment
jud ge
ru ption
Ġimpl anted
prov ince
enetr able
Ġindis pensably
Ġdef ault
Ġadm ire
light ened
Ġfan ci
Ġmaj esty
Ġplain ly
subsist ing
Ġopen ed
Su pposing
Ġplan ets
Ġassign s
Ġabsurd ity
contin ue
contin uous
particular ly
Ġindu ction
Ġindu ced
Ġrece ipt
Ġborrow ing
Ġelev ating
Ġsucceed ing
Ġdiscern ment
Ġang le
Ġmist ake
Ġperform ed
Ġapparent ly
On ly
after wards
Ġnecessit ate
Ġsubsum e
Ġremo ves
Ġfit ted
Ġfit ting
Ġcr y
Ġproportion ed
Ġaggreg ation
Ġreflect ing
proof s
Ġpopular ity
Ġrep ay
Ġsign al
Ġreturn s
Ġanimal s
Ġexc used
Ġenter ing
Ġren unciation
Ġcal m
Ġcal culate
Ġpros perity
Ġextr avag
Ġextr aordin
Ġpersu aded
Ġpersu ade
ĠCh arles
ĠEm pty
Ġschemat ism
defin ed
pret ation
influence d
Ġtw elve
Ġwond ered
Ġbu ilt
Ġsuggest ed
ĠMor als
Ġhonest y
Ġhonest ly
scept icism
Ġdoctr inal
Ġsubsist ing
Ġsubsist ence
Ġsecret ly
Ġillustr ation
Ġillustr ate
Ġconfess ion
dedu ce
common est
Ġprot ect
Ġcompl aint
ĠInt erest
ĠWh o
ĠWh atever
Ġanticip ation
Ġpathological ly
Ġcontempl ated
Ġord ains
Ġord inary
restrict ion
restrict ed
suffici ently
Ġpat tern
Ġabandon s
ĠCON FL
Ġcommun icated
Ġsupply ing
Ġperiod s
Ġperiod ic
AM ENTAL
maintain ed
anthrop ology
Ġdict ate
Ġdict ates
Ġchimer as
Ġchimer ical
ĠCom pleteness
ĠMetaphys ical
command ed
clear ness
abs ence
Ġcle arer
Ġresol ve
Ġresol ved
Ġrecomm ended
Ġdr y
Ġhard ly
Ġundert aken
Ġformat s
Ġdisclaim er
Ġdisclaim ers
Ġarchitect onical
Ġgrant ing
Ġambig uous
Ġnumer ical
ĠIdeal ism
Ġfulfil ment
Ġhyper text
Ġmon th
co existence
reciproc ally
Ġpropri etary
ĠTr ansition
Ġreve al
Ġpra ised
Ġembr aces
Ġparalogism s
Ġdestru ctive
Ġmagn anim
Ġmagn ificent
Ġwarning s
anticip ation
cop yright
small est
word s
Ġanthrop ology
Ġanthrop omorph
Ġcred ential
Ġinhere nt
Ġinstit ute
Ġinstit uted
Ġthreat en
Ġmut ual
Ġfoot ing
Ġsuscept ibility
Ġunb roken
Ġhear ing
ĠApp lication
ĠApp earance
Ġimperfect ion
ĠProble m
ĠProble ms
Ġobstin ate
Ġobstin ately
Ġhypostat izing
CL UDING
syllogism s
Ġselfish ness
Ġmid dle
Ġbea utiful
Ġroyal ty
Ġroyal ties
Ġvis it
Ġshar p
ĠPossib le
Ġgrow th
Ġenumer ation
Ġinfall ible
Ġcompens ate
Ġguarante ed
Ġomnipot ence
intu ite
assum ed
circ le
ĠST ART
Ġpo ison
Ġcour age
Ġlur ks
Ġsuit ably
Ġunf air
Ġvac ant
Ġinvalid ity
Ġelabor ation
Ġcoinc ide
Ġharm less
Ġconjoin ing
Ġcombat ants
ĠANAL YTIC
Ġcalcul ated
ĠMathemat ical
ĠMathemat ics
annihil ated
inev itable
ocr isy
Ġhes itate
Ġfair ly
Ġlab orious
Ġdece itful
Ġparticip ation
ĠDIS TRIBUT
Ġimped iments
ĠConcl usions
Ġdeliber ate
Ġindubit able
Ġridic ulous
spe aking
specif ication
Not hing
heter onomy
assign ed
accur ate
accompan ied
Ar chive
spont aneity
reckon ed
Produ ced
declar ing
effort s
refer red
Ġfil es
Ġrestr ain
Ġbon i
Ġprag matical
Ġexagger ated
ĠIll usory
Ġvict ory
Ġvag ue
Ġsynon ymous
Ġste pping
Ġmast er
ĠIntrodu ctory
ĠGr ound
Ġsurpr ising
Ġfigur ative
Ġaston ishment
Ġdenomin ate
ĠAGRE E
appe ared
Princi ple
Ġost ensive
duc ive
Ġstruct ure
Em pirical
spr ing
slet ter
intr insic
atir ae
prud ence
Ġissu e
Ġanxi ety
ĠID EAS
Ġprohib ition
Ġappell ation
ĠPsych ology
ĠRel ation
ĠRoyal ty
ĠMon ad
Ġomnis cient
Ġcatalog ue
ĠHA VE
Ġanc estors
hel p
ĠUND ER
Happ iness
OBS ERVATIONS
bet ter
fut ure
ĠFUND AMENTAL
Ġsaf ety
Ġfed eral
Ġrevere nce
Ġalge bra
Ġunlaw ful
Ġcompos itum
ĠBel ief
ĠFUL L
Ġcharact ers
Ġenabl ing
ĠLIC ENSE
Ġbranc hes
Ġinscr utable
ĠANTINOM Y
Ġextraordin ary
ĠCONFL ICT
Ġmagnanim ous
an n
Ġal ly
Ġal ity
ÄłÄłÄłÄłÄłÄłÄłÄł ÄłÄłÄłÄłÄłÄłÄłÄł
Ġe ct
th reat
Äł be
my st
N T
as c
Ġal t
Äł ad
Äł sh
pir it
Ġar d
rib e
manif est
B ILITY
u cid
Ġs em
Ġat ive
Äł N
Äł W
Äł sp
ignif ic
e g
Ġl at
em barrass
Äł pro
ĠU T
cre t
Con cl
trans gress
5 68
O P
x t
on om
Ġc t
es is
Ġb ar
Äł H
Äł I
Äł T
ca st
princi p
inv ent
arch itect
2 0
6 22
C h
C ont
b re
c ur
c arr
f ail
h o
l ab
t es
u ously
he t
al ter
Ġis h
ll ous
the tic
im pl
th y
em in
ch imer
end i
hen tic
de pr
Äł imp
pr ot
pr os
su ggest
un gl
Ġle ar
pro hib
we ight
sen sual
oc al
haps od
comm erci
att ack
velop ed
5 5
7 5
A IM
D ENTAL
D ED
E pic
I X
I VE
L E
M or
S to
U RE
a z
c al
d est
e as
e lev
f a
f am
h um
j oin
k al
l o
m er
n ic
o h
p ut
p enetr
s id
t ouch
v i
w is
w art
w arrant
Ġ #
Ġ $
Ġ 80
in o
in struct
en umer
Ġth row
an ch
an imal
as certain
iv ae
os ity
Ġl and
ess or
ith met
id er
Ġpro c
con ject
con fin
con ven
il ia
hen sibility
pl an
ig hed
Ġcom ing
est ic
pr im
ome ter
sp ecul
be ll
Ġend ing
pro pri
ser vice
Ġinterest ed
contr overt
ER AL
und oubted
Ġ1 6
cont empt
ob vious
gr ant
inde finite
ilar ly
produ ct
iber um
crit er
oper nic
PL EAS
see k
SI BILITY
anc endent
inev it
sch ol
hens ions
PEND IX
ban ks
circum st
Ġalt ered
622 15
1 0
4 5
A mong
F irst
F ourth
G ENCE
N ES
P OSE
S S
W ARRAN
W olf
c ustom
d den
f ast
f irm
f ault
g ust
h ort
h igh
h ip
m other
n ify
p us
s ure
s ipp
Ġ '
Ġ +
he it
Ġa dequ
Ġo s
re w
at ch
er ke
Ġw arrant
Ġc ame
es tr
Ġb ow
Ġm er
Ġf und
ot yp
ar alogism
as m
im id
im age
ur bed
ĠI X
sib ilities
con stant
am ount
ab ilis
ig ious
ies t
tr ace
ous and
ad em
ad apt
Ġsy llogistic
ph old
ac ent
ment al
te en
Ġar y
sp read
sis sipp
pre fer
ag ing
int uit
me ant
ĠC HA
Ġhapp ily
less ed
uten ess
Ġcor rupt
ER CHA
Ġres ist
stru ctive
EN TI
arr angement
AL ITY
Ġ2 2
ia e
ask a
ium ph
Ġagree able
Ġagree ableness
Ġposition s
consequ entia
super fluous
jun ct
SE QU
equ al
ili ary
CT RIN
col our
Ġid le
Ġinstruct ed
CL AIM
rept itious
guard ed
fal se
ERCHA NT
! )
" .
* ]
. :
. ;
1 1
3 9
5 7
7 9
A fter
B ooks
E Book
F urther
F IRST
F ORE
I ED
I RECT
L iterary
L icense
L anguage
L IMITED
M ost
M oreover
P PENDIX
R ight
R ational
R emark
R ICT
R POSE
T itle
V ery
a ple
a part
a ired
a cies
b ly
c hes
c ulture
c artes
d ash
d ignity
e fficient
e ase
e Book
e Books
f ailed
i ological
i pses
i osity
l and
m as
m ise
m ber
m dash
o ke
o pposed
p ire
p utation
r or
r ought
r ied
s akes
t aking
t xt
u ation
u ated
v ity
v ive
v ain
v erest
w ishes
y le
z ip
Ġt ant
Ġt ear
Ġt empt
Ġa in
Ġa ux
in y
in ference
in formation
in struction
in eness
Ġo pposing
Ġo pposites
Ġthe olog
re ndered
re cognized
re verse
re productive
it atis
it eness
Ġof fered
at on
at ible
at ically
er ce
er vice
Ġw ont
Ġw ander
Ġc and
Ġc old
Ġc urs
Ġc ush
Ġc itiz
Ġs it
Ġs ag
Ġs ending
Ġs orrow
Ġs mell
Ġp overty
al ong
al ogical
ic ited
Ġin compre
Ġin correct
Ġin justice
Ġin discern
Ġin secure
Ġin strum
Ġin accurate
Ġin controvert
es thetic
Ġb ro
Ġb inary
Ġb orne
Ġth ir
Ġth read
Ġth wart
or ous
Ġm ing
Ġm ove
Ġm ock
Ġm illion
ce ase
ce mber
Ġf ing
Ġf am
Ġf ant
Ġf aint
Ġf avoured
Ġf resh
an alogy
ed ifice
ed ient
ed itions
Ġn om
Ġn ought
Ġn ames
Ġn aught
Ġe cl
Ġe leg
Ġe arn
Ġe po
ou th
le y
le ology
le ave
Ġre ver
Ġre cognition
Ġre press
Ġre aches
Ġre mind
Ġre search
Ġre semble
Ġd ouble
Ġbe ha
st ition
st hetical
om aton
ent ions
Ġwh it
ot es
ut or
ut um
ut ious
Ġh our
Ġh int
Ġh iatus
Ġpr ince
Ġas ks
Ġas cribing
the w
the ory
the ologia
iv ocal
im ony
im ilarly
Ġex hausted
Ġl iqu
Ġl angu
Ġl ament
Ġl ikes
Ġl iking
Ġwe ar
id ge
id ently
Ġsu ppos
Ġsu its
Ġsu dden
ir us
Ġg ene
ur ance
qu id
ive red
res istance
ist urbed
em arks
em bered
em nify
Ġpro ject
Ġreason ers
ĠT RAN
Ġobject ed
ve llous
con nexion
ch oice
end eavoured
Ġde ar
Ġde ist
Ġde posit
Ġde ceptive
Ġint entions
il iar
Ġal kal
ple ases
ther wise
act s
act ly
us io
ill usory
aw are
am ing
Ġun sol
Ġun question
Ġun connected
Ġun important
Ġun anim
Ġun satisfactory
âĢĶ (
ol unteers
ĠĠĠĠĠĠĠĠ ĠĠ
Ġthere upon
Ġlaw less
tr ies
tr icable
Ġsp ent
Ġsp heres
Ġsp run
Ġcom fort
of essor
Ġpossib ilities
Ġr ap
est ed
Ġem piric
Ġem bell
Ġso ar
ide ality
Ġtr ave
Ġtr aining
Ġtr ades
Ġtr iumph
Äł G
Äł L
Äł O
Äł o
Äł ar
Ġv ulg
Ġv icious
Ġv ocation
Ġv irus
Ġwill ed
ĠThe ology
ĠThe oretical
od es
od ality
ĠB ec
ĠB onum
ĠB etween
Ġim posing
Ġim medi
Ġim mutable
Ġhe arer
ound s
Ġper taining
Ġab ly
Ġab ut
Ġab ode
all owed
Ġno vel
Ġno body
su pposes
Ġreg ulating
Ġus age
ant ity
Ġsh alt
ĠF ac
ĠF RO
ĠF IT
ĠF OU
ph aenomenon
Ġse arched
Ġcogn izes
Ġst ay
Ġst aff
Ġst ream
Ġst umbling
Ġst yle
Ġqu ick
Ġrel igious
present ing
wh y
wh om
Ġcons cience
now here
ĠA d
ĠA utonomy
ĠA ug
ĠA xioms
ĠA esthetic
Ġj uris
Ġacc us
Ġapp end
un ion
un attainable
for ces
ĠFor m
ĠP re
ĠP ref
ĠP ART
ĠP aralogism
Ġdis k
Ġdis s
Ġdis par
Ġdis posed
Ġdis pleasure
Ġdis sect
Ġdis section
Ġdis interested
Ġdis appoint
Ġdis gust
et c
et ic
et ition
et ies
et ext
ĠTh ose
ĠTh rough
te leological
Ġpart ially
Ġch apt
Ġch allen
Ġsome one
Ġmoral ists
Ġar gue
ĠĠĠĠĠĠĠĠĠĠĠĠĠĠĠĠ ĠĠĠĠĠĠĠĠĠĠĠĠĠĠĠĠĠĠĠ
tern ational
ĠS h
ĠS oul
ĠS UC
ĠS pecial
ĠS econdly
ĠS ummum
ĠS atirae
ĠS ervice
ĠS outh
Ġph antom
sol ve
el ess
Ġwho ever
ens ed
ĠN ecessity
ĠN EG
op inions
Ġsub mission
Ġsub species
Ġsub ordination
ĠO THER
int ended
int ensive
Ġthan k
imit ation
Ġfre ed
Ġne arest
Ġne ighbour
ĠIn te
ĠIn finite
ĠIn asmuch
Ġpl ans
Ġcaus a
ort ed
Ġcont ents
ĠG re
ĠG IVE
ĠW is
ĠW est
ĠW hence
ĠW HAT
reat ing
Ġgr own
Ġgr avity
The y
ĠC l
ĠC ause
ĠC opyright
ĠC reator
ĠC opernic
Ġass ures
Ġass uring
Ġass urance
Ġob l
Ġpos iting
com es
Ġfound s
Ġcomm itted
pro jected
Ġrem oval
Ġdisc ret
Ġsystem atically
ĠH ist
ĠH ypothe
Ġact uality
we apons
Ġext inct
Ġag ents
Ġen v
Ġen ig
Ġen ounced
Ġen close
Ġen joined
stit ution
ĠR emark
ĠR emarks
Ġeffect ing
Ġeffect ive
ĠE v
ĠE IN
ĠE Book
ĠE thics
ĠE lements
Ġthink able
Ġout line
Ġout lines
Ġter t
Ġsensib ilis
reason ing
ear ly
phys iology
ĠD r
Ġgreat ness
Ġent ers
Ġent ium
Ġent rust
Ġbas ing
Ġfact a
Ġfact o
Ġfact s
Ġsec ures
ang led
Ġincl ined
Ġimp ot
Ġimp utation
Ġimp enetrability
Ġshall ow
Ġorigin ator
Ġcor rection
Ġcor ruption
Th ou
Th ose
Th irdly
Ġinv ention
Ġinf lex
Ġexpl ore
Ġpower less
Ġintellig ibility
experience d
ĠRe ality
ĠRe place
ĠRe presentation
ĠRe fund
ĠM ay
ĠM any
ĠM otion
ĠM ERCHANT
Ġap per
dis cipline
Ġwhere fore
Ġcharacter ized
Ġcharacter izes
Ġrest ed
Ġanaly st
ra id
ra ise
ra ising
Ġref uses
Ġsum mon
Ġcomp ounded
Ġadv ice
ĠL at
Ġconcl usive
Ġconce ives
Ġres ides
Ġsince re
Ġdec re
Ġ1 7
Ġ1 8
Ġmet al
ĠU nder
ĠU pon
lear ned
Ġsupp lement
Ġconsist ently
Ġill um
Ġaim ed
represent s
represent ing
In formation
In stead
In ternational
Ġ[ *]
ĠOn e
ĠOn t
ĠCon sciousness
rel ated
rel igion
Ġdeg r
nat urally
nat ura
Ġind ulgence
Ġind estr
Ġind emnify
Ġsuccess fully
Ġdefin ing
sub tle
sub stratum
Ġworth lessness
Ġple a
Ġple asing
red it
Ġup wards
Ġarr anging
EN ERAL
Ġocc asions
TI CE
Ġobser ver
Ġobser ves
Ġobser vers
Ġel imin
Ġac uteness
Ġleg itim
mon ition
Ġconsequ entia
Ġneed ful
Ġmod us
Ġmod ified
Ġmod esty
Ġresult ed
Ġgu ilty
ĠĠĠĠĠĠĠĠĠĠĠĠĠĠĠĠĠĠĠĠĠĠĠĠ ĠĠĠĠ
Ġsc att
Ġcop ied
Ġcop ula
Ġneg ations
subject s
Ġnew sletter
Ġmain tenance
Ġbod ily
Ġmethod ology
Ġread ing
Ġeas ier
arr ive
ov ember
Ġdog mas
Ġover come
Ġnon sense
Ġdemonstr ates
synthe tic
Ġanswer ing
Ġco herence
Ġpost erity
Ġpost pone
Ġexcept ed
ob edience
Ġmem ory
Ġcontin ual
Ġinqu ires
Ġident ify
Ġprov ision
Ġprov ides
Ġprov isions
Ġinst ant
Ġexpect s
Ġhop ing
Ġhop ed
Ġhop eless
Ġmis lead
Ġmis erable
Ġden ote
Ġappre ciation
Ġaffect ing
Ġaffect ions
Ġprogress ing
Ġgener ality
Ġgener ations
Ġoblig es
Ġremark ably
Ġvari able
Ġsuper stition
ext ended
Ġaid s
oc ent
Ġdraw s
Ġaffirm s
dif ferences
sim ony
connect s
bl ance
Ġharmon izes
Ġyour selves
some times
Ġbr ief
Ġund isturbed
ĠY es
Ġce aseless
Ġvol ume
Ġjud icial
Ġfut ility
Ġdistinct ive
Ġoper ate
Ġintr insically
ĠAn y
Ġcorrect ive
Ġpret ence
Ġlie u
Ġabs or
limit ations
pres ence
Ġintu ites
Ġlead en
Ġcontinu ance
Ġdynam ically
ĠUn iverse
leg al
intellig ent
intellig ibility
Ġsupport s
Ġsupport ing
just ification
Ġexhib ition
Ġtrans fers
ĠEx t
ordin ate
Ġrecogn ises
Ġrecogn ised
Ġcomb ines
Ġins ignific
Ġdesign ated
Ġabstract ing
imp ression
Ġdon ation
Ġdon ors
Ġsur r
Ġsur pass
Ġsur render
Ġsur veyed
Ġsur reptitious
Ġsur vive
Ġoccup ying
Ġke pt
Ġdel ight
Ġappro ve
Ġrefer ring
Ġcircum ference
comp are
Ġorgan ism
Ġsignific ations
cre ated
Ġear lies
consider ing
consider able
place d
ĠJ uly
quant itas
Ġfurn ishing
pe ople
distingu ishing
ĠK IND
ĠK ey
Ġsepar ately
Ġtest ed
Ġtest imony
conf usion
conf irmed
ĠRE AD
worth iness
div ided
Ġdisp uting
Ġdisp utation
Ġcarr ies
Ġcarr ied
Ġcarr ying
Ġaccept s
Ġaccept ation
Ġspeak s
Ġcre ate
Ġcre ations
val ue
ata e
Ġgain s
Ġgain ing
Ġsimilar ly
Ġcosm ology
ĠSt ate
ĠSt aple
origin ally
origin ates
Ġinter fere
Ġinter mediate
Ġinter vention
Ġinter preted
conform ability
Ġconver sation
real itas
Ġwise ly
demonstr ate
Ġcol lective
ĠAN TITHESIS
jud ged
mort al
Ġtransc ending
Ġtransc ription
Ġtransc ribe
Ġheter ogeneity
prov iding
Ġart s
conce aled
expl ained
Re lease
great ness
ante cede
discover ing
Ġ9 5
Ġ9 9
Ġreciproc ity
Ġpriv ativum
Ġpriv ilege
Ġequal s
Ġcomprehend ing
den ial
Ġfail ing
Ġsophist ries
Ġanalog on
Ġback wards
ĠIm per
Ġdet ect
Ġdet ail
contin ually
Ġpract icability
Ġhum ility
Ġhum ble
air banks
Ġindu ces
Ġprocess ing
Ġvent ures
Ġvent ured
post ed
post ulate
uit ous
Ġturn s
Ġelev ates
Ġweight y
Ġstud ies
Ġcontrib uting
Ġdiscern ing
Ġantecedent ia
look ed
nex us
Ġmist rust
ED IES
Ġpun ished
Ġpun ishments
Ġdest ined
Ġdest itute
Ġpreser ved
ĠDe fect
ĠDe pendence
ĠDe cember
Ġ200 0
Ġ200 4
conting ency
attempt ed
Ġgl ance
Ġgl ass
Ġgl orious
Ġcap ability
neg ation
Ġintention ally
indic ating
Ġqual ification
Ġmark et
Ġnecessit ates
express es
express ed
express ions
Ġcr own
Ġproportion ate
ĠPU NI
ĠPU RPOSE
Ġprofess ion
Ġprofess es
legisl ating
ST ART
step s
oper ations
Ġguard s
Ġguard ing
Ġincre asing
Ġexc ites
Ġshort est
ĠÃ¦ sthetical
por ated
bid den
Ġ6 4
Ġbold ly
Ġpros yllogism
Ġextr icate
Ġdev i
Ġdev ote
ĠCh ange
ĠDo es
Ġstrong er
Ġoccur red
Ġoccur rence
Ġblind ly
Ġgenu ineness
concern s
concern ing
pass ages
Ġprim acy
Ġtax es
PL IED
equ ality
conci lable
observ ations
addition al
find s
signif ies
ĠNO TICE
Ġlist en
ĠĠĠĠĠĠĠĠĠĠĠĠ ĠĠ
Ġhead s
ĠEvery thing
Ġillustr ating
Ġconfess ed
inter mediate
EM NITY
dedu ctible
Ġ15 00
Ġprot otyp
Ġmeasure d
Ġmeasure ment
ĠWh y
Ġsubstant ia
ĠDis c
Ġanticip ations
Ġroot s
Ġcontempl ates
Ġord ered
attrib utes
attrib uted
imper atives
direct ly
sing le
restrict ing
appro ach
appro bation
import ance
doubt ful
fall s
fall acies
transcendent ally
PRE SS
Ġtre asure
Ġreject ing
Ġreject ed
Ġhyp ocrisy
Ġattr act
Ġevid ences
ĠPhenomen al
Ġprejud ices
ĠCON TRA
ĠCON CEPTION
ĠCON SEQU
Ġdesc ent
Ġdesc end
Ġdesc ription
Ġcommence d
Ġcommun ication
ĠREM EDIES
Ġadmir able
Ex perience
ĠIN TRODUCTION
ĠIN CLUDING
dec ided
bod ies
concl usion
concl usions
pleasant ness
Ġcultiv ate
Ġcounter po
Ġtyp es
Ġcur ved
Ġisol ate
Ġloc ations
Ġpremis s
ĠNe g
ĠMat thew
ĠMetaphys ics
Ġapproxim ation
affirm ative
progress ion
occup y
clear ly
sour ces
Ġcle arest
Ġdr iven
Ġdim ension
ĠEBOOK S
Ġapprehend ed
Ġhonour able
enlar gement
enlar ged
mod es
prom inently
arbitr arily
arbitr ium
result ing
vari ety
Ġann ouncement
Ġcent re
Ġdam age
Ġdam aged
ĠOr igin
Ġindefinite ly
ĠHim self
ĠANY THING
anticip ate
grad ually
agree ableness
mo ving
demand s
Ġinc ite
conduct ed
AB LE
CI DENTAL
search able
problematical ly
Ġmund o
Ġerect ing
Ġerect ed
Ġrepe at
Ġuniform ity
Ġviol ence
Ġviol ates
ĠAnt ithetic
Ġsubmit s
Ġattack ing
Ġconceal ed
Ġsuperior ity
Ġhumili ating
ĠPhys ical
ĠPhys ico
ĠIntuition s
Ġaf raid
continu ation
Ġmid st
Ġflatter ing
ĠBe fore
ĠBe yond
Ġshar ing
Ġchar m
Ġchar ges
ĠWARRAN TIES
Ġdesp ise
Ġenumer ate
ĠEX PRESS
Ġcomput ers
Ġcompens ation
Ġguarante e
Ġwitness es
Ġirre concilable
dogmat ism
Ġz eal
pract ised
LI GENCE
intu ited
assum ing
ideal ism
want ing
ĠST RICT
accident al
accident ally
furn ish
furn ishes
mist ake
Ġpress es
uct ible
bound s
bound aries
formula e
Ġconven ient
commun icated
Ġpaper work
Ġtouch ing
Ġtouch stone
Ġlic ensed
Ġlur king
Ġdetr iment
Ġdetr imental
Ġspo il
Ġspo ken
Ġvac uum
ĠSome times
ĠNor th
Ġsubstit uted
Ġphilosoph ize
Ġentertain ed
Ġcoinc ides
ĠANAL OGY
Ġaccompany ing
qual ities
invol ves
invol ved
deser ving
annihil ation
excl uding
class ification
dev iate
Sp ace
Sp eculative
defect ive
Ġru in
Ġstead ily
Ġstead fast
previous ly
Ġoffer ing
Ġsil ence
Ġinex tricable
Ġperplex ity
ĠAb b
ĠPart icular
Ġdissimilar ity
Ġparticip ating
ĠDIS CLAIM
Ġawaken ing
Ġawaken ed
Ġdeliber ation
Ġindubit ably
Ġembrace d
transc end
prob ability
seem s
geometr y
geometr ical
Gr anted
¢Ä ¢Ä
support ed
proportion ed
ipp ed
thorough ly
endeavour s
De fects
cosm ical
incre asing
introdu ced
exhib ited
merit orious
peculiar ity
sight ed
Ġcast s
Ġinn ocent
Ġdark ness
Ġcompr ises
Ġvit al
Ġperce ives
Ġperce iving
Ġdisgu ise
Ġdisgu ised
Ġnear ly
ĠGer man
ĠDes pite
ĠDes cartes
ĠMis sissipp
Ġ178 7
Ġfri end
Ġfri ends
Ġcounsel s
Ġdefici ent
Ġescap ing
Ġescap ed
estim ation
desc ending
profess ing
Ġell ipse
remo ved
confirm s
OS SIBILITY
accord ant
anthropomorph ism
mag nitude
yield ing
PRO JECT
Ġaut hentic
ĠIND IRECT
Ġric hes
Ġastr onom
Ġtheore m
Ġwarn s
Ġcens ure
Ġinsp ire
Ġincor porated
Ġrefin ed
Ġrevel ation
Ġlow est
Ġspecul ations
Ġrig orous
Ġrare ly
Ġves sel
Ġperpet ually
Ġreluct ant
Ġprepar ation
Ġcommerci al
Ġinfring ement
Ġappropri ated
Ġchem ical
Ġfacil itate
Ġtaut ology
Ġdownload ing
Ġbenefic ent
Ġrecommend ation
Ġach ieve
Ġrom ance
Ġted ious
acqu ire
ĠIM PLIED
Ġpet ty
Al though
Mathemat ics
Sy nthetical
mem bers
writ ten
Ġsoci ety
Ġip so
signific ance
Again st
VI DED
danger ous
smell ing
Ġbes ide
toward s
Ġtemper ament
Ġincontest ably
Ġecon om
Ġlof ty
Ġuninter rupted
Ġunansw erable
Ġtroub ling
Ġimpract icable
Ġstopp ed
ĠPers on
ĠSen suous
ĠOp inion
ĠGos pel
Ġgrate fully
Ġremed y
ĠEngl ish
Ġamid st
ĠDO CTRIN
Ġinviol able
Ġaffair s
Ġindul ge
Ġantiqu ity
Ġassertor ically
Ġcoal ition
Ġunden iable
Ġvolunt ary
ĠArgum ents
Ġfanci ed
Ġextravag ant
Ġcomplaint s
Ġanthropomorph ic
ĠMonad ists
Ġsem blance
princip ium
commerci um
vi our
criter ion
inevit ably
Fourth ly
NES S
WARRAN TIES
Ġmer its
intuit us
ĠCHA PTER
ENTI AL
Ġtant amount
Ġaux iliary
Ġcurs ory
Ġcush ion
Ġfing ers
Ġeleg ance
Ġearn est
Ġepo ch
Ġbeha viour
Ġgene alogical
ĠTRAN SITION
Ġunanim ously
Ġsprun g
Ġrap id
Ġtrave l
Ġvulg ar
ĠFRO M
ĠFIT NESS
ĠAug ust
ĠPref ace
Ġchapt ers
ĠSUC H
ĠNEG LIGENCE
ĠReplace ment
ĠMERCHANT ABILITY
Ġindestr uctible
Ġlegitim acy
Ġscatt ered
Ġinsignific ant
Ġearlies t
ĠStaple ton
ĠPUNI TIVE
Ġprototyp e
ĠCONTRA CT
ĠCONCEPTION S
ĠCONSEQU ENTIAL
Ġcounterpo ise
ĠDISCLAIM ER
ĠMississipp i
ĠDOCTRIN E
Äł ab
Ġag es
Ġa y
Ġo und
Ġw ard
Äł com
Äł mis
ill ustr
Ġo u
Äł B
Äł an
Äł th
ob st
1 9
e w
at tr
Ġu d
of f
Äł he
Äł al
ĠE D
contr ib
bel ie
1 78
Ġo t
Ġc ed
Ġre t
om ni
Äł des
ac cept
we ak
pres er
Ġ vel
Ġo un
Ġis e
Ġit ion
Ġg er
ĠI R
ere ct
Äł se
Äł the
Äł ind
Äł for
ca re
ĠP H
Ġow ed
over n
red istrib
accom pl
1 2
M ENT
a ut
r os
v ered
Ġa pt
Ġo c
is ol
Ġp on
as ur
ll ed
em piric
Äł R
Äł comp
Ġv ed
ph il
ac knowled
str ong
Ġar m
sen sib
ful fil
stru gg
In trodu
IC AL
appre hend
contem por
C he
L AR
N O
U SI
a h
g n
p ort
u gg
Ġ QU
is se
en n
es ca
Ġb le
Ġre ct
Ġd uc
Ġal le
am orph
ant agon
Ġst one
ĠA S
over ably
ĠR I
lu ct
bl ind
comm end
imag in
Äłd ec
Ġver sion
adm ir
obst ac
A T
C om
I m
a ud
a str
a dequ
b at
b ungl
c her
c ert
c ob
c itiz
d ur
d am
d ile
d imin
f anci
g en
g est
g overn
h ic
h ist
h yp
i og
l oc
m oun
m ock
n ight
n ull
p ict
r hapsod
s a
s pl
t re
t emper
u pright
v ous
v oc
w ond
z er
z ism
Ġ ute
Ġ ied
Ġ ible
Ġ *****
in j
in comp
re ve
re du
is c
is ter
is yllogism
en esis
er v
er um
Ġp us
ic an
ic ros
or ment
se ver
ou re
ar ond
ect yp
ll ing
iv eness
im m
os oph
Ġl ucid
ur p
ul og
em pl
con sol
con dem
am pl
de pre
de part
ol ens
tr anqu
Ġexist ent
Ġtr ies
Äł qu
ction s
pr on
su cceed
ex ec
ex to
Ġev ol
un fortun
ener ation
ie vous
pre par
pre ponder
pre gn
Ġpl ays
me asur
com pl
sess ion
over look
par adox
ser t
ser vation
Ġent ities
eci proc
ys ms
gin ia
ĠL I
ĠU S
sub sum
Ġright eous
Ġinfluence d
ont al
cor rection
sh ort
ap per
comp ut
ometr y
icip ations
ru in
ian a
Su bst
super ior
JEC TIVE
ST EM
che son
IL OS
cul ation
Qu od
opp on
fig ur
cap it
Ġol ogy
sym bol
sch ool
indu bit
force ability
ibr ium
omni pot
NO W
USI ON
isse urs
ILOS O
2 5
A F
A RA
A rist
B C
C ertain
C ategor
C rit
D EM
D AMAG
E I
G RA
J u
L ogical
L EMENT
M e
M AL
N ER
O RO
P le
P ossib
P art
R even
S THE
T hing
U B
U S
U nt
V II
b i
b es
b us
b ack
b new
c ence
c ivil
d oll
d rop
e in
e br
f an
f ict
f lection
f ru
g y
h n
h ind
h op
h io
k ingdom
m ark
m und
m ov
o qu
o ca
p ob
r al
r ont
s ies
s ound
t w
u phold
v ict
w elf
Ġ &
Ġ q
Ġ ics
Ġ ically
Ġt ur
Ġa ver
Ġa equ
in ated
in ward
Ġo pt
Ġthe r
re ject
re ption
re pe
re sem
it ating
en cour
at en
at ure
Ġc ert
al ar
al tern
al leg
ic ed
Ġin structive
Ġb an
Ġm us
Ġm ill
Ġn is
Ġn et
se cret
Ġit ies
Ġcon d
Ġcon qu
Ġd iction
st art
st arr
om p
om nit
ot ot
ar ol
Ġh ole
the ore
iv al
im prov
Ġl ib
pt uously
ject ive
ith ful
Ġsu ited
ib ib
ib les
ld arond
qu i
ain drop
per sist
per pet
per plex
ve il
con junct
end our
end els
am ps
ab ol
ab ilities
self ish
de tr
ig ence
ig our
Ġca ution
ans as
min or
ies tle
of fer
Äł acc
use ful
pr ag
Ġper tains
su ppos
ex ert
ex cell
ance d
ac id
ult imate
un ceasing
un iform
ĠP O
ĠP ER
ener ally
oy ed
be ho
The oretical
me et
com men
Ġcomm encing
ici um
ish able
Ġrespect ive
we b
we aken
over step
over throw
par alogism
av en
Th ought
can on
dis play
contr ast
arr ogant
ext reme
Ġaw a
caus al
Ġ5 5
Ġconver ted
ĠAN D
ret ched
Ġpract ised
Pr otot
Äłs ur
Ġguard ed
Ġ7 5
ili ates
vers ed
Ġpleasant ness
col lect
UL AR
Ġmov able
spe ak
maj or
det ect
TRA DEM
obsc ure
sk ill
LAR Y
cob web
spl endour
condem n
" ),
( $
) -
) ?
* (
. ]
. ),
0 2
0 4
1 4
2 1
2 3
2 4
2 6
2 7
2 8
2 9
3 0
3 1
3 2
3 3
3 4
3 5
3 6
3 7
3 8
4 2
4 3
4 4
4 6
4 7
4 8
4 9
4 280
5 1
5 2
5 3
5 4
5 6
5 8
5 9
6 0
6 1
6 2
6 3
6 4
6 5
6 6
6 7
6 9
7 0
7 2
7 3
7 4
7 6
7 7
8 1
8 7
9 6
; [
A Y
A IN
A pperception
A PPENDIX
B etween
C osmological
C ritical
C reating
D IC
D ialectic
D ifferent
D URE
E nd
F UND
G EMENT
G ENERAL
H is
H uman
H ave
I TH
L ast
L ove
L ogic
L ocke
L AF
L LARY
M ichael
N on
O r
P lato
R TH
T wo
U pon
U AL
U pdated
V olunteers
W NER
Y es
Y STEM
] .
_ [
a ugment
b all
b esides
b servation
c s
c ible
c rowd
c asus
c overably
d ata
e per
e gr
e veloped
e ometry
f ence
f ull
f ix
f aces
f illed
f ancy
g one
g ained
h art
h old
h itherto
h oliness
h omogeneity
i ary
i ently
j acent
l ose
l ink
l lect
l aid
l come
l io
l ix
l urality
l iability
m n
m al
m ill
m unity
m acy
m oments
n icious
o ber
o ved
p ast
p utes
p utable
p iece
r d
r um
r ible
r ances
r ash
s in
s ought
s ake
s ided
s cribed
s ciences
t act
t able
t ask
t lest
u seless
v ocation
w ished
w ater
w rong
w ants
y pon
y ers
Ġ ight
Ġt ib
Ġt em
Ġt rem
Ġt ends
Ġt utor
Ġt orment
he art
Ġa the
Ġa we
Ġa version
in a
in ent
in ning
in ability
in ternally
in ery
in heres
in conceivable
Ġo d
Ġo mission
Ġthe e
Ġthe ist
re ach
re ceived
re hension
re cognize
re pute
re putation
re luct
re commend
it al
it ial
it udes
it itious
en forceability
at s
at ical
at urn
er on
er ation
er ate
er ring
Ġw al
Ġw ent
Ġw ound
Ġw arr
Ġw ild
Ġw rest
Ġw atch
Ġw rought
Ġw retched
Ġc ou
Ġc un
Ġc ath
Ġc ount
Ġc tion
Ġc ub
Ġc rowd
Ġc asus
Ġc odes
Ġs i
Ġs is
Ġs al
Ġs end
Ġs ink
Ġs ap
Ġs ites
Ġs adly
Ġp u
Ġp al
Ġp ill
Ġp ause
Ġp oly
Ġp ush
Ġp omp
ic ing
Ġin e
Ġin an
Ġin form
Ġin ane
Ġin expl
Ġin compar
Ġin estim
Ġin conceivable
Ġin habit
Ġin equality
Ġin sensib
es ult
Ġb are
Ġb lessed
Ġth ine
Ġth resh
Ġth ousand
or ter
or ably
or ned
or igination
Ġto ld
Ġm ir
Ġm over
ce lebrated
ct ober
Ġf ain
Ġf if
Ġf ame
Ġf ight
Ġf ra
Ġf atum
Ġf light
Ġf ier
an alytic
an imity
Ġn es
Ġn ations
Ġe b
Ġe re
Ġe ff
Ġe lect
Ġe red
Ġe ulog
se verest
ou p
ly ing
le ft
Ġre ly
Ġre ign
Ġre ward
Ġre call
Ġre ap
Ġre new
Ġre production
Ġre trace
Ġre capit
Ġre rum
Ġit ed
Ġcon e
Ġcon ced
Ġcon dem
Ġcon vey
Ġcon veyed
Ġcon ducive
Ġd il
Ġd ie
Ġd ress
Ġd ial
Ġd ates
Ġd ull
Ġd umb
Ġd rew
Ġbe ad
Ġbe que
Ġbe fits
st e
st ain
st ates
st ability
st atus
st ones
om as
om ain
om aly
ent ities
Ġwh ol
ar ing
ar ities
as p
as cribed
as ibility
ut most
ut cheson
ect ions
Ġh ide
Ġh ost
Ġh over
Ġpr ize
Ġpr ae
Ġpr oud
Ġpr ogram
Ġas pir
the ning
iv ial
iv isible
iv oca
im pose
im poses
im mortality
im material
os session
Ġan xious
Ġan terior
Ġan omaly
Ġex ceed
Ġex change
Ġex cess
Ġex erted
Ġex hort
Ġex empl
Ġl end
Ġl ust
Ġl oth
Ġl ack
Ġl iable
Ġl au
Ġl ux
Ġl ibr
Ġl iberum
Ġnot ifies
Ġwe ari
Ġwe ighed
Ġwe lcome
Ġfor t
Ġfor be
Ġfor cing
Ġfor fe
Ġfor sakes
id ity
id ens
id ger
id night
Ġsu pre
Ġsu spect
Ġsu nt
cept ical
cept ible
ter onomy
ure ans
ir ginia
Ġg out
Ġg aps
Ġg bnew
Ġwith stand
ur red
ci ate
ver sely
ĠI d
qu erable
og ue
res ides
ist ences
Ġor ator
Ġor bits
ere r
Ġcan st
ec um
ec utive
ec undity
if ling
and i
and o
and al
and ed
and om
sel s
per mit
per ceived
per mission
per suasion
Ġall ot
Ġall ure
Ġall ied
rom ise
ul zer
em y
Ġpro lix
Ġreason ably
ate ful
con veyed
con verted
con ducive
con versely
con querable
ch arge
ch asm
ch ievous
ch arities
Ġde ter
Ġde fe
Ġde arest
Ġde let
Ġde pict
Ġde eper
ore d
Ġint act
Ġint imate
Ġint imid
Ġint egr
il ation
il anthrop
il ibrium
Ġal arm
act ivity
us able
us iveness
Ġha ph
ill ain
am ination
pl ies
pl ays
pl anation
pl aces
pl acing
pl iance
pl ausible
ab ile
ab iding
ab yss
Ġun w
Ġun re
Ġun tr
Ġun sh
Ġun just
Ġun real
Ġun necessarily
Ġun qual
Ġun belief
Ġun exception
Ġun satisfied
Ġun sett
Ġun changed
Ġun usual
Ġun influenced
Ġun restricted
Ġun alter
Ġun guarded
Ġun bidden
Ġun yielding
Ġun link
Ġun erring
Ġun conquerable
dition s
dition al
de ceived
de istic
de fence
ol ence
ol lection
Ġca el
Ġca utious
Ġ( "
Ġ( *
tr od
tr ied
tr ack
Ġsp ur
Ġsp her
Ġsp ort
Ġcom ets
Ġr ot
Ġr ich
Ġr ose
Ġr ude
Ġr aces
Ġr iver
Ġr het
Ġr aindrop
est ing
Ġem pire
Ġwor se
Ġexist ential
Ġme l
Ġme lt
her self
Ġtr ial
Ġtr aces
Ġtr iang
Ġtr anqu
Ġtr ivial
Ġtr ifling
Äł int
Äł inf
Ġv a
Ġv ast
Ġv igour
Ġwill ingly
fore ign
fore seen
ĠB erke
use ment
ak ed
Ġim material
Ġim proved
Ġim mortal
Ġim pregn
Ġper ish
Ġper man
Ġper vert
Ġper nicious
ori ally
Ġform arum
Ġab sol
Ġab und
Ġnat ive
Ġnat ura
Ġno bl
ame ter
su pposed
su pposing
su itable
pos its
pos itio
Ġk at
Ġk new
Ġreg ions
Ġreg ret
Ġreg ulated
ind ifference
ind ulgence
Ġus urp
Ġsh ame
Ġsh ake
Ġsh ine
Ġsh aken
Ġsh ield
Ġsh ared
Ġsh orter
ĠF unction
ĠF ull
ĠF AC
ĠF airbanks
ĠF ebr
ph rase
ex ternally
ex hausted
ex terior
ex actly
out side
out set
Ġse a
Ġse yn
Ġcogn ise
Ġcogn iz
Ġcogn itio
Ġcogn isable
ud o
Ġst at
Ġst ory
Ġst ars
Ġst ored
Ġqu ib
Ġide ally
Ġrel iable
Ġev ade
wh olly
ĠA K
ĠA re
ĠA ff
ĠA CT
ĠA ldarond
our y
our ce
Ġj ugg
Ġj esting
Ġacc um
Ġacc used
Ġacc ru
Ġacc redit
Ġman hood
ult aneity
Ġunderstanding s
un ite
un ted
un its
un certain
un necessary
un ities
un limited
un certainty
un iting
un til
un changeable
un true
un ciated
un searchable
sequ ence
Ġad just
Ġad jective
Ġad jacent
for ward
ĠP ublic
ĠP lease
ĠP olem
ĠP OSSIBILITY
ĠP ARA
ĠP lurality
Ġdis mis
Ġdis appro
Ġdis advantage
Ġdis posing
Ġdis continu
Ġdis continue
Ġdis appeared
Ġdis pleases
Ġdis repute
position s
Ġy aw
Ġy oke
), [
so hn
et us
et ting
et ched
Ġknow able
Ġpre cl
Ġpre ference
Ġpre fers
Ġpre ponder
Ġpre posited
Ġpre caution
Ġpre mise
Ġpre monition
str ings
str iking
ĠTh ough
ĠTh irdly
ĠTh omas
Ġch amp
Ġrepresent ative
Ġsome where
Ġar ouse
sp aces
Ġevery day
Ġsynthe ses
ĠS ing
ĠS ense
ĠS END
ĠS alt
ĠS econd
ĠS enses
ĠS ciences
ĠS pirit
ĠS imilarly
ĠS MAL
ĠS UB
ĠS aturn
ĠS ceptical
Ġph ilanthrop
sol ved
ens ity
ens ome
pre determined
pre hensible
pre pared
ĠN ame
ĠN oumen
ĠN ihil
ĠN early
ĠN ovember
oy ing
ness es
Ġsub du
Ġsub sid
ĠO therwise
ĠO WNER
ĠO ctober
possib ilities
imit able
Ġfre es
condition al
ĠIn cl
Ġcertain ties
Ġpl un
Ġcomple ting
ort ing
ort unities
Ġend uring
Ġcont ending
ĠG over
ĠG enerally
ĠW ould
ĠW ell
ĠW OR
ĠW IL
ĠW ITH
ĠW idger
Ġwhen ever
ploy ment
Ġgr oup
Ġgr asp
gor y
Ġcontr ari
Ġgo ld
The ological
ĠC ity
ĠC AN
ĠC OM
ĠC artes
ĠC ORO
ĠC arol
ast ically
Ġow e
form ing
Ġconnect ions
Ġob no
Ġob sole
Ġdes ist
Ġdes cribes
Ġdes pot
Ġfound ing
Ġcomm end
Ġcomm ences
Ġcomm erce
Ġdist rust
old est
ari us
pro ves
pro posed
Ġfollow ers
Ġemploy ee
Ġwas hed
Ġrational ist
Ġrational ism
Ġpur ified
with drawn
Ġrem ember
Ġrem embered
Ġdisc ord
ĠH as
ĠH ad
ĠH itherto
ĠH armon
âĢĿ .
âĢĿ ),
Ġact or
Ġact uating
Ġext ol
Ġext ingu
Ġag ency
Ġval uel
Ġen unciation
Ġen lightened
Ġen emy
under taking
Ġground ing
med ium
med iable
ĠR eciproc
ĠE s
ĠE qu
ĠE dition
ĠE lucid
ĠE mail
ĠE BC
ĠE LEMENT
Ġpres ume
Ġpres iding
Ġout we
Ġout dated
Ġter minis
Ġter rible
Ġexp end
Ġexp edient
Ġexp orting
wo ven
exist ed
exist ences
Ġreal e
Ġreal itates
ser ved
Ġam ply
Ġperfect ions
av a
Ġatt ends
man kind
phys ician
phys iological
ogit o
ĠD E
ĠD est
ĠD irect
ĠD ON
ĠD OM
ĠD omain
Ġent rance
Ġfact i
ident ity
ident ical
hemat ism
ass ion
ass ent
ass able
ass istance
determin able
Ġimp ure
Ġimp air
Ġimp elling
Ġimp enetrable
Ġimp aired
Ġimp assable
cogn izing
yp al
Ġconstit uent
Ġcor por
Ġpurpose ly
Ġhere in
necess itate
Ġinf used
Ġinf ancy
Ġexpl ication
Ġinterest ing
Ġkind ness
ĠM ore
ĠM atter
ĠM odality
ĠM endels
ĠM AY
Ġhand le
Ġhand les
dis k
dis junctive
dis similar
dis appears
dis interested
dis putes
Ġstr ive
Ġstr ay
Ġstr ain
Ġstr iving
Ġconc ess
Ġconc ur
Ġdem erit
Ġappear ing
Ġrest less
Ġanaly ses
othe ology
ra ised
ra ft
empt y
Ġref ute
Ġref used
Ġref using
Ġref rain
Ġdiv ides
Ġsum m
Ġsum s
Ġcomp ound
Ġcomp any
Ġcomp ulsion
Ġcomp elling
Ġcomp etition
Ġcomp romise
Ġcomp ilation
Ġadv ised
Ġdedu ctible
Ġcontradict ing
reg ulate
reg ulated
Ġassum es
ev ents
ĠL est
ĠL ogicians
Ġtruth fulness
lu de
und ecided
mediate ly
Ġres iding
Ġdec ay
Ġdec ried
Ġ1 1
Ġ1 4
Ġmet als
Ġmight y
ĠU pdated
Ġsupp ressed
Ġpredic ating
Ġpredic ables
Ġpredic aments
Ġexpress ing
Ġexpress ly
Ġwork ing
Ġphys ician
Ġphys ica
Ġconf er
Ġconf ident
Ġconf usions
Ġconf using
Ġconf idently
Ġdiscover ies
acc ustomed
In asmuch
In trod
Ġcl ock
Ġcl oud
ĠCon cept
ĠCon trib
ĠCon junction
ĠCon tent
ĠCon tact
ĠCon ditions
know ing
Ġdeg rade
Ġind ivisible
Ġind olence
Ġdefin iteness
sub scribe
sub stitution
sub ordinate
Ġclear ing
Ġarr og
Ġarr anges
Ġimper illed
Ġregress ion
Ġregress ively
Ġel oqu
Ġac knowled
mon ads
Ġsole mn
Ġperson ified
Ġneed ing
cont end
cont act
Ġwant ed
Ġconting encies
Ġfin ishing
Ġfin anci
mis conception
mis apprehension
Ġsc ale
Ġsc andal
Ġi o
Ġi ii
aim ed
contradict s
contradict orily
Ġelement al
part e
part ed
Ġmethod ical
Ġassert orial
Ġassert orially
Ġcommand ing
Ġmean est
arr ay
arr ived
ov erer
ĠTH OSE
transcendental ism
go als
Ġdog ma
Ġover throw
Ġover coming
Ġnon entity
Ġnon propri
Ġless on
Ġless er
Ġless ened
Ġdemonstr able
Ġsol ving
Ġrelations hip
Ġequ ipped
Ġequ ilibrium
Ġideal istic
Ġideal izing
bit ious
Ġco in
Ġco at
Ġco ar
Ġco ol
Ġco ins
Ġco erc
ĠPr imal
ĠPr iestle
ĠSu b
ĠSu pposing
ĠSu bst
Ġbound less
Ġconduct ing
men se
ail ing
Ġident ification
Ġexpect ing
gr ace
Ġhar sh
Ġpass ion
Ġpass ions
Ġargument ative
Ġ2 1
Ġ2 3
Ġmis use
Ġmis ology
Ġmis representation
Ġmis inter
Ġmis applied
Ġmis sed
Ġmis leads
Ġmis fortune
Ġmis chief
Ġmis erably
Ġden ying
Ġden otes
Ġappre ciated
Ġappre hensions
Ġop ens
Ġgener ates
Ġgener atio
Ġoblig atory
Ġremark ing
Ġprom ising
Ġprom inent
Ġsuper ficial
ext ends
Ġconscious ly
ĠBeing s
oc ate
oc ks
Ġaw akes
Ġpeculiar ities
Ġlegisl ator
Ġmaintain er
Ġaffirm ing
dif fer
sim plicity
sim ultaneous
Ġunderstand s
connect ing
bl under
bl ances
Ġed iting
Ġed ifices
ne arer
ave olens
Ġcirc uit
Ġspe ech
some what
Ġbr utes
Ġbr anch
Ġbr utum
Ġbr idge
Ġund one
Ġund ecided
Ġund isc
Ġund eveloped
Ġce pt
Ġce ased
cor poreal
happ ily
happ ened
right eous
Ġintellectual ized
categor ically
Ġfut ile
Ġdistinct ly
Ġdistinct ness
Ġclaim ing
Ġte leology
Ġoper ative
Ġoper ates
ĠAn alog
Ġendeavour ing
yn ics
Ġconv ict
Ġconv ictions
Ġcorrect ing
Ġthree fold
des cribe
des ired
Ġpret ext
sh ip
Ġdistrib utive
Ġanal ogical
br ain
fer ing
sensuous ly
Ġpar simony
Ġpar abol
Ġinvol unt
pres cribed
exam ine
exam ined
exam ining
no ble
no isseurs
ap se
Ġmed itation
requ est
requ iring
Ġdynam ics
ĠUn philosophical
leg ality
proc ure
Ġask ing
just ifies
Ġtrans lated
ĠEx ternal
ĠEx tent
ĠEx amples
ĠEx istences
ĠEx ecutive
ĠEx amination
rem ove
rem ote
rem arks
rem ained
fe es
Ġprof undity
Ġpain s
Ġpain ful
Ġexcl uding
Ġexcl usive
Ġvain ly
caus ed
Ġfr ustr
Ġfr ank
Ġfr ames
Ġdesign ed
Ġdesign ates
Ġdesign ating
Ġsuccessive ly
att ached
att acks
imp enetrable
ask ed
incl ined
incl udes
Ġthird ly
ĠAr chitect
Ġmeaning s
Ġmeaning less
appl ies
respect s
respect ing
respect ive
Ġbl ow
ft p
Ġdel ivers
Ġdel ine
Ġdel usions
Ġdel icate
Ġdel ivered
ific ate
oriz ontal
Ġ5 96
Ġappro ved
Ġappro val
Ġappro bation
Ġra ises
Ġrefer able
IN CIDENTAL
Ġ* (
Ġche er
Ġche mist
thought s
consist ing
ĠSp here
Ġdecl ined
ĠV ery
comp ound
comp ressed
Ġlet ters
Ġagree ably
Ġorgan ic
Ġarbitr ium
Ġsignific ancy
univers ally
ĠJ UD
then ed
quant a
ĠK ings
ĠK NOW
iter ated
Ġsepar ates
Ġsepar ating
constit uted
constit uent
Ġcare lessness
mathemat ician
conf ounded
conf utation
metaphys icians
ĠRE PL
ĠRE FUND
worth less
Ġge ometer
div isible
Ġoff ence
Ġ4 000
Ġ4 280
ins ip
Ġens ure
Ġens ures
Ġens uring
ip ate
Ġscept ic
Ġfa ulty
Ġwis er
Ġwis est
possess ions
Ġaccept ance
cogit able
cogit ating
urs ively
Ġcre ative
CE DURE
Ġgen ius
ven al
speci fic
change ably
Ġfavour ite
think er
think ers
satisf y
Ġprop ension
Ġprop ounded
Ġsure ly
Ġoccasion ing
Ġoccasion ed
Ġoccasion ally
Ġdogmat a
Ġdogmat ists
Ġhigh way
Ġgeometr icians
Ġgeometr ician
gu ides
analy sed
origin ated
origin ator
origin arium
Ġinter ference
Ġinter ior
Ġinter rog
Ġinter pretation
Ġinter woven
Ġinter fering
Ġconver ting
predic ated
predic aments
sens atio
real ized
real issimum
demonstr ations
demonstr atively
Ġcoun tenance
Ġcoun tries
Ġcol lect
Ġmechan ically
jud ges
jud ging
jud icium
imin ished
Ġredu cing
Ġexper iments
Ġexper imental
Ġart ifice
expl anations
matter s
adv ances
Ġaccess ed
Ġaccess ible
Ġindis putable
Ġcanon s
discover s
Ġ9 2
first ly
Ġprud ential
Ġlos es
Ġaccident ally
Ġclass ed
Ġcomprehend ed
Ġir respective
investig ating
obser ve
Ġdivers ities
Ġdefect s
ND ATION
Ġsk etched
ĠIm mortality
Ġdet ection
vol unteers
attain ing
inf luences
contin ual
Ġpract icable
Ġrec ent
Ġrec ord
Ġrec ollection
Ġhum our
Pr ofessor
Ġwrit er
Ġconfin ing
Ġasc ends
Ġvent uring
Ġenlar ges
Ġenlar ging
adequate ly
Ġsent imental
Ġbene f
Ġbene fits
Ġfirm ness
Ġsucceed s
Ġstud ent
Ġobsc ured
maxim um
Ġmist aking
aff inity
say ing
Ġdest iny
Ġlower ing
ĠPh alar
Ġpreser ves
Ġpreser vation
Ġ200 3
psych ologia
draw ing
attempt ing
Ġgl im
Ġgl ory
Ġcap ital
Ġeng raft
neg ations
neg lect
Ġqual ified
Ġreckon s
Ġstreng thening
Ġauthoriz es
Ġauthoriz ing
Ġestim ates
Ġbest owed
Ġspirit uality
ĠPU BL
ĠPRO BL
ĠPRO CEDURE
ĠHere in
Ġreflect ed
Ġprofess ions
gl orious
regress ive
regress us
Con ceptions
oper ate
oper ative
oper ating
Ġguard ian
Ġrep ul
Ġrep utation
Ġrep orts
Ġrep orted
Ġhabit ation
Ġincre ases
Ġexc use
Ġexc ited
Ġexc usable
Ġ7 0
cond itio
Ġren amed
Ġren ounces
Ġren ounced
imag ine
imag ined
human ity
Ġsearch ing
Ġ6 5
Ġmo ves
Ġbeh old
Ġbeh alf
Ġextr act
Ġdev iate
ĠCh ief
Ġenjoy ing
ĠEm piricism
ĠEm ployment
Ġstrong ly
Ġstrong est
ĠLeibnitz ian
Ġoccur ring
Ġblind ness
oblig atory
defin e
diffic ult
depend ing
unte er
pret ext
Ġur ges
infinite ly
Ġtw ist
Ġsuggest s
Ġsuggest ion
Ġsuggest ions
Ġaccord ant
ĠEpic ureans
Ġderiv able
supp lied
equ ally
equ ivalent
Ġstru ck
deg rees
inqu ire
concept us
alt ered
addition s
second ly
Ġappe als
Ġhead er
Ġpermit s
Ġadapt ation
ĠEvery one
Ġsecret s
Ġillustr ations
Ġtransgress es
Ġtransgress ing
inst ance
inst ances
require ment
Ġver ify
Ġver bal
Ġfortun ate
Ġimit ate
Ġimit ating
show ing
Ġvan ish
Ġvan ishes
Ġprep ares
ĠDI RECT
Ġobe ys
Ġhind ers
Ġaddu cing
ĠWh ole
Ġgover nor
Ġsubstant ive
Ġmoder ately
Ġschol ar
Ġschol ars
Ġschol astically
Ġroot ed
Ġcontempl ate
attrib uting
direct s
direct ing
direct ed
sing ular
begin s
ACE MENT
labour s
analytical ly
advantage ous
Ġinj uring
Ġinj ury
Ġreject s
Ġreject ion
Ġsuff ers
Ġsuff ices
Ġattr actions
Ġabandon ed
Ġsym path
Ġsym bol
Ġsym pat
Ġstart ed
Ġevid encing
Ġcha os
Ġcommun ic
Ġconfused ly
Ġaccompl ishes
Ġomni present
Ġomni presence
Ex istence
Ex amples
vers a
ĠIN TERNAL
anteced ently
person s
person al
person ality
abstract ed
ox ysms
concl usio
maintain s
aenomen a
Ġspect ata
Ġspect acle
Ġalter ing
Ġsett lement
Ġlegitimate ly
Ġtyp ic
Ġcur iosity
Ġdict ation
Ġdict ated
Ġloc ale
Ġdeep est
Ġmeant ime
ĠCom position
ĠCom pliance
Ġimpart ed
Ġimpart iality
ĠMat erial
Ġblame less
correct ly
correct ness
affirm ing
affirm ations
progress us
occup ies
80 1
command s
author s
gener ations
construction s
compar atively
Ġlink ed
Ġtend er
Ġtend encies
Ġtell s
Ġcle ared
sec urity
Ġresol ves
Ġresol utions
Ġreplace d
Ġdr ives
Ġhard ness
Ġdepr ives
Ġundert akes
Ġstop s
ĠPer ception
ĠPer fect
ĠPer haps
ĠPer mitted
Ġprefer able
Ġprefer red
ĠCategor y
ĠCategor ical
Ġambig u
Ġteach ings
Ġfulfil s
Ġhyper bol
enlar ges
enlar ging
distrib ute
distrib ution
need ing
col lection
col lected
mod i
Ġmon ogram
Ġmon ads
prom ise
prom ote
result s
reciproc ity
inc erity
Ġjoin ing
Ġann ounces
Ġann oying
ĠTr anscendent
ĠTr ancendent
Ġaugment ative
Ġcent ury
Ġreve aled
Ġalleg ing
Ġenounce ment
Ġimply ing
Ġdecided ly
Ġerrone ously
Ġcolour ing
affect ing
grad uated
err ors
agree able
material iter
cop y
cop ying
coun try
mo on
prof itable
Ġinc it
Ġinc umb
construct s
construct ed
small er
individual s
pathological ly
Ġve x
Ġve iled
Ġve hic
Ġinstruct s
Ġration e
Ġ50 1
Ġwa x
Ġwa it
Ġwid er
Ġinhere nce
Ġthy self
Ġthreat ened
Ġthreat ening
Ġfoot path
Ġfoot steps
Ġnull ity
Ġerect s
Ġconject ures
Ġhundred s
Ġpropens ions
Ġprincip ally
Ġviol ate
ĠAl aska
Ġyouth ful
Ġattack ed
ĠMe anwhile
Ġconceal ment
Ġroad s
ĠÃĨ STHE
ĠProof s
ĠProble matical
Ġobstin acy
ĠPhilos ophical
ĠPhys ics
Ġprospect s
Ġhypostat ize
Ġhypostat ized
opp ortunity
indis pensably
sophist ries
CL USION
UL TY
apodeict ical
Be yond
po seless
Ġ8 5
Ġ8 41
Ġreconci le
Ġamount s
Ġflatter s
Ġsovereign ty
Ġchar itable
Ġmach ines
Ġmach inery
Ġdesp ising
ĠEX CEP
ĠEX TERNAL
Ġirre mediable
ĠSystem atic
Ġstrugg les
Ġstrugg ling
ĠNew by
Ġbreak s
LI ABILITY
LI ABLE
remain ing
Ġpo or
Ġpress ure
don ation
insepar able
Ġcour tes
exper iment
commun io
Ġascertain ing
Ġaltern ation
Ġaltern ate
Ġaltern atively
Ġrun s
disposition s
Ġincomp atible
Ġannex es
Ġexempt ion
Ġexcell ence
Ġlic ence
Ġlic et
Ġdetr act
ĠPRIN T
Ġsubstit ute
Ġsubstit uting
Ġ19 71
Ġelabor ate
Ġelabor ating
Ġmodern s
Ġantinom ial
Ġsolic itation
Ġsolid ity
Ġinstinct s
Ġdenom ination
Ġspiritual ism
Ġcalcul ation
ĠDIALEC TICAL
Ġflow ing
pursu it
pursu ed
deser ve
remark ing
Per manence
Per suasion
class es
comprehend ing
comprehend ed
convin cing
cil ity
dev ised
Ġhes itation
adm ixture
SEC TION
SEC OND
harmon ize
treat ment
Ġru ined
haust ible
definite ly
exposition s
Ġsil ver
Ġsalt s
Ġinex orably
Ġinex haustible
Ġbind s
Ġbetray ed
Ġprime val
Ġdece it
Ġunfortun ate
Ġtrust worthy
Ġheight s
Ġperplex ing
ĠAb out
Ġmyst icism
Ġcompass ion
ĠConcl usion
Ġsuffer ing
Ġridic ule
design ate
organ on
transc ends
contempl ated
anci ents
prob able
Ġil legitimate
specif ically
Gr ant
heter ogeneous
exc ite
exc ited
De ity
cosm ology
hon oured
hon esty
incre ase
introdu ction
exhib it
sym pathy
reckon ing
forth coming
Produ ce
declar ations
moment a
ton ian
ĠQu antity
sect ing
Ġrestr ained
Ġchief ly
Ġgrat ification
Ġinn ate
Ġinsist ed
Ġbon us
Ġprag matic
Ġsust ain
Ġsust ained
Ġcompr ised
Ġembarrass ments
Ġhealth y
ĠIntrodu ction
ĠGr ant
ĠGer many
Ġencour age
Ġencour ages
Ġcritic ize
ĠMis sion
Ġsurpr ise
Ġdefici ency
Ġpunct ual
Ġpunct ually
Ġstrengthen s
Ġtalk ed
ĠMethod ology
Ġaston ishing
Ġdenomin ated
Ġfatal ist
ĠAGRE EMENT
enjoy ment
desc ent
maj esty
profess es
confirm ation
bar ism
del usion
det ailed
agon al
anthropomorph ic
prevent ing
50 1
creat ure
creat ures
test ing
Ġign ore
recogn ise
recogn izes
PRO VIDED
bring ing
Ġeduc ation
Ġeduc ational
Ġtol erable
Ġtol erate
Ġmal i
Ġmal um
precept s
Ġaut omaton
Ġsw amp
Ġpol es
Ġpol ice
ĠIND EMNITY
Ġric her
Ġtheore ms
Ġsl ip
Ġpubl ish
Ġpubl ished
Ġparent s
Ġinsp ires
Ġincor poreal
Ġmar vellous
Ġmass es
Ġrefin ement
Ġredistrib ute
Ġredistrib uting
Ġprolong ing
Ġprolong ed
Ġratiocin ant
Ġvision ary
ĠBE FORE
Ġperpet ual
Ġconsult ing
ĠAgain st
ĠSe at
Ġsubdiv ided
Ġsubdiv isions
ĠWolf ian
ĠCan on
ĠCogn ition
ĠCogn itions
Ġcommerci um
Ġvalu es
Ġvalu ed
Ġsimpl est
ĠDetermin e
ĠDetermin ing
Ġrespon sible
Ġrespon sibility
ĠSubject ive
Ġaddress es
Ġparadox ical
Ġchem ists
Ġfacil ity
Ġtaut ological
Ġbenefic ence
Ġwaver ing
Ġarchetyp al
Ġarchetyp es
substant ia
obsc urity
Ġep isyllogism
avail able
requis ite
Ġpot ential
Ġlar ger
Ġlar gest
plain ly
abandon ing
abandon ed
doctr ines
doctr inal
impul se
impul ses
authoriz ed
bene ficial
cultiv ated
fl own
fr amed
ration e
sk etch
sent iments
reconci led
sett lement
exerc ising
Ideal ism
Philos ophical
18 87
Ca ius
Ca usality
divers ity
divers ities
mast er
mast ery
tempt ation
tempt ations
Ġflu id
streng th
streng thened
perform ing
priv ate
priv ilege
fici ency
function s
parent s
Ġmoun tain
Ġmoun tains
Ġdrop s
iver ance
Ġadvers ary
Ġartic ulation
Ġcard inal
Ġsan ct
Ġsan ctions
Ġsedu ced
Ġsmo ke
Ġsmo oth
Ġsoft ware
Ġincap ac
Ġincap acity
Ġmil itates
Ġflat ten
Ġelucid ate
Ġdi ameter
Ġdi agonal
Ġlimb s
Ġforget ting
Ġhast ily
Ġunconscious ly
Ġshadow s
Ġappet ite
ĠPG LAF
ĠPost ulate
ĠPost ulates
Ġye a
Ġargu ing
ĠSc hematism
Ġsubrept ions
Ġsubrept io
ĠCa uses
ĠCa usality
ĠCertain ly
ĠCosm ical
ĠCosm ology
ĠRedistrib ution
ĠRedistrib uting
Ġpresum ed
Ġconfound ing
Ġindivid uum
Ġimagin arium
Ġhero es
Ġfals ity
Ġ568 2
Ġ568 3
Ġadmire rs
Ġsignal ize
ĠWho ever
Ġsharp en
Ġpoison s
ĠDISTRIBUT E
ĠDISTRIBUT OR
Ġect ypal
threat ens
myst icism
Ġard ent
Ġlat ent
embarrass ment
Concl uding
transgress ion
568 3
architect onic
lab orious
sensual izing
Epic urean
Mor ality
Sto ics
az ard
cal culation
dest ination
eas ily
elev ated
fa cility
fam iliar
hum iliates
lo ving
penetr ating
wis dom
warrant ies
ino zism
instruct ed
enumer ate
animal s
ithmet ic
conject ured
confin es
conven ience
prim ary
specul ations
service able
undoubted ly
grant ing
PLEAS E
schol astic
circumst ances
62215 41
Wolf ian
mother ly
Ġadequ acy
constant ly
adem ical
adapt ed
consequentia e
Ġtear s
Ġtheolog ians
Ġwander ing
Ġcand our
Ġcitiz en
Ġsag acity
Ġincompre hensibility
Ġindiscern ibles
Ġinstrum ent
Ġincontrovert ibly
Ġbro ke
Ġthir teen
Ġthwart ing
Ġming les
Ġfant astic
Ġnom inally
Ġecl ipses
Ġrever ses
Ġliqu et
Ġlangu ages
Ġwear iness
Ġsuppos ititious
Ġsudden ly
Ġalkal i
Ġunsol icited
Ġunquestion ably
Ġempiric ist
Ġembell ishments
Ġtrades man
ĠBec ause
Ġimmedi atae
Ġnovel ty
ĠFac ulty
ĠFOU NDATION
ĠAd ditional
Ġaccus ation
ĠPre cisely
ĠParalogism s
Ġdiss ipate
Ġdisappoint ment
Ġphantom s
ĠInte llect
ĠGre gory
ĠCl ue
ĠCopernic us
Ġobl iterated
Ġdiscret um
ĠHist ory
ĠHypothe sis
Ġenv y
Ġenig ma
ĠEv ents
Ġtert ium
Ġentrust ed
Ġimpot ence
Ġshallow ness
Ġinflex ible
Ġapper taining
ĠLat in
Ġdecre ase
Ġillum inated
ĠOnt ological
Ġdegr aded
Ġmislead ing
Ġsurr ounded
Ġsurreptitious ly
ĠImper atives
Ġdetail s
Ġprosyllogism s
Ġdevi ations
ĠDisc overy
Ġtreasure s
ĠNeg ation
ĠOrigin ally
Ġzeal ous
Ġsteadfast ness
Ġsilence d
ĠAbb ott
Ġauthentic ated
Ġastronom ers
Ġeconom ical
ĠED ITION
accept ation
Ġger m
ĠIR S
ĠPH ILOSO
Ġarm oury
strugg le
esca pe
Ġduc at
Ġalle ge
ĠRI GHT
admir ation
obstac les
Ġpus hed
ectyp a
paradox ical
Subst ances
oppon ent
indubit ably
omnipot ence
Arist otle
Categor ies
Crit icism
DAMAG E
GRA PH
Ju venal
Me anwhile
Ple asure
Possib ility
Part icular
Reven ue
Thing s
Unt il
bus y
civil ized
doll ars
fan aticism
fict itious
fru itful
hind rances
hop es
mund us
mov able
pob ox
sound ness
tw ofold
vict ory
welf are
Ġaver age
Ġaequ ivoca
Ġopt ical
repe ated
resem blances
encour agement
alleg ed
Ġnis i
Ġnet work
Ġcond itio
Ġdiction is
starr y
omnit udo
theore m
improv ement
Ġlib itum
ibib lio
persist ed
perpet ually
perplex ity
conjunct io
detr imental
prag matic
suppos itio
excell ent
beho of
commen cing
Protot ypon
TRADEM ARK
Ġtib i
Ġathe istic
reluct antly
recommend ations
Ġwal ks
Ġcun ning
Ġcath artic
Ġcub ic
Ġcrowd ed
Ġinan imate
Ġinexpl icable
Ġinestim able
Ġinhabit ants
Ġinsensib ly
Ġthresh old
Ġdil igence
Ġdial etic
Ġbeque ath
Ġwhol es
Ġhost ile
Ġaspir ations
Ġlau gh
Ġlux ury
Ġlibr ary
Ġweari ed
Ġforbe ar
Ġsupre macy
Ġgbnew by
Ġprolix ity
Ġdelet ions
Ġintimid ation
Ġintegr ity
Ġhaph azard
Ġunsh aken
Ġunqual ified
Ġunexception able
Ġunsett led
Ġunalter able
Ġcael o
Ġraindrop s
Ġmelt s
Ġtriang les
ĠBerke ley
Ġperman ently
Ġnobl est
ĠFAC ULTY
ĠFebr uary
Ġcogniz ant
ĠACT UAL
ĠAldarond o
ĠPolem ics
ĠPARA GRAPH
ĠSMAL L
Ġphilanthrop ist
ĠNoumen a
Ġsubdu ed
Ġsubsid iary
ĠGover nor
ĠWOR K
ĠWIL L
Ġcontrari wise
ĠCartes ian
ĠCORO LLARY
ĠCarol ina
Ġobno xious
Ġobsole te
ĠHarmon y
Ġvaluel ess
ĠElucid ation
ĠEBC DIC
ĠELEMENT S
ĠDirect or
ĠDOM AIN
Ġcorpor ation
ĠMendels sohn
ĠContrib utions
Ġeloqu ent
Ġfinanci al
Ġnonpropri etary
Ġcoerc ion
ĠPriestle y
ĠSubst ance
Ġmisinter pretation
Ġundisc overed
ĠAnalog ies
Ġparabol a
Ġinvolunt arily
Ġfrank ness
ĠArchitect onic
ĠJUD GEMENT
ĠKings mill
ĠREPL ACEMENT
insip id
ĠPhalar is
ĠPUBL IC
ĠPROBL EM
Ġhyperbol ic
ĠTrancendent ale
Ġincumb ent
ĠÃĨSTHE TIC
Ġ841 16
ĠEXCEP T
Ġcourtes y
Ġt y
Ġo re
Ġo se
Ġc i
Äł ent
Äł In
Äł gr
Ġpos ed
Ġ ll
Ġ ize
Ġor t
Äł j
Äł el
Äł rel
Äł conf
Ġter n
Äłc o
Ġist s
Ġ ig
Ġ ives
Ġa k
Ġp t
Ġf ere
Ġit e
ĠI S
Ġor y
Äł as
Äł str
Äł appro
Ġv en
Ġv ing
Ġent s
Ġi a
Ġ ently
Ġ ial
Ġ ice
Ġ ized
Ġc es
Ġe c
Ġan ces
Äł res
Äł app
Äł ext
Äłre f
o k
Ġ ire
Ġ ious
Ġ 00
Ġin ation
Ġu e
Ġu al
ir re
Äł U
Äł am
Äł pl
Äł we
Äł under
Äł und
Ġk s
necess it
philos oph
ĠÃ ¢Ä¢Ä
Ġ x
Ġ ution
Ġt ing
Ġa ce
Ġc rib
Ġb it
Ġis ed
Ġis tic
Ġas h
Ġu st
Äł ev
Äł ob
Äł comm
Äł Con
Ġif ication
ĠA L
Äłin ter
Äłf r
s ign
Ã ĥ
Ã ¢Ä¢Ä
Ġ X
Ġ ener
Ġt ain
Ġo logical
Ġm ents
Ġis hed
Ġu lt
Ġan gu
Ġl es
Äł over
Äł cons
Äł inv
Ġle ct
Ġar ch
der iv
ĠE M
gu arante
Äłm od
b or
c ern
l eness
Ġ ib
Ġ ility
Ġa me
Ġs ect
Ġb al
Ġu res
Ġl d
pt ed
Ġun t
Äł to
Äł ass
Äł cogn
Äł cor
so ph
ĠO U
me asure
Ġter min
sy non
Ġres s
Ġut ed
RE M
S ol
l iber
p ing
Ġ ict
Ġ ides
Ġa le
Ġa de
Ġo me
Ġof t
Ġs on
es cap
Ġn ing
Ġis ing
Ġis hes
ar p
Ġu red
id ic
qu ire
aw aken
tr avag
Ġr ust
Ġr ough
her s
Äł K
Äł V
Äł u
Äł le
Äł em
Äł reg
Äł br
Äł pres
Äł att
Äł Ex
use tt
Ġus es
ff er
Ġst em
Ġqu e
Ġmor t
ĠA M
Ġj unction
Ġj oined
int ed
ro ble
Ġen ces
Ġent ia
ious ness
ique Sol
sc r
Su b
Ġord in
indis cern
sym pat
pirit ual
A ND
B OL
G IN
I OM
J udgement
L LI
M ont
N IC
O k
W iz
a ver
c it
h all
l or
l van
m ount
n os
r in
r is
u ck
y ear
Ġ /
Ġ Ä
Ġ ÄłÄł
Ġ xi
Ġ izing
Ġt il
Ġa ke
it ical
Ġc ing
Ġc ul
Ġc el
nd oubted
Ġb i
Ġf er
an a
Ġis es
le j
Ġre e
om in
Ġh at
iv um
os pect
Ġg one
ĠI T
aw a
Ġr aw
Äł not
Äł ant
Äł disc
Äł real
Äł Re
Äł den
Äł supp
Ġus ion
Ġif y
ph arm
Ġst ood
Ġj oy
so vereign
et amorph
te ll
ism is
ro ot
ach usett
Ġen cy
par allel
ĠE R
ear th
ser ious
ang le
ra p
contr over
Ġres pond
arr og
Ġover t
leg itim
sc hemat
than k
ret urn
aff ord
Äłc oun
Ġ7 8
PR IN
Ġver sa
comb at
err one
UND ER
Tr ancendent
Ġyield ing
1 00
6 55
A H
A b
A pp
A pr
A str
A nt
B E
B od
B ole
C r
C ogn
C ON
D o
D es
D em
D ak
D et
D el
D ON
D IS
D ES
E AL
F IN
F UT
F OU
G S
G ign
H old
H ypothe
H amps
I P
I nd
I ll
I mag
I BOL
I GIN
L aw
L ook
L ED
M ich
M and
M od
M ast
M OR
N at
N ol
N un
N umer
N eg
N ew
O v
O x
O bject
O nt
P re
P henomen
P un
P ers
P ost
P ER
P AR
P rop
P lat
S h
S im
S cept
S ach
S ocr
T U
T e
T em
U TION
V ari
W el
W IS
W AN
X IOM
Z en
a ed
a um
a est
a ign
a ert
a ug
b u
b ur
b ul
b ial
b urd
b vious
b oast
b enevol
c le
c ent
c ation
c ans
c od
c ens
c ro
c ula
d r
d y
d it
d ich
d ecess
d ise
d ro
e ter
e th
e ur
e org
f at
f le
f ol
f ide
f ant
f ert
f oc
f requ
f ool
f air
f als
f oot
f ri
g em
g ard
g art
g ra
g ene
h i
h or
h ur
h us
h ast
h tm
h ole
h arm
i ation
i ec
i ogn
i othe
i ably
i ps
i ocr
j u
j uris
k o
k ak
l ical
l ib
l am
l aps
l ax
l oric
l ah
l aud
m ar
m ate
m il
m el
m ole
m ometer
m icros
n est
n arr
n ob
n oc
n arrow
n cret
o il
o be
o ister
p it
p ate
p ol
p ered
p odeict
p air
r ic
r an
r if
r ality
r av
r ane
r ip
r oyal
r anc
r ho
s ink
s we
s edu
s ident
s light
s alt
s af
s oft
t us
t ol
t of
t uition
t ress
u end
u ber
u fact
v il
v ig
v est
v estig
v iol
w re
w ar
w ide
y om
y rin
z ard
~ ),
Ġ <
Ġ utes
Ġ ided
Ġt ort
Ġt ending
he ad
he av
Ġa ud
on ten
in her
in ex
in sp
in tern
in stit
in conce
in compar
in hab
in strum
Ġthe w
re ce
re tr
re str
re fin
re mit
re ward
re arr
re vel
re vere
re inst
re pet
re miss
it us
it ab
is os
is iana
en es
en em
en ch
en man
en ni
en cro
at he
at om
at ag
at ern
er ving
er mon
er iality
ion et
Ġp it
Ġp ict
al ism
al hall
ic ut
Ġin ed
es crib
Ġb at
Ġb ent
Ġb ul
or phist
or ibus
Ġto u
Ġm our
Ġm ount
ce l
Ġf ast
an as
an arch
Ġn ight
Ġe ur
Ġe min
se ar
se ld
Ġis hing
le ag
st ud
st ret
om s
om it
om orphist
ent ient
ent uck
ar ie
as er
as hing
as ym
Ġh or
the sis
the ism
the olog
the osoph
iv ol
iv ating
im measur
ition em
Ġan a
Ġan ch
Ġon g
id ical
ib il
ir mat
ir ks
ir reconci
ur ate
ur su
ur ope
ur mount
ci pit
qu aest
res pon
ist ingu
ist ration
ception em
Ġor g
ec ub
if ici
and a
per man
per miss
per dur
Ġall oyed
ul ary
ve ill
ve get
con ca
con du
ch arm
ch allen
ch ican
end less
il as
il ater
hen sibilities
ill imit
am a
am ber
am und
am atic
am big
pl au
ab und
Ġat om
de ep
de light
de velop
de grad
um mat
um ni
ol ix
ol umb
ol ta
min uend
Ġr ous
stand ard
Äł out
Äł wh
Äł sol
Äł ag
Äł Th
Äł cont
Äł part
Äł div
Äł post
Äł prop
Ġv arying
od ox
pr ae
Ġper tain
Ġab ol
ad vers
ad minis
ad uc
su pre
pos sident
Ġk ill
ind ivid
ind emonstr
ind escrib
ind istingu
ph antom
ex pon
ex travag
Ġse vered
our able
ac op
ac erv
un inter
un fit
un exception
un yield
un recogn
un veil
ment ary
te acher
sol ip
el abor
el ucid
el ench
pre mis
pre jud
pre limin
fin al
ag matical
iz ations
Ġcaus ed
Ġgr ace
ivers ity
com part
com posit
pro xim
ro ad
ro bor
ici i
xim ately
ke y
sy llogistic
sy lvan
ser v
cons entient
cons ummat
ass ured
ass achusett
ĠM ON
dis sert
contr ol
ER NIC
und eter
irm ative
In corrupt
In noc
rel inqu
sub div
sub rept
sub reption
TI TY
mon ogram
mis appre
isl and
dom ain
Ġes tr
Ġut ing
RE FUT
Ġce ption
des pot
des pair
br ief
All gem
no olog
Ġmed i
Ġprof itable
Ġing s
inv iol
inv alid
sc hes
conf ront
CE LLI
Ġold est
prov ision
Ġ9 6
OR IES
inf lex
Wh o
aff air
Äłc he
Äłc irc
gress ion
gl imp
ST UL
ST AND
you th
ik lej
ref lex
proble m
che mist
inter pol
Ġfortun ately
Äłp rom
Ġcultiv ated
Ġate ly
co acerv
Äłde l
prof ound
add ress
intu itive
embr ace
accomp any
appe al
OP ERNIC
lab oure
phil odox
Che seld
enn sylvan
erum nos
Quod lib
necessit at
soph istic
scr ut
Sub tr
Mont aign
Ok lah
Wiz enman
pharm acop
erumnos iqueSol
! *
! ).
! **
! *****
" :
" ).
' ,
' ll
( #
( Â§
) [
) âĢĿ;
) ?"
) ":
* :
, -
. _
. ).
. )âĢĶ
0 3
0 9
7 75
8 3
8 4
8 655
: _
; âĢĿ
? _
A W
A re
A part
A utonomy
A xioms
B enevolence
B JECTIVE
C an
C opyright
C reator
C ogito
C ynics
D as
D eduction
D uty
D avid
D onations
E Y
E dition
E ither
E ach
E ven
E thics
E lements
F E
F reedom
F OR
F airbanks
F ailing
G E
G eneration
G eometry
H art
H utcheson
I RE
I ENCE
I ndeed
I UM
J ust
K Ã
L C
L ake
L ATION
M B
M y
M ore
M uch
M ark
M ON
M any
M oney
M odality
M idnight
N or
N ay
N UM
N ovember
O ther
O ne
O UT
O THER
O SITION
O therwise
O bservation
P ain
P IR
P ACE
P ortions
P OSSIBILITY
P ossession
P roble
P MB
P OSITION
R esult
S END
S olution
S econd
S ummum
S atirae
S hort
S imilarly
S YSTEM
S ections
S ulzer
S etting
T M
T O
T ot
T hen
T able
T ell
T ENCE
T ALITY
T ecum
U nder
V er
V anilla
V irginia
W here
W ell
W HAT
Y et
] -
_ )
_ ),
a i
a ves
a ises
a version
a ithful
a versed
b t
b ent
b ow
b end
b ind
b ations
b led
b ted
b ases
b ooks
b orrow
b ank
b irth
b orn
b roken
b orne
b lessed
b oldest
c ut
c ate
c ard
c art
c ue
c ost
c ode
c ited
c ibly
c ope
c ription
c endi
c odes
d ing
d ere
d ate
d ers
d ness
d read
d own
d iction
d atum
d ouble
d umb
d abilis
d abile
d ismis
e ternity
e utic
e leology
f as
f ate
f ord
f ear
f usion
f ted
f latter
f ume
f utation
f ling
f ashion
f elt
f ictions
f ourth
f lying
f ecundity
g ical
g un
g ated
g old
g ered
g ree
g ner
g ave
g les
g izing
g reement
h s
h ire
h ated
h int
h ollow
h ode
h ouse
h undred
h alf
h iatus
h ateful
h orizontal
i is
i ad
i ers
i age
i ety
i atives
i ased
i ery
i works
i unt
i asm
i hi
j ack
j uries
k ill
k ansas
l er
l ity
l ay
l ate
l ary
l ant
l ays
l ost
l are
l iness
l ives
l ower
l iving
l ively
l anguage
l ery
l iable
l ogicians
l ength
l oses
l iking
l oss
l orn
l iberum
m r
m us
m ans
m est
m able
m ish
m med
m ma
m arch
m ists
m ier
m illion
m phiboly
m idnight
n s
n y
n il
n um
n ance
n ers
n amed
n ares
n ament
n abilis
n aked
o at
o al
o of
o ak
o ble
o existence
o ppose
o pposes
o ins
o osing
o pposites
p g
p ith
p ay
p ain
p sis
p ires
p age
p elled
p els
p upil
p ulsion
p ub
p orts
p overty
r on
r act
r ous
r ose
r ict
r ise
r ink
r ived
r ang
r ange
r ises
r up
r ained
r idge
r ival
r andom
s ic
s ical
s ine
s ize
s aken
s ides
s io
s ential
s ending
s cribes
s piritual
t s
t ist
t ig
t ile
t ful
t ension
t itle
t ending
t itles
t ender
t ax
u o
u es
u ed
u est
u ers
u ine
u ided
v o
v us
v ant
v iate
v idence
v iction
v isible
v icious
v ature
v ogue
v illain
w er
w ither
w hence
w arn
w arks
w anted
w ider
w atch
w rought
w inning
x es
y ourselves
y ms
z es
z ing
z ed
´ ris
Ã ©
Ã Ģ
Ã ´ris
ĉ ĠĠ
Ġ Ċ
Ġ âĢĶ
Ġ ively
ĸ NI
ĺ _
Ġt as
Ġt ab
Ġt uition
Ġt ac
Ġt ute
Ġt ong
Ġt ied
Ġt ree
Ġt reason
Ġt ang
Ġt ween
Ġt aint
Ġt ild
Ġt orn
Ġt imid
he at
he ard
he ment
he me
he alth
he aded
Ġa se
Ġa qu
Ġa uth
Ġa ys
Ġa ward
Ġa vers
Ġa iothe
Ġa erumnosiqueSol
on or
on os
on ant
on ness
on ism
on ted
on set
on net
in er
in ant
in form
in sensible
in sist
in complete
in ctive
in sensibility
in admissible
in determinate
in secure
in hering
in herence
in uating
in structive
in experienced
in itial
in determinable
in cogitable
in security
in convenience
in nabilis
Ġo y
Ġo ce
Ġo ption
Ġthe at
Ġthe istic
Ġthe ft
Ġthe osoph
re action
re wards
re ap
re ached
re lease
re straint
re aching
re search
re taining
re jected
re prehensible
re pulsion
it a
it ly
it ant
it atively
it het
it ivae
it ivum
it iation
is ect
is ans
is io
is que
is pered
en ame
en ance
en ment
en ious
en ounce
en ables
en closed
en ry
en ounced
en ouncement
en ouncing
en lightened
en unciated
at ers
at ism
at ived
at ists
at ient
at iable
at orial
er or
er ies
er ious
er io
er ially
er als
er vation
er isk
Ġw on
Ġw omen
Ġw ind
Ġw ire
Ġw ast
Ġw ood
Ġw ars
Ġw rests
Ġc ure
Ġc um
Ġc oll
Ġc ree
Ġc over
Ġc ode
Ġc ited
Ġc lement
Ġc row
Ġc ru
Ġc ash
Ġc overt
Ġc aring
Ġc itab
Ġs ic
Ġs es
Ġs or
Ġs ou
Ġs ar
Ġs qu
Ġs and
Ġs ore
Ġs ad
Ġs can
Ġs atis
Ġs wor
Ġs ix
Ġs eduction
Ġs well
Ġs ling
Ġs ick
Ġs ieve
Ġs atir
Ġs inner
Ġs incerity
Ġs nares
Ġp iv
Ġp il
Ġp um
Ġp all
Ġp ud
Ġp op
Ġp ledge
Ġp ates
Ġp ious
Ġp ique
Ġp ick
Ġp ock
Ġp icked
Ġp iec
al d
al es
al ing
al ved
al ities
ic it
ic le
ic us
ic um
ic ide
ic ations
ic ative
ic ine
ic acy
ic uity
ic ero
Ġin im
Ġin ess
Ġin con
Ġin ch
Ġin ad
Ġin ca
Ġin op
Ġin ser
Ġin cogn
Ġin action
Ġin ert
Ġin ext
Ġin consequently
Ġin most
Ġin consist
Ġin consider
Ġin cess
Ġin completely
Ġin super
Ġin appro
Ġin cul
Ġin completeness
Ġin co
Ġin verse
Ġin applicable
Ġin formed
Ġin heres
Ġin organ
Ġin hab
Ġin corrupt
Ġin access
Ġin sect
Ġin active
Ġin fects
Ġin efficient
Ġin experienced
Ġin considerable
Ġin off
Ġin adequ
Ġin itial
Ġin imitable
Ġin cogitable
Ġin convenience
Ġin itiation
es ce
es see
es pecial
es pun
es cence
es erving
Ġb os
Ġb ur
Ġb end
Ġb ide
Ġb un
Ġb oy
Ġb ast
Ġb read
Ġb arr
Ġb ane
Ġb ull
Ġb orn
Ġb ungl
Ġb iog
Ġb oister
Ġb isect
Ġth in
Ġth rif
or k
or ing
or se
or as
or ation
or ld
or um
or able
or my
or ously
or icians
or ifies
or ters
Ġto p
Ġto ll
Ġto ur
Ġto il
Ġto to
Ġto uc
Ġto wer
Ġm ess
Ġm ad
Ġm other
Ġm onstr
Ġm arr
Ġm ob
Ġm arch
Ġm ild
Ġm utation
Ġm erc
Ġm alle
Ġm icros
Ġm ecum
Ġm ocks
Ġm ihi
ce les
ce ased
ct uating
Ġf ect
Ġf og
Ġf et
Ġf ought
Ġf ond
Ġf ost
Ġf are
Ġf oun
Ġf ath
Ġf ather
Ġf ood
Ġf olly
Ġf ool
Ġf ores
Ġf ecundity
Ġf oil
Ġf iery
ing ence
ing enesis
an um
an ies
an tern
an ating
an atory
ed o
ed ition
ed icated
Ġn ation
Ġn ig
Ġn our
Ġn ational
Ġn igh
Ġn ug
Ġn aming
Ġn aked
Ġn Ã´ris
Ġe is
Ġe at
Ġe uth
Ġe ffici
Ġe get
Ġe rection
Ġe adem
Ġe lude
se a
se ated
se ven
se arched
se vered
ou ched
ou isiana
Ġis land
le a
le te
le aving
le ologia
Ġre i
Ġre ar
Ġre act
Ġre pr
Ġre now
Ġre form
Ġre pose
Ġre posed
Ġre cede
Ġre sem
Ġre tains
Ġre taining
Ġre minis
Ġre vert
Ġre prim
Ġre acts
Ġre versed
Ġre converted
Ġre plies
Ġre prehensible
Ġre served
Ġre commencing
Ġre sear
Ġit em
Ġcon st
Ġcon str
Ġcon gr
Ġcon quest
Ġcon ger
Ġcon grat
Ġcon strained
Ġcon noisseurs
Ġd ar
Ġd aw
Ġd ab
Ġd ig
Ġd ally
Ġd are
Ġd ang
Ġd atis
Ġd ra
Ġd ug
Ġd inner
Ġd edicated
Ġbe at
Ġbe ast
Ġbe ating
Ġbe atis
Ġbe think
Ġbe ckon
Ġbe fit
Ġbe ware
Ġbe held
Ġbe aten
st o
st all
st ory
st age
st ains
st amp
st umbling
st amps
st ormy
om a
om uch
om istic
om ists
om itted
ent er
ent ive
ent ality
ent ance
ent ers
ent ures
ent ification
ent uring
ent angles
ent angled
ent ral
ent angle
ot a
ot o
ot ic
ot ing
ot ently
ot ives
ot omy
ot istic
ar ther
ar ment
ar ice
ar ising
ar gue
ar ithmetic
ar cation
as y
as ive
as ide
as ible
as hed
as hes
as cribe
ut a
ut ans
ut ary
ut ations
ut ability
ut ants
ut rality
ut sches
Ġh ur
Ġh ate
Ġh anged
Ġh unt
Ġh unted
Ġh orizontal
Ġh alved
Ġpr imit
Ġpr ice
Ġpr ating
Ġpr ized
Ġpr ius
Ġpr hole
Ġas cribes
Ġas sem
Ġas semble
ll ess
ll ating
Ġu ally
Ġu phold
Ġu bi
the st
the me
the ian
the sin
iv ion
iv ized
iv ided
iv ery
iv ocation
iv endi
iv abilities
im en
im us
im ality
im ination
im manent
im posed
im acy
im properly
im perfectly
im ax
im parted
im mense
ition ers
ation is
ation ary
os a
os ed
os ities
os itionem
os cendi
Ġan atom
Ġex ul
Ġex pos
Ġex cogitate
Ġex ponent
Ġex cogitating
Ġon us
Ġon wards
Ġl ent
Ġl og
Ġl ad
Ġl ame
Ġl un
Ġl ived
Ġl iar
Ġl iterary
Ġl ik
Ġl ift
Ġl acks
Ġl owers
Ġl ax
Ġl oft
Ġl oud
Ġl oved
Ġl apse
Ġl aug
Ġl antern
Ġnot es
Ġnot ed
Ġnot ation
Ġnot ably
Ġnot io
Ġnot iced
Ġnot icing
pt s
pt ure
pt uous
pt ember
pt ians
pt oms
pt ivating
pt hs
pt otic
ess entially
ow a
ow ner
Ġwe ed
Ġwe ary
Ġwe igh
Ġfor ge
Ġfor ty
Ġfor cibly
Ġfor lorn
Ġfor saken
id a
id le
id able
id dy
Ġsu e
Ġsu pe
Ġsu pel
Ġsu aveolens
Ġsu icide
ib ule
ib ilia
ence ment
cept s
cept io
cept ibility
cept ivae
ter ing
ter able
ter rent
ter ror
ld ier
ir ous
ir teen
ir pate
Ġg ate
Ġg ame
Ġg ather
Ġg allow
Ġg erms
Ġg estic
Ġg aming
Ġg onos
Ġg arment
Ġg iddy
Ġwith al
th ither
th read
th rown
th irteen
ur b
ur o
ur able
ur ring
ur ning
ur ities
ur ia
ur ists
ur rection
ur idical
ci a
ci o
ci an
ci le
ci ples
ci llating
ver itable
ver bal
ver bial
ĠI mit
ĠI owa
qu od
qu acious
qu ando
og ony
og rap
res ol
res set
res urrection
ist inct
ist rict
Ġor ation
Ġor nament
ere t
Ġcan onic
ain e
ec k
if old
if ting
if iable
and eur
per or
per ate
per ous
per ative
per ty
per tains
per forms
per formed
per ceptive
per ceptible
per versa
per severed
per ceptio
âĢ ĺ_
Ġall o
Ġall ures
Ġall ured
rom ising
ul as
ul ity
ul are
ul atio
em bers
em inently
em anating
Ġpro xim
Ġpro ps
Ġpro pter
Ġpro claim
Ġpro posing
Ġpro jected
Ġpro verbial
pp et
Ġreason er
Ġreason ed
Ġreason ableness
ĠT od
ĠT ex
ĠT ell
ĠT wo
ĠT yp
ĠT ext
ĠT OR
ĠT IM
ĠT err
ĠT rade
ĠT ABLE
ĠT enn
ĠT eleology
Ġobject or
Ġobject ivized
ve to
con joined
con strained
con join
con noisseurs
ch ant
ch ild
ch ains
ch oose
ch anging
ch loric
ch aser
ch oosing
end ure
end um
end ix
end ium
end owed
end ship
Ġde ception
Ġde em
Ġde tain
Ġde pre
Ġde fer
Ġde ceptions
Ġde press
Ġde als
Ġde alt
Ġde parts
Ġde af
Ġde taining
Ġde bar
Ġde bat
Ġde posits
Ġde bt
Ġde lete
Ġde pths
ust eron
ore st
Ġint us
Ġint ol
Ġint ends
Ġint emper
il an
il ate
il ful
il ious
Ġal s
Ġal ive
Ġal get
ple te
ple asing
ple ading
Ġbut tress
act ness
act io
act ments
us al
us age
us ius
Ġha ir
Ġha zard
ill ing
ill ains
aw e
aw ful
am ur
am med
am usement
am bitious
pl ed
pl urality
ab ond
ab asis
ab ilia
ab stain
ab ulary
ab ama
Ġun i
Ġun com
Ġun reason
Ġun ass
Ġun wise
Ġun lu
Ġun ten
Ġun read
Ġun hes
Ġun will
Ġun gr
Ġun att
Ġun comp
Ġun ison
Ġun think
Ġun satisf
Ġun like
Ġun adv
Ġun common
Ġun true
Ġun fit
Ġun ri
Ġun critical
Ġun educ
Ġun mist
Ġun sus
Ġun utter
Ġun seen
Ġun concerned
Ġun becom
Ġun attained
Ġun popular
Ġun intention
Ġun holy
Ġun accompanied
Ġun prot
Ġun eas
Ġun warrant
Ġun ascertain
Ġun aware
Ġun worthiness
Ġun searchable
Ġun practised
Ġun supported
Ġun veil
Ġun skill
Ġun sought
Ġun enforceability
Ġun animity
Ġun perceived
Ġun prepared
Ġun happily
Ġun righteous
Ġun caused
Ġun changeably
Ġun altered
Ġun convincing
Ġun authorized
Ġun cultivated
Ġun instructed
Ġun civilized
Ġun ilater
Ġun sophistic
Ġun named
Ġun instructive
Ġun changing
âĢĶ _
âĢĶ âĢĺ_
de ed
de tain
de ceive
de jected
de posit
de veloped
de ficiency
de aling
de terrent
um n
um ans
um ble
um ptuously
um ping
um mate
um atism
ol aters
ig an
ig ations
ig ably
ig uous
ig uity
ig enesis
Ġca res
Ġ( )
Ġ( =
Ġ( ~),
ans ion
ans lated
ans gression
min e
min ently
min istration
ies ce
Ġlaw su
Ġlaw fully
Ġlaw fulness
Ġlaw lessness
Ġlaw giving
Ġlaw yers
tr ain
tr ays
tr action
tr aces
tr ying
tr ains
tr ouble
tr acks
tr ades
Ġsp ot
Ġsp end
Ġsp ared
Ġsp ati
Ġsp acious
Ġsp elling
Ġsp inning
Ġsp aring
Ġsp rang
Ġsp eck
Ġcom for
Ġcom ment
not her
of ficial
Ġr an
Ġr out
Ġr ud
Ġr ays
Ġr aking
Ġr ick
Ġr ouse
Ġr ock
Ġr isen
Ġr hapsod
Ġr ival
Ġr andom
Ġr ocks
est ial
est ine
ecess ary
Ġem ended
Ġem power
Ġwor ms
Ġso ber
Ġso ldier
Ġother where
Ġunder go
Ġunder line
Ġunder too
Ġunder gone
Ġtr ail
Ġtr ains
Ġtr ained
Ġtr ick
Ġtr illion
Ġtr amples
Ġtr ah
Ġtr ampl
Ġtr aduc
Ġtr aversed
Ġtr iad
Ġtr uest
Ġdo or
Ġdo st
Ġdo ve
Ġdo cile
Äł ter
Äł ca
Äł so
Äł form
Äł dist
Äł sim
Äł fe
Äł adv
Äł super
Äł equ
Äł trans
Äł An
Äł gener
Äł AN
Ġsen seless
Ġv on
Ġv ary
Ġv ind
Ġv ult
Ġv oy
Ġv ivid
Ġv ote
Ġv indic
Ġv isions
Ġv ii
Ġv ouch
Ġv ider
Ġv otes
Ġv eneration
Ġv ogue
Ġv illain
Ġv arie
Ġv ivendi
Ġv illains
fore going
fore gone
ĠThe oretic
ĠThe oric
od eration
ĠB ose
ĠB ON
ĠB ru
ĠB ox
ĠB AC
ĠB aum
ĠB onnet
use um
Ġnecess ities
ak er
ak able
pr it
pr imal
pr ior
pr ising
pr avity
pr olix
pr aises
ge ance
ge tic
Ġim moral
Ġim manence
Ġim properly
Ġim prud
Ġim proving
Ġim measur
Ġim mense
Ġim probable
Ġim movable
Ġim minently
Ġhe w
Ġhe ard
Ġhe ark
Ġhe ap
Ġhe ars
Ġhe mmed
ound ing
Ġper il
Ġper sp
Ġper pend
Ġper missible
Ġper sec
Ġper version
Ġper verted
Ġper sever
Ġper dere
Ġper fume
Ġper juries
ori an
Ġform ative
Ġform idable
Ġform ulas
Ġthem e
Ġab use
Ġab ound
Ġab ort
Ġab ides
Ġab used
Ġab iding
Ġab lest
Ġab ounds
Ġab stain
Ġab omin
Ġab hor
Ġab ridge
Ġab stains
Ġnat isque
all er
all ation
all ibly
all oyed
Ġno et
Ġno bly
Ġno vo
Ġno ogony
ad a
ad ic
ad able
ad ise
ad ays
ad ology
ad icated
ad orned
pir ing
su n
su it
su es
su ited
su aveolens
su ffer
Ġsy ncret
pos al
pos ses
Ġk not
Ġk ins
Ġk ai
ever al
Ġreg ulation
Ġreg ulates
Ġreg imen
ind irect
ind emonstrable
Ġus ers
Ġif ied
ant y
ant ities
ant ibus
ant ithetic
Ġsh ut
Ġsh un
Ġsh ines
Ġsh ift
Ġsh oot
Ġsh rew
Ġsh rink
ĠF ight
ĠF ollow
ĠF ree
ĠF RE
ĠF requ
ĠF als
ĠF urther
ĠF inal
ĠF ailing
ĠF lor
ĠF ranc
ĠF onten
ĠF arther
ff ing
ph aenomena
ex pose
ex poses
ex ceptions
ex ico
ex ponent
ex actness
actical ly
art ifices
out ly
out ward
Ġse as
Ġse ated
Ġse ize
Ġse lected
Ġse verest
Ġcogn ate
Ġcogn ised
Ġcogn itable
Ġcogn izable
Ġcogn oscendi
ud ence
Ġst ar
Ġst ag
Ġst ating
Ġst atis
Ġst up
Ġst ret
Ġst ock
Ġst ories
Ġst ationary
Ġst umble
Ġst outly
Ġqu am
Ġqu od
Ġqu oted
Ġqu ibus
Ġqu ando
Ġphenomen ized
Ġphenomen ization
Ġrel ie
Ġrel ish
Ġrel inqu
Ġrel iance
Ġrel ativ
Ġrel ax
Ġrel apse
Ġev asion
Ġev asions
Ġev ading
Ġev ok
Ġev asive
ord ain
ord ant
present ly
wh ilst
wh ispered
Ġmor ose
Ġcons ole
Ġcons cient
Ġcons erv
Ġcons onant
Ġcons ervation
Ġcons ummate
ĠA R
ĠA ve
ĠA RE
ĠA way
ĠA lex
ĠA PPENDIX
ĠA XIOM
ĠA podeict
ĠA greement
ĠA mphiboly
ĠA nother
our ces
our aging
Ġj oc
Ġj ury
Ġj eal
Ġj ew
Ġj uridical
Ġj umping
ac ute
ac knowledge
ac ademical
Ġnature s
Ġacc use
Ġacc oun
Ġacc using
Ġacc idens
Ġman ual
Ġman ufact
Ġman ners
Ġapp oint
Ġapp ended
Ġapp ositionem
Ġtheir s
un o
un ary
un connected
un pleasant
un essential
un corrupt
un mixed
un happy
un fold
un usual
un influenced
un attempted
un pleasantness
un yielding
un sa
un selfish
un enforceability
un animity
un righteous
un changeably
un altered
un profitable
un authorized
un fruitful
un fair
un broken
un alloyed
un suited
ca ptivating
sequ ent
Ġad mis
Ġad verse
Ġad hering
Ġad orn
Ġad herence
Ġad minis
Ġad junct
Ġad monition
Ġad orned
Ġad oration
Ġad ministration
for bid
for get
for sakes
ĠFor bidden
nthe sis
ĠP ut
ĠP ay
ĠP ha
ĠP oint
ĠP ne
ĠP ower
ĠP ages
ĠP lat
ĠP lain
ĠP OP
ĠP ossession
ĠP ursu
ĠP ennsylvan
to ld
Ġdis use
Ġdis sol
Ġdis pose
Ġdis arr
Ġdis sim
Ġdis may
Ġdis content
Ġdis like
Ġdis pensable
Ġdis conc
Ġdis solution
Ġdis regarding
Ġdis clos
Ġdis eng
Ġdis proved
Ġdis closed
Ġdis figure
Ġdis proportion
Ġdis hon
Ġdis agreement
Ġdis close
Ġdis favour
Ġdis miss
Ġdis united
Ġdis proving
Ġdis join
Ġdis ease
Ġdis allowed
Ġdis union
Ġdis agreeableness
Ġdis involved
Ġdis qui
Ġdis plays
Ġdis grace
Ġdis agreeable
Ġdis inher
Ġdis ciples
Ġdis posal
et e
et ing
et ates
et ites
et uous
Ġworld ly
Ġpre y
Ġpre ception
Ġpre determined
Ġpre conceived
Ġpre posit
Ġpre fixed
Ġpre dile
Ġpre fix
Ġpre lude
Ġpre decess
Ġpre cipit
Ġpre mier
here in
here with
here nt
here after
str ive
str iving
str aight
ĠTh ou
ĠTh ree
ĠTh ousand
Ġle vity
te lling
te leologia
Ġpart isans
Ġpart icle
Ġpart aker
Ġch at
Ġch ose
Ġch art
Ġch ase
Ġch air
Ġch ican
ener gizing
ener getic
Ġmoral ist
Ġmoral ized
Ġar med
Ġar bit
Ġar my
Ġar mist
Ġar cs
sp it
sp end
sp ite
sp arks
sp oke
ces ilas
tern itas
sis mus
ĠS he
ĠS ens
ĠS pect
ĠS mall
ĠS oph
ĠS IM
ĠS ocr
ĠS YSTEM
ĠS ections
ĠS ulzer
ĠS ource
ĠS etting
ĠS PACE
ĠS kill
ĠS everal
Ġph this
Ġph aenomena
sol ar
el an
el ed
el le
el ater
ens ate
ens oribus
ens urate
pre condition
pre ference
pre formation
pre determine
pre conceived
pre liminary
pre cision
pre rogative
pre miss
fin e
fin ished
fin itude
fin itions
fin iteness
fin espun
ĠN on
ĠN il
ĠN ev
ĠN umber
ĠN ames
ĠN ecessary
op oly
op ening
ag ent
ag ation
ag ination
ag ious
ag mentary
ag oras
Ġsub sequently
Ġsub serve
Ġsub joined
Ġsub scribe
Ġsub verted
Ġsub reption
Ġsub altern
Ġsub tlest
Ġsub serv
Ġsub tile
ĠO ut
ĠO ther
ĠO pposition
ĠO reg
ĠO pposed
ĠO hio
ĠO bservation
ĠO bvious
ĠO BJECTIVE
ĠO perative
int end
int imate
int estine
mat eriality
mat ron
Ġser ially
Ġser vant
imit s
imit ative
solute ly
Ġne fas
Ġne utrality
Ġma zes
nect icut
Ġfar thest
ĠIn herence
ĠIn telligence
ĠIn cert
ĠIn vestig
be o
be quest
be gun
be trays
Ġpresent able
Ġpl ate
Ġpl ant
Ġpl ast
Ġpl ants
Ġcaus as
Ġcomple tes
Ġcomple mental
Ġbel oved
Ġend ure
Ġend anger
Ġcont ext
Ġcont iguous
Ġcont agious
ĠG ive
ĠG ute
ĠG AL
ĠG OD
ĠG aining
ĠG ENERAL
ĠG eometry
ĠG eorg
ĠG oal
ĠG uided
ĠW ere
ĠW ise
ĠW OL
ĠW oh
ĠW erke
ĠW yom
ĠW alhall
ĠW ashing
ĠW orld
ost atic
ost ensive
ploy ee
Ġgr av
Ġgr ants
ign ant
ign ia
ign ava
Ġcontr ive
The tic
The ology
rit us
rit ory
ĠC oun
ĠC lear
ĠC ap
ĠC AT
ĠC ogito
ĠC ynics
ĠC olumb
ĠC OPERNIC
ĠC oexistence
ĠC icero
ĠC entral
ast ly
ast ical
Ġass ists
Ġass ault
form able
form arum
Ġob edient
Ġob tus
Ġob viate
ism a
Ġpos se
Ġdes pond
Ġdes cribing
Ġdes ider
Ġdes irous
Ġdes perate
com mit
com pose
com posed
com ply
com positio
com formable
Ġfound ations
Ġcomm it
Ġcomm its
Ġcomm ended
Ġcomm ends
Ġcomm ensurate
Ġdist ances
Ġdist urb
old s
Ġshould st
Ġshould ers
ari ably
Ġfollow er
spect ion
spect acle
ro od
ro amatic
ish ables
Ġrational istic
Ġrespect ed
Ġrespect ability
Ġpur a
Ġpur se
Ġpur posed
Ġpur ify
Ġpur port
Ġpur poseless
with hold
Ġrem orse
Ġdisc ard
Ġdisc overer
Ġdisc ursively
Ġdisc ouraging
Ġinde fat
Ġinde bted
ink s
ine ar
ine fficient
Ġexam ines
Ġexam ining
ĠH ob
ĠH ave
ĠH oly
ĠH oliness
ĠH ope
ĠH err
ĠH aving
ĠH OP
ĠH utcheson
ĠH awa
ĠH ecub
ĠH onor
ĠH enry
ĠH umans
ĠH aller
der ives
Ġhapp ier
âĢĿ ?
âĢĿ âĢĶâĢľ
Ġact um
Ġfe ared
Ġfe ature
Ġfe asibility
Ġfe asible
Ġext ant
Ġext rem
Ġext ensions
Ġext orts
Ġext remit
Ġext irpate
Ġorder ly
Ġag endum
over come
over turn
over powers
over borne
Ġen light
Ġen clos
Ġen coun
Ġen counter
Ġen semble
Ġen acted
Ġen ouncing
Ġen unciated
Ġen cod
Ġen ric
Ġen actments
Ġen sues
under take
under value
under mine
Ġground work
par able
par ison
par aded
par simony
par oxysms
less ly
Ġsci re
Ġunivers itas
med iating
stit utes
ĠR ight
ĠR ules
ĠR ather
ĠR ATION
ĠR esult
ĠR idic
ĠR hode
Ġeffect ual
ĠE t
ĠE ternal
ĠE ffect
ĠE lectronic
ĠE duc
ĠE gy
ĠE urope
ĠE lea
ĠE sto
ell ipse
Ġpres cription
Ġout look
Ġout bre
Ġter ror
Ġter restr
Ġter ritory
Ġexp ends
Ġexp ounded
Ġexp anded
Ġexp ansion
wo e
Ġquestion ed
Ġquestion able
Ġmaxim a
ophy sical
Ġhuman ly
Ġpossess or
ty pic
reason ed
reason ably
Ġreal m
Ġreal ist
Ġreal issim
Ġreal itas
Ġreal itatis
ear ning
ser ving
rough ness
Ġappl ause
Ġappl ications
Ġam ple
Ġam iable
Ġam az
Ġam putation
Ġam usement
Ġam bitious
Ġmind ed
Ġperfect s
Ġperfect ibility
av ish
Ġcrit ics
Ġcrit ically
Ġmat hema
Ġmat urity
Ġmat erially
Ġsim ul
Ġsim ultaneity
Ġatt ending
Ġatt aches
Ġatt ested
Ġatt entive
sen ess
phys ically
phys ica
edu ces
ceed ing
ĠD ev
ĠD ynam
ĠD ialectical
ĠD atur
ĠD emonstr
ĠD ifferent
ĠD iog
ĠD istrict
Ġent is
Ġent angles
Ġent reating
Ġent hus
Ġbas es
). "
). [
ident ial
Ġsec ured
Ġsensuous ness
cons in
cons ilia
ass on
ass ure
ass ures
ass ification
Ġimp el
Ġimp utes
Ġimp uted
Ġimp uting
Ġimp ug
Ġimp utable
Ġimp els
Ġimp etus
Ġimp iety
Ġimp atient
Ġimp eret
cogn itive
cogn itio
Ġorigin arium
Ġorigin arius
ular ly
Ġcor ner
Ġcor rel
Ġcor relates
Ġcor pus
Ġcor robor
Th ree
Th ales
ice berg
there d
there on
there with
there from
Ġinv ites
Ġinv iting
Ġinv inc
Ġinv ested
Ġinv ariably
Ġpoint ing
Ġpoint ed
Ġhere dit
Ġhere tof
necess itates
Ġnatural is
Ġnatural ist
Ġnatural istic
Ġnatural ists
Ġshow er
ange lical
Ġuniversal itas
Ġinf use
Ġinf ers
Ġinf lu
Ġinf lict
Ġinf using
Ġinf lam
Ġbet ake
Ġbet imes
can o
Ġexpl icative
Ġexpl anatory
ner vus
Ġsens itivum
Ġintellig ently
Ġintellig ibilia
Ġrequire st
Ġquant itas
ĠRe al
ĠRe ven
ĠRe public
ĠRe flection
ĠRe quire
ĠRe adable
Ġkind red
Ġmanifold ness
ĠM S
ĠM en
ĠM ight
ĠM ont
ĠM air
ĠM ED
ĠM OD
ĠM AD
ĠM oh
ĠM etamorph
ĠM assachusett
ĠM otives
ĠM aine
ĠM ilan
ĠM oderation
ĠM useum
ĠM exico
ĠM elan
ys ics
Ġnor mal
Ġhand ed
Ġhand iworks
ught s
Ġap ology
Ġap olog
dis appear
dis content
dis like
dis claim
dis connected
dis pleasure
dis solution
dis regarded
dis regarding
dis appearance
dis figure
dis claims
dis continue
dis appeared
dis plays
dis secting
Ġwhere on
Ġwhere ver
Ġwhere of
Ġwhere upon
Ġstr ife
Ġstr anger
Ġstr ik
Ġstr iking
Ġstr ipped
Ġstr atag
Ġcharacter ize
Ġcharacter ization
ccess ion
Ġconc ert
Ġconc aten
Ġconc ordant
Ġdem ur
Ġdem urred
Ġdem arcation
phenomen ization
Ġrest ores
Ġrest oring
Ġanaly zed
app arent
app etites
othe ism
ingu ishable
Ġref uge
Ġref rained
Ġref utations
Ġref usal
Ġdiv est
Ġdiv iding
Ġdiv erted
Ġdiv inity
Ġsum mit
Ġnotion al
Ġcomp ute
Ġcomp ressed
Ġcomp iled
Ġcomp anies
Ġcomp endium
Ġadv ises
Ġadv ocate
Ġadv entures
Ġdedu cible
Ġcontradict ed
Ġcontradict ories
reg ion
reg ions
reg ulating
reg ister
reg num
reg ularly
Ġfree zing
ev iating
ev angelical
Ġsupreme ly
ĠL ake
ĠL ove
ĠL eg
ĠL imitation
ĠL aert
ĠL amber
ĠL AW
ĠL LC
ĠL ouisiana
ĠL imits
ĠL astly
ĠL earning
Ġconcl usio
Ġconcl usiveness
contr action
contr acted
Ġtruth ful
Ġtruth fully
Ġremain der
Ġremain ders
ER UM
Ġmost ly
und iminished
Ġres ort
Ġres ists
Ġres ource
Ġres cue
Ġres ources
Ġdec ry
Ġdec ade
Ġ1 000
Ġ1 15
Ġ1 13
Ġ1 40
Ġ1 10
Ġ1 45
Ġmet amorph
fic ence
ĠU s
ĠU bel
ĠU ta
ĠU NITY
ĠU ndoubted
ĠU NUM
lear nt
Ġsupp ress
Ġsupp ression
Ġsupp lant
Ġsupp orters
Ġpredic ata
Ġexpress ive
Ġconsist ed
Ġconsist ence
Ġphys ic
Ġphys iological
Ġphys iogn
Ġcontent less
Ġill imitable
Ġnow ise
Ġnow adays
intuition al
Ġtot um
Ġconf use
Ġconf luence
Ġconf uted
Ġconf uting
Ġconf utation
Ġconf ront
Ġmathemat a
Ġmathemat ic
represent able
represent atio
acc ustom
acc idens
pend ant
In finite
In experienced
In tending
Ġmot to
Ġaff ixed
Ġaff irmat
Ġconcept as
Ġhypothe sin
Ġcl ay
Ġcl oak
Ġcl imax
Ġproble matic
ĠCon sid
ĠCon stitution
ĠCon fusion
ĠCon viction
ĠCon necticut
rel ating
Ġsatisf actions
ath y
wor se
Ġconform ing
Ġconform ability
Ġind ustr
Ġind ulg
Ġind istinct
Ġind ignant
Ġsuccess ions
Ġsuccess ors
sub mit
sub mitted
sub species
sub serve
sub ordination
sub tlest
sub traction
sub sequent
sub stitutes
Ġworth less
Ġple ased
Ġstand still
raph ies
Ġup per
read er
read ers
read ily
Ġright ful
Ġocc ult
law giver
Ġder iving
Ġconcern ment
,âĢĿ [
Ġel uded
Ġel angu
Ġel icited
Ġel icit
Ġel imination
Ġac y
Ġac id
Ġac ademical
Ġac roamatic
Ġleg is
Ġleg ion
Ġleg acy
Ġleg ibus
opher s
Ġer go
Ġer adicated
Ġimag ined
Ġimag ines
Ġimag ining
avour able
mon opoly
trib unal
Ġconsequ ens
Ġconsequ ential
Ġmetaphys ician
Ġemployment s
Ġparticular ize
Ġneed y
Ġnum bered
Ġmod ify
Ġfur thered
ention alism
Ġgu est
cont iguity
Ġwant onness
hence forward
Ġindic ations
ĠĠĠĠĠĠĠĠĠĠĠĠĠĠĠĠĠĠĠĠĠĠĠĠ ĠĠĠĠĠ
Ġfin ish
Ġfin itude
hes itate
hes itation
mis conceptions
mis chievous
Ġsc ru
Ġsc ope
Ġsc orn
Ġsc rup
Ġsc heme
Ġsc anty
Ġneg atives
Ġneg atio
Ġneg lected
Ġi x
Ġi ly
Ġi um
subject ing
Ġmain ly
oubt ingly
Ġant ip
Ġant agon
come ts
pect s
part ies
Ġlogic arum
Ġmethod ically
Ġcommand ments
Ġphysical ly
Ġmean ness
Ġmean while
Ġvirt uously
do cs
arr anged
Ġbelie ving
Ġimport unity
ĠTH OU
Ġmen ace
Ġhence forward
transcendental is
go at
Ġdog s
ogress ively
Ġover gr
Ġover take
Ġover bal
Ġover sight
Ġover fl
Ġover takes
Ġover charge
Ġover thrown
Ġnon entities
Ġspeci erum
Ġspeci osa
Ġlong ings
Ġless en
Ġless ens
Ġsol ar
Ġsol us
Ġsol utions
Ġhold est
Ġanswer able
mor row
Ġequ ity
Ġequ ations
Ġequ ivocal
Ġequ ivocation
nature d
Ġideal e
Ġco here
Ġco ars
Ġco heres
Ġco hering
Ġco erce
Ġpost hum
Ġpost erio
Ġexcept ing
Ġformal iter
ĠPr ior
ĠPr ofessor
ĠPr agmatical
ĠPr imacy
ĠSu ccession
Ġcontin ent
Ġcontin ents
Ġbound ed
Ġbound ary
Ġprev ention
Ġprev alent
Ġher ald
will ingly
ail able
Ġpleasure s
Ġdoubt ing
Ġdoubt less
Ġident atis
Ġident itas
Ġess endi
Ġprov able
Ġprov idential
Ġinst ability
Ġinst antly
Ġinst inctive
Ġinst igations
gr uity
gr oss
gr oping
gr image
gr andeur
Ġdialect ics
Ġdialect ically
Ġdialect icians
Ġdialect ician
Ġhar ass
Ġpass age
Ġpass io
Ġpass ively
Ġpreced ence
Ġargument ation
Ġargument um
Ġmis used
Ġmis employment
Ġmis fortun
Ġmis application
Ġmis apprehension
Ġmis ery
Ġmis conceived
Ġmis understand
Ġmis carr
Ġmis chievous
Ġden ial
Ġden ounce
Ġden oted
Ġappre ciate
Ġmaterial e
Ġmaterial ist
ĠAs k
ĠAs soci
ĠAs sert
dist ance
dist ract
Ġprogress es
Ġprogress ive
Ġprogress ively
Ġgener is
Ġgener ic
Ġgener ate
Ġgener ating
Ġoblig ations
Ġoblig andi
Ġoblig antibus
Ġbeginning s
Ġallow ing
Ġprom ised
Ġprom inently
Ġprom pted
Ġvari ation
Ġvari ations
Ġvari eties
Ġvari etates
ties t
Ġfall ible
Ġsuper added
Ġsuper fici
Ġsuper ann
Ġsuper sensual
Ġsuper subtle
Ġimperative ly
oc ritus
Ġaw ful
Ġpeculiar ly
Ġlegisl ators
.âĢĿ âĢĶ
Ġfal seness
dif fers
sim ultaneity
For mal
nt ial
bl ock
Ġed it
Ġed ited
Ġed ifying
ne y
ne ighbour
ave lled
Ġharmon izing
strict ly
strict est
Ġcirc ulate
some one
ull ed
ull itions
disc ord
disc redit
disc overer
disc ursively
Ġcontingent ia
Ġbr other
Ġbr igh
Ġund a
Ġund o
Ġund emonstr
Ġund iminished
Ġund eserving
Ġund ivided
Ġund eviating
Ġund oubtingly
ĠY ear
ĠY ork
what soever
Ġav ow
Ġav owed
Ġav arice
RE ASON
cor ner
cor relate
cor ruption
right s
right ful
right fully
Ġconj oins
Ġfurther s
moral ists
lar ge
Ġsing ly
Ġsing ulare
Ġvol o
Ġvol unteer
Ġvol cano
Ġintellectual ists
les ome
Ġjud icii
sist ence
sist ency
Ġtreat ises
ignor ant
erse y
consid ers
Ġspring ing
Ġintr ude
Ġintr usive
Ġintr ospect
ĠAn ne
ĠAn nihil
ĠAn ax
ĠAn imality
Ġconv ulsion
Ġcorrect s
Ġcorrect ed
ck er
ck ily
des erted
des iring
des cribing
inde xes
Ġpret ty
Ġpret ences
Ġpret ends
Ġpret ending
sh ut
sh ore
sh ield
sh arp
sh ifting
Ġdistrib utor
limit less
br aska
br utum
br idle
fer re
sensuous ness
ĠHe aven
ĠHe teronomy
Ġpar ading
Ġpar oxysms
Ġpar cel
Ġpar adise
All ow
All heit
Ġcriticism s
Ġinfer ior
pres sible
pres cribe
pres umption
pres cribing
pres umptuously
EC TION
Ġignor ing
Ġignor atio
Ġdeterminate ly
where in
where fore
Ġauthor itatively
ood less
world s
ech ism
Ġcontinu a
Ġcontinu i
Ġcontinu ation
Ġcontinu ations
Ġmed ical
Ġmed itate
Ġmed dle
Ġmed ley
Ġmed itating
Ġmed icine
pens ated
Ġcompar ationis
Ġmoment ary
ĠUn ion
ĠUn question
ĠUn iversity
leg es
rational istic
intellig entia
intellig ibilis
Ġinfin itude
Ġinfin itus
pur ity
pur poseless
pur chaser
IS M
IS TENCE
just ly
Ġfield s
Ġexhib iting
Ġtrans form
Ġtrans ference
Ġtrans formation
Ġtrans port
Ġtrans ports
ĠEx planation
Ġseek est
bel ow
rem ember
rem oval
rem embered
rem embers
fe res
fe asibility
Ġrecogn izing
Ġrecogn izable
Ġpain t
Ġpain ters
Ġexcl usions
Ġcomb ative
Ġcomb ining
Ġins ured
Ġins incerity
Ġins urmount
Ġins inuating
Ġins atiable
Ġins ensate
comm only
comm encement
Ġfr actions
Ġfr ug
Ġfr aming
Ġfr atern
Ġfr ivol
Ġfr agmentary
Ġdesign ations
Ġanteced ens
Ġ3 000
Ġ3 8655
Ġcosmological ly
Ġtranscendent ly
Ġabstract s
att end
att ending
att aches
att aching
imp elled
imp els
imp etus
imp otently
imp etuous
Ġcompre hens
Ġcompre hensibility
general ness
incl uded
Ġsur passing
Ġsur mise
Ġsur moun
Ġsur faces
Ġsur veill
Ġsur gical
ĠAr ithmet
ĠAr kansas
ĠAr rived
ĠAr tist
Ġpursu its
respect ively
Ġke ys
igh s
Ġbl end
Ġbl oodless
Ġpsych olog
Ġdel uding
Ġdel udes
Ġdel iverance
Ġdel ivery
Ġapodeict ical
Ġintrodu ctory
Ġfore ver
Ġfore go
Ġfore thought
Ġfore seen
Ġfore stall
Ġing enious
ific ed
ific ial
system a
system s
system atical
separ ation
separ ated
separ ating
separ ately
Ġ5 2
Ġappro ves
Ġappro ving
Ġappro ached
Ġappro aching
Ġappro bations
Ġkingdom s
Ġstates man
Ġmanifest ed
Ġmanifest ly
Ġmanifest ation
IN CLUDING
sum ma
produ cing
Ġche ated
Ġche ats
consist ence
ĠSp inozism
Ġcircum scribe
Ġcircum scribed
Ġcircum scribes
Ġcircum spection
ĠV oid
ĠV au
ĠV irtue
ĠV olunteers
ĠV irginia
ĠV ermon
ĠV olta
ĠV ERUM
comp el
comp ass
comp etent
comp ulsion
comp assion
comp ete
Ġlet s
Ġlet ting
Ġagree ing
Ġorgan izations
Ġindividual s
Ġsignific ant
Ġpostul atum
employ s
cre ation
cre ate
Ġear s
univers itas
ĠJ urists
ĠJ uno
ĠJ ersey
Ġline ar
quant i
quant um
quant itative
quant itatis
quant orum
Ġro of
Ġvolition s
perfect ions
perfect issimum
distingu ishes
ĠK ingdom
ĠK ansas
ĠK entuck
Ġsepar ations
Ġtest is
Ġtest ing
speculative ly
Ġcreat es
Ġcreat ors
Ġcare lessly
mathemat ic
mathemat ically
Ġvarious ly
conf ounding
ĠRE FL
ĠRE LATION
TH IS
TH IRD
ren ounce
Ġge ograp
div ine
div inity
div isions
div ested
Ġoff ended
Ġoff spring
Ġutter s
Ġutter ing
Ġdisp uted
Ġdisp elled
Ġdisp assion
Ġdisp utants
Ġuseful ness
ins ured
ins omuch
ins piring
ins ignia
Ġens ured
Ġfa de
Ġfa cia
possess or
possess ing
possess ed
Ġaccept able
Ġacqu ires
Ġacqu iesce
cogit ation
cogit ates
Every body
Ġcre de
Ġgen esis
Ġadopt s
ven ing
ven ged
Ġgain er
Ġsimilar ities
Ġopp ortunities
Ġfavour s
Ġfavour ing
Ġcosm otheology
Ġcosm icus
tot o
presu pposing
Ġlight en
Ġlight ly
question es
Ġprop ound
Ġprop ortions
Ġprop ounds
Ġprop aed
Ġprop agation
?âĢĿ âĢĶ
Ġsure r
Ġdeser ved
Ġoccasion al
Ġdogmat izing
Ġschool man
ĠÃ Ģ
Ġforth with
Ġdestroy s
belong ed
gu ide
gu ided
gu iding
analy sing
analy sation
Ġta uro
Ġold er
origin ate
Ġinter fered
Ġinter course
Ġinter rupted
Ġinter secting
Ġinter feres
Ġinter vening
should ers
conform s
conform ing
conform ed
Ġconver se
Ġconver sio
predic able
Ġreflection s
Ġconstruction s
Ġkeep s
real ize
real izes
Ġdom estic
Ġdom inant
demonstr able
demonstr ates
demonstr ating
purpose ly
Ġmag ical
Ġmechan ics
Ġannihil ation
Ġcomparison s
success ions
ĠAN TIC
content ed
imin al
Ġredu ction
Ġredu ces
Ġdown ward
Ġdown wards
Ġdown fall
Ġtransc ended
crit ically
prov ide
prov ides
Ġart ist
Ġart istic
Ġart ists
Ġart ifices
Ġart ifici
Ġart ificial
far ther
adv antages
adv ocate
adv enturing
ret reat
Ġindis solu
Ġindis soluble
Ġindis put
Ġdef ences
Ġdef ended
Ġdef ensive
Ġdef ensoribus
Ġadm ired
Ġadm ixt
Ġadm oto
ĠWith in
non entity
non entities
Re ality
Re flection
Re futation
Re alities
great ly
discover ies
correspond ence
Ġ9 1
Ġ9 3
Ġ9 4
Ġ9 7
Ġ9 8
Ġ9 000
compre hension
when ever
universal itas
Ġprob ity
Ġprob andi
Ġfan atical
Ġpriv ation
Ġplain er
Ġplain est
Ġfear fully
Ġclass ification
Ġir ref
investig ate
investig ated
den y
den ies
occ urs
occ asions
press es
since re
Ġsever ity
Ġfail s
Ġfail ure
Ġdivers a
Ġdivers ified
Ġsophist s
Ġsophist ry
Ġprevent ing
Ġopen ing
Ġopen ly
Ġanalog ously
lat er
lat ent
lat est
Ġsk ilful
Ġpublic ly
struct ure
Ġback ward
Ġfour fold
ĠIm agination
ĠIm materiality
ĠPro cess
ĠPro positions
ĠPro vidence
ĠPro perty
ĠPro ceeding
Ġplan et
Ġassign ing
Ġstandard s
Ġabsurd ities
vol unteer
attain ment
claim ants
apt ation
apt itudes
inf it
inf allibly
ĠOR IGIN
contin uity
particular ity
Ġpract ise
Ġpract itioners
through out
Ġrec urs
Ġrec urring
Ġhum bly
Pr of
Pr udence
Wh ich
Ġwrit ers
Ġconfin es
Ġprocess ion
Ġprocess ors
ĠAt qui
ĠAt omistic
Ġchain s
mot us
post erity
post poned
post pone
truth s
truth ful
truth fulness
proceed ed
turn s
uit ously
ater al
Ġturn ed
Ġturn spit
rest ing
rest ed
Ġsa ves
Ġsa fer
ustr ation
Ġsent ences
Ġbene ath
Ġborrow s
Ġelev ate
Ġelev ations
Ġdata e
Ġweight iest
Ġstud ied
Ġcontrib uted
Ġobsc urities
Ġafford ed
Ġdomain s
Ġmajor ity
ug nance
look ing
play ed
TIC ULAR
Ġmist ress
ED OM
aff irmed
before hand
Ġproduction s
Ġaxiom atic
Ġperform ances
Ġpreser ver
Ġpreser ving
ĠDe ceived
ĠDe fects
ĠDe ficiency
ĠDe gree
ĠDe utsches
ĠDe finitions
Ġearth ly
draw s
conting ently
stant iality
mind ed
Ġgl ad
Ġgl ances
Ġgl orifies
Ġcap abilities
Ġeng age
Ġeng ages
Ġeng agement
neg atively
neg atived
Ġintention al
indic es
indic ations
indic ative
Ġqual ifies
Ġqual ifying
Ġpay able
Ġpay ment
Ġnecessit as
Ġnecessit ating
Ġsubsum ing
Ġsubsum ptions
consequ ent
super natural
super human
expect ing
expect ation
As k
ae que
ae ternitas
Ġfit test
Ġcr ied
Ġcr ush
Ġcr iminal
appre ciate
.) [
_. âĢĻ
Ġestim able
Ġproportion ately
Äłre p
ĠPRO VIDED
Ġsubl unary
Ġaggreg ated
Ġaggreg ates
Ġreflect ive
feel s
Con junction
Con sciousness
Con sistency
ST AN
umer able
asser ted
Ġguard ians
Ġpopular ly
Ġrep el
Ġrep elled
Ġrep aired
Ġrep etition
Ġrep entance
Ġrep utans
Ġrep ugnance
Ġhabit a
Ġhabit ual
Ġhabit ually
Ġreturn ed
Ġexc iting
Ġshort en
Ġshort ness
Ġdisappear ance
Ġfew er
Ġextensive ly
Ġinquire r
Ġinquire rs
Ġcheck ing
Ġcheck ed
por al
Ġ7 50
Ġont ology
Ġont otheology
Ġren ouncing
imag inary
human ae
conscious ly
Ġ6 000
plic anda
." ]
Ġcal oric
Ġcal umni
Ġbad ly
Ġbad ness
Ġbold est
Ġbold ness
Ġbeh oof
Ġpros cribed
Ġexec utes
Ġexec utive
Ġextr action
Ġextr aneous
Ġextr aneously
Ġextr acted
Ġextr amund
Ġdev ises
Ġdev ised
Ġdev iating
Ġdev oting
Ġpersu ading
Ġcausal itatis
Ġendless ness
Ġenjoy s
Ġenjoy ed
ĠEm peror
Ġpromot ed
Ġavail ing
ref use
ref lect
ref und
ref utation
ref lective
ref lected
fortun ately
dog ma
logical ly
pass es
pass age
pret end
pret ension
pret ended
ank ly
Ġur ge
found s
found ations
Ġplay ed
Ġlea f
Ġsafe guard
Ġtw ice
Ġwond ers
Ġwond rous
Ġbu ys
Ġbu yers
Ġsuggest ing
Ġsuggest ive
Ġheav ens
Ġaccord ed
Ġderiv ativ
Ġspecif y
Ġexperiment ing
Ġexperiment ed
supp lies
PL E
equ itable
equ als
equ ivocal
Ġmin ute
Ġmin erals
view s
view ed
deg rade
observ able
observ ance
conv ince
conv ictions
conv entionalism
OG IES
che ck
che cks
scept ical
scept ics
second ary
intellectual is
find ing
signif y
ĠNO THING
Ġtal ks
Ġcharge able
Ġgrad ations
Ġconvin ces
Ġlist ing
Ġlist ed
Ġlist ener
Ġlist ens
Ġlist ened
Ġweak er
Ġweak ens
ĠNot ions
ĠNot withstanding
ĠEvery where
Ġesteem s
Ġesteem ing
Ġillustr ative
Ġillustr ated
Ġillustr ates
Ġconfess es
Ġconfess ing
Ġfinal is
Ġtransgress ed
Ġtransgress ions
inter change
inter vention
inter changed
inter preted
pot entially
establ ishes
establ ishment
tal ks
tal ents
inst inct
inst abilis
inst illing
preced ed
Ġver ge
Ġver ification
Ġver ifying
Ġver acious
Ġver bi
Ġfortun ae
Ġimit ative
fact itious
show s
IL EI
positive ly
Ġ15 0
Ġ15 5
distinction s
Ġ0 1
Ġ0 2
Ġprot est
Ġprot ection
Ġprot uber
Ġvan ishing
Ġ20 16
Ġ20 13
Ġ20 20
Ġhind ered
trans form
trans fer
trans fers
trans lated
Ġcompl ain
Ġmeasure s
Ġperi uria
Ġaddu ces
ĠInt ensive
ĠWh ich
ĠWh ile
Ġsubstant iate
Ġsubstant iality
ĠDis junctive
ĠDis pute
Ġconfirm ations
Ġanticip ates
Ġanticip atory
Ġprofound ly
Ġpsychological ly
ĠKant ian
Ġord aining
direct or
restrict s
restrict ions
appro ves
appro val
appro ximately
doubt s
doubt ing
doubt fulness
fall ing
fall acious
except ing
except ivae
An alytical
An cient
cul pable
cul prit
Ġpat ience
Ġpat ched
Ġpat ches
among st
work ing
Ġdur able
Ġfruit fulness
Ġfruit lessness
Ġwar mest
Ġsound ness
Ġinj ure
Ġinj ured
Ġhyp ophysical
Ġforbid ding
Ġsuff ice
Ġsuff iced
Ġsuff icing
Ġattr active
Ġattr acted
Ġsym ptoms
Ġstart ing
Ġstart le
Ġstart les
Ġstart ling
Ġprejud ge
ĠCON CLUSION
Ġcommun is
Ġcommun ion
Ġcommun ities
Ġcommun io
Ġcommun icate
Ġadmir ing
Ġminor ity
Ex position
Ex ternally
Ex actly
Ex planation
Ex tension
ĠIN CIDENTAL
ĠIN TU
anteced es
anteced ens
dec ision
dec ides
dec ried
dec lare
abstract o
abstract s
lead ing
concl ude
concl uded
concl udes
concl usiveness
ift ness
Ġtrib es
Ġtrib ute
maintain ing
anthrop ological
acher s
Ġcultiv ates
Ġcultiv ating
unal terable
Ġ10 5
Ġsett ling
Ġcounter s
Ġcounter act
Ġcounter part
Ġcounter bal
Ġcounter acts
assert io
assert orical
assert orial
Ġtast es
Ġair s
Ġair less
Ġcur o
Ġcur ta
Ġcur vil
Ġdict et
Ġhy dro
Ġsusp ension
Ġobjection able
Ġrank ed
prop ose
prop ensions
prop ortions
prop Ã¦deutic
prop ensity
Ġpremis es
ĠNe braska
ĠObject ively
ĠCom mon
ĠCom put
ĠCom munity
ĠCom pelled
ĠCom parison
Ġimpart s
Ġapproxim ations
Ġapproxim ates
Ġapproxim ating
Ġgovern s
Ġgovern ed
correct ing
correct ed
RI CELLI
affirm ation
affirm atively
progress ive
occup ying
80 9
gener ation
gener ated
gener ating
clear ing
sour i
ott ish
compar ative
compar atio
deduction s
Ġbre ast
Ġbre aking
Ġbre vity
abs ent
Ġtell us
Ġcle ver
Ġcle aving
Ġcle aves
Ġpenetr ated
Ġpenetr ating
Ġinward ly
sec ured
Ġrecomm ends
Ġrecomm ending
Ġrecomm ender
Ġdr ive
Ġdr iest
Ġdr inks
Ġdream ing
Ġhard er
Ġhard ens
Ġhard ware
Ġexert s
Ġexert ion
Ġdepr ived
Ġdepr iving
Ġdepr aved
Ġdepr avity
ĠAuthor s
ĠPer manent
ĠPer ceptions
ĠPer manence
ĠPer suasion
Ġdisclaim s
Ġdisclaim ed
Ġprefer ring
Ġarchitect onically
Ġnumer o
Ġnumer ation
Ġnumer ically
Ġapprehend s
Ġapprehend ing
Ġhyper physics
enlar ge
distrib uted
distrib uting
answ ered
need s
need less
AN TITY
col oured
col umn
mod us
mod ality
mod ern
mod ification
mod ifying
mod eration
ri ot
ri pture
Ġmon as
Ġmon adology
Ġmon otheism
see ks
prom o
prom ised
prom ising
prom otion
method ical
method ology
co exist
co existent
result ed
af oresaid
vari ations
vari ance
vari eties
render s
long est
Ġann ual
Ġann ounce
Ġann ounced
Ġann ulled
ĠTr ademark
ĠTr illion
ĠTr ansgression
metaphysic a
Ġaugment ing
Ġaugment ed
Ġaugment ation
Ġcent ral
Ġfashion able
Ġrepro ached
Ġrepro aches
Ġdimin ution
Ġhorizon s
Ġpra ising
Ġexerc ising
Ġdepart ure
Ġdepart ments
Ġalleg es
Ġalleg ation
Ġdoll ar
Ġshap es
Ġshap ing
ĠOr der
Ġindetermin able
Ġindetermin ateness
Ġoutward ly
Ġoverstep s
Ġfaith ful
Ġmagn et
Ġmagn ified
Ġmagn etic
Ġcolour s
Qu ality
Qu antity
SI US
PH ICAL
PH IBOL
affect ion
affect ation
affect ions
anticip ations
anticip ated
anticip ating
grad ation
grad ations
grad ual
grad uation
Ġid em
Ġid leness
Ġid olaters
eng aging
material s
cop ical
cop ied
coun tries
coun sels
mo ved
prof it
Ġinc ited
Ġinc urred
Ġinc urable
AB OUT
flu idity
search ing
Ġinner most
entia e
term ing
understand s
Ġve hement
Ġinstruct ors
Ġfl ap
Ġfl oat
imental ism
Ġanthrop ological
Ġanthrop omorphist
Ġwa ited
Ġwid en
Ġwid ening
Ġcred ulity
Ġinstit ution
Ġinstit utions
Ġthreat s
Ġthreat ens
Ġmut ilate
Ġmund i
Ġnull a
Ġnull o
Ġnull ifying
Ġrepe ating
Ġconject ured
Ġpropens ities
ĠTot um
Ġunb iased
Ġuniform ly
Ġprincip ii
Ġprincip iis
ÄłP h
Ġviol ation
Ġviol ating
Ġimprov ising
Ġimprov ements
Ġimprov idently
Ġquar rel
ĠAl most
ĠAl abama
ĠApp rehension
ĠApp endix
ĠAnt icipations
Ġsubmit ting
ĠMe iklej
Ġconceal ing
Ġdecom pose
Ġdecom positio
Ġimperfect ions
Ġintuitive ly
Ġpeace able
Ġcontempor aneous
ĠPhys iology
ĠPhys iocr
Ġappeal ing
Ġsacr ifices
Ġsacr ificed
Ġhypostat ization
Ġhypostat izes
opp ortunities
add ing
add ressed
anc ers
sophist ry
evol ent
evol ved
cour t
pet itio
admit s
admit ting
Ġclos ing
Ġclos est
Ġast erisk
cap acity
continu ing
continu ed
continu ance
po em
Ġum pire
Ġum pires
formal iter
Ġfix ing
Ġreconci ling
Ġreconci lable
apply ing
account s
Ġtechn ique
Ġtechn ically
Ġmid way
Ġrevol ve
Ġrevol ves
Ġrevol ved
Ġrevol utions
Ġdeal er
Ġdeal ing
Ġrad ius
Ġrad iating
Ġvis ual
Ġvis ited
Ġvis ibly
Ġshar per
Ġshar ply
Ġchar ms
ĠĠĠĠĠĠĠĠĠĠĠĠĠĠĠĠĠĠĠĠĠĠĠĠĠĠĠĠĠĠĠĠ ĠĠĠĠĠĠĠĠĠĠĠĠĠĠĠĠĠĠĠ
ĠGree ks
Ġgrow s
Ġdesp ises
Ġdesp ised
Ġdesp icable
Ġdesp air
Ġenumer ated
Ġenumer ating
ĠEX PER
ĠEX ISTENCE
Ġmodel s
ĠMan ifold
Ġcompens ated
Ġcompens ates
Ġ12 0
Ġ12 5
Ġ12 40
Ġguarante es
Ġguarante eing
Ġoverlook ing
Ġfault s
Ġfault less
Ġirre voc
Ġirre coverably
Ġirre parable
Ġirre pressible
ĠSystem s
Ġobscure ly
ĠChrist ians
dogmat a
dogmat ic
dogmat ist
dogmat izing
dogmat ists
ĠNew slet
ĠNew sletter
ĠNew tonian
anim a
pract icable
assum es
educ ation
educ ators
aggreg ation
aggreg ates
embr aces
ĠST AH
furn ished
furn ishing
sus ceptionem
sus ceptibility
Ġpo et
Ġpo orest
Ġpress ing
don ations
mechan ical
mechan ics
throw ing
rent ly
Ġcour t
Ġcour ses
Ġconven iently
commun e
commun is
psychological ly
Ġaltern ative
Ġaltern ating
Ġboast s
Ġboast ing
Ġboast ful
Ġexempt ed
Ġlic enses
Ġlur k
Ġsun ny
Ġsuit ability
Ġunf illed
Ġunf aithful
Ġunf olds
Ġunf avourable
Ġspo ke
Ġspo iled
Ġsophism a
Ġvac ans
ĠSome thing
Ġsubstit utes
Ġcontempt uous
Ġphilosoph ic
Ġphilosoph ies
Ġphilosoph ized
Ġphilosoph ically
Ġphilosoph izing
Ġentertain s
Ġentertain ment
Ġinvalid ate
Ġsolic ited
Ġcoinc iding
Ġcombat ant
Ġkey stone
ĠANAL OGIES
Ġdefend ers
Ġspiritual e
Ġspiritual ist
Ġcalcul ations
Ġcalcul ating
Ġmulti plies
Ġmulti plicanda
Ġsubstantial e
ĠChristian ity
pursu e
pursu ing
pursu its
Ġten or
qual itas
qual ifies
invol ve
deser ves
deser ved
remark ed
remark able
remark ably
Metaphys ical
Per ception
Per fect
Per haps
excl usion
excl ude
excl uded
excl udes
discern ed
discern ment
destroy s
destroy ing
destroy ed
dev ote
dev ices
ÄłA r
Leibnitz io
Leibnitz ian
Sp inozism
St ill
St ars
Ġist is
Ġhes itates
adm ired
adm irable
meaning less
41 09
treat ise
infin itude
defect s
Ġru ins
Ġstead y
evil le
dogmatical ly
soul s
Ġfat ality
essential ia
Ġfair ness
Ã¦ sthetic
Ġomit ting
Ġsil ly
Ġsil ently
Ġpupil age
Ġband s
Ġbirth place
Ġnarrow ly
Ġnarrow est
Ġlab oured
Ġlab oure
Ġlab yrin
ĠIs land
Ġdece ives
Ġtrust ees
Ġperplex ities
ĠAb solute
ĠAb ove
Ġchild ish
Ġmyst ical
Ġmyst ics
Ġmyst ery
Ġmyst erious
Ġmyst icum
Ġassist ing
Ġassist entiae
Ġfell ow
Ġimped es
Ġimped ing
Ġimped iment
ĠMORAL ITY
ĠConcl uding
Ġ25 00
Ġfancy ing
Ġirresist ibly
Ġsketch ing
Ġobey ed
Ġsuffer ance
Ġsuffer ings
Ġridic ules
Tr ansition
Tr anslated
Ġred ness
prev ailed
design ing
design ations
organ um
organ ized
transc ending
contempl ation
contempl ate
contempl ates
contempl ating
prob ably
discus sing
seem ing
Gr ace
Not withstanding
yllogism os
assign s
accur ately
accur acy
THE OREM
support ing
accompan ies
accompan iment
.. .
.. .âĢĿ
.. ..
He aven
He teronomy
endeavour ing
exc iting
exc uses
process es
advance d
advance ment
Ar ithmetic
Ar cesilas
De fect
Un conditioned
Un ited
Un iverse
Un iversal
Un fortunately
bal anced
cosm ologia
hon ourable
spont aneous
spont aneously
incre ment
introdu ces
Ġnihil o
Ġnihil um
exhib its
corrupt s
absurd ity
access ions
merit o
peculiar ly
Ġanim i
Ġanim am
Ġanim ality
Ġanim ated
Ġanim ates
Ġanim advers
did actically
text s
ĠQu id
ĠQu ality
ĠQu od
ĠQu antities
Ġtext s
Ġfil ed
Ġfil ename
section s
Ġcast ing
Ġtrace d
Ġgrat ified
Ġgrat iae
Ġgrat uitous
Ġgrat uitously
ĉĉ ĠĠ
ĉĉ ĉĉ
ĉĉ ĉĠĠ
Ġcat echism
Ġinn umerable
Ġinsist s
Ġinsist ing
Ġburd ensome
Ġreview s
Ġreview er
Ġreview ing
Ġdark est
Ġexagger ations
Ġexagger ates
Ġsust ains
Ġsust enance
ĠIll usion
ĠIll ino
Ġunexpected ly
Ġcompr ise
Ġround ness
Ġround about
Ġembarrass es
Ġembarrass ment
Ġvit am
Ġvit ally
Ġvit ium
Ġvict ors
Ġvict ories
Ġvag um
Ġvag abond
Ġsynon ym
Ġsynon yms
Ġsevere ly
Ġste el
Ġste ward
ĠAfter wards
Ġdispens es
Ġsubter rane
Ġmast ers
Ġmast ered
ĠGer mans
Ġcontrover sies
Ġencour aged
Ġencour agement
ĠEnd s
Ġcritic ized
Ġcritic ised
Ġcritic izing
Ġattach ments
ĠMis souri
ĠLOGIC AL
Ġ178 1
Ġ178 5
Ġ178 8
Ġsuperfluous ness
Ġfigur atively
Ġfigur ae
Ġdefici encies
Ġinduce ment
Ġmistaken ly
Ġpunct uation
Ġpunct ilious
Ġweakness es
Ġhinder ances
Ġpraise worthy
Ġrepeated ly
Ġfatal ism
analog on
analog ies
analog ous
analog ue
analog ously
Ide as
enjoy s
enjoy ing
enjoy ments
met abasis
maj estic
occasion al
occasion ing
Ph ysics
sur face
sur render
sur veyed
sur faces
sur prising
Ġell ipses
remo ves
remo ving
TRIB UTION
bar ic
bar barism
revol t
revol ve
revol ution
revol ved
revol utions
del ay
del ivered
del iverance
det ected
Ġposit ives
contest s
occur red
Princi ples
prevent ed
creat ing
mag ic
test s
test ed
your s
Ġign ava
Ġign oble
que en
keep ing
Ġstruct ures
Em ployee
bring s
last ing
last ly
spr ings
Ġeduc ators
intr insically
Ġtol erably
Ġmal evolent
soon er
close ly
Ġ13 0
Ġ13 5
hypothetical ly
71 2
Respect ing
fund raising
favour able
oe ia
popular ity
tent h
Ġsw im
Ġsw allowed
Ġsw iftness
Ġpol itical
ulous ness
mail ing
Ġ45 57
rupted ly
Ġastr ay
Ġastr onomy
Ġwarn ed
Ġwicked ness
Ġcens or
Ġcens ura
Ġsl umber
Ġsl ips
Ġsl avish
Ġpubl ication
Ġmar red
Ġmar ionet
Ġmar iner
Ġissu es
Ġrevel ata
Ġredistrib ution
Ġaspect s
Ġanxi eties
Ġlow ered
Ġweaken ed
Ġwithdraw s
Ġwithdraw ing
ĠID EAL
Ġprohib itive
Ġprolong ation
Ġunpleasant ness
Ġspecul ate
Ġspecul atists
Ġrig id
Ġrig our
Ġratiocin atio
Ġratiocin ati
Ġratiocin atae
Ġregular ity
Ġselect ing
Ġreluct ance
Ġreluct antly
Ġconsult ed
ĠAmong st
Ġappell ations
ĠPsych ological
Ġprepar ing
Ġprepar atory
ĠSe a
ĠSe gner
ĠSe ptember
Ġsubdiv isibility
Ġcontrol s
ĠCan st
ĠCogn itive
Ġdesert s
Ġvalu able
ĠRel igion
ĠRoyal ties
Ġsimpl er
Ġsimpl ify
Ġsimpl ifying
ĠDetermin ation
Ġinvent ed
Ġinvent ory
Ġinvent ors
Ġinfring es
Ġinfring ed
ĠMon th
ĠLaw s
Ġrespon sibilities
Ġharmonious ly
Ġappropri ation
Ġappropri ating
Ġomnis cience
ĠEpicurean ism
ĠMoral ists
Ġsacred ness
Ġrecommend ations
Ġarchetyp a
Ġrevolution ized
Ġ199 1
Ġ199 4
Ġ199 7
Ġ199 8
Ġ199 9
Ġcatalog uers
indu ction
indu ced
grat ified
grat ifying
grat uitous
substant iality
substant iae
Ġrom ancers
acqu ired
fil es
fil ings
van ity
van ishes
van ishing
Ġep ithet
Ġep igenesis
particip ation
particip ate
particip ant
particip ating
ĠIM MOR
artic ulation
artic ulatio
avail s
avail ing
requis ites
requis ita
critic izes
PEND ENCE
ban ished
coinc ide
coinc ident
coinc ides
coinc idence
dict ation
dict um
dict ates
dict atorial
numer o
numer ical
numer ically
numer ica
pat tern
pun ishes
pun ishment
pun ishable
Ġpot ens
Ġpot entially
fort ified
intention ed
conflict s
conflict ing
circum scribed
authoriz e
authoriz ing
bene fit
bene ficence
cultiv ation
cultiv ating
fl ashed
fr ame
fr ankly
fal sely
ration ally
sent iment
sent imentalism
reconci ling
Ġpet itio
chief ly
exerc ises
exerc ised
medi ation
IND EMNITY
Ideal ist
Philos ophy
Philos ophers
17 5
17 39
Al ways
EG ORIES
Mathemat ical
Sy nthesis
fill s
fill ing
mem ory
writ ings
ones elf
Ġflu ency
Ġflu ctuating
vert ently
perform ances
Ġsoci al
indifferent ism
indifferent ists
Ġship wre
signific ancy
comparison s
ey es
fixed ly
horizon s
lie u
rain bow
run s
wit nesses
hetical ly
infer red
Ġbes et
Ġrob bed
Ġsensual ized
Ġsensual ists
Ġadvers ity
Ġadvers aries
Ġartic le
Ġartic les
Ġcontest s
Ġcontest ed
Ġtemper ance
Ġcut s
Ġcut ting
Ġcustom s
Ġsedu cing
Ġsedu ctive
Ġsoft ness
Ġincontest able
Ġball s
Ġmil es
Ġmil itant
Ġecon omy
Ġelucid ation
Ġelucid ations
Ġdread s
Ġdwell ing
Ġbeg un
Ġhit ting
Ġlive liness
Ġlof tiest
Ġloose ly
Ġforget s
Ġdeed s
Ġhast e
Ġhast ens
Ġuninter fered
Ġunansw ered
Ġ(_ )
Ġundermin e
Ġundermin es
Ġundermin ing
Ġundermin ed
Ġtroub lesome
Ġimpract icability
Ġpersist ed
Ġpersist ence
Ġshadow y
Ġstopp ing
Ġquit ting
Ġconsent iunt
Ġappet ites
Ġappet imus
ĠPers ius
ĠThought s
Ġleap ing
Ġargu es
Ġargu ed
ĠSc ottish
ĠSc ripture
ĠSen sibility
ĠOp inions
Ġserious ness
ĠGos pels
Ġgrate ful
Ġgross ly
Ġremed ies
ĠEngl and
Ġpresum ptuously
Ġpresum ptuous
Ġinviol ability
appoint ed
Ġindul ged
Ġindivid ually
Ġindivid uality
Ġimagin able
Ġimagin arius
Ġguess es
Ġantiqu ated
Ġcoal esce
Ġhero ic
Ġhero ism
Ġfals ification
Ġfals ify
Ġunden iably
Ġvolunt arily
Ġparallel ism
ĠArgum ent
Ġcollected ness
Ġfanci ful
Ġsignal ized
Ġextravag ances
Ġanthropomorph ically
Ġcredential s
Ġthreaten ings
Ġsharp est
Ġsharp ened
Ġpoison er
Ġunfair ly
Ġpragmatical ly
ĠMonad ology
ĠUNDER STAND
ann ouncement
ann ouncing
threat ening
myst ical
asc ent
asc end
asc ension
manifest ly
manifest ations
eg otistic
Ġlat est
embarrass ing
ĠUT F
Concl usion
568 2
Ġbar barism
Ġbar baric
cast ic
cast les
invent ed
Ch aracter
Ch ange
Ch anges
Cont act
Cont ents
Cont ingence
bre aking
bre vity
cur rent
cur iosity
cur vature
carr y
carr ied
fail s
fail ing
fail ure
alter ations
impl ies
impl ied
impl anted
thy self
emin ent
emin ence
emin ate
chimer a
chimer as
chimer ical
depr ive
depr ived
depr ives
prot ect
prot ensive
pros perous
pros pects
pros yllogismos
suggest s
suggest ion
suggest ed
Ġlear ner
Ġlear ning
Ġlear nt
prohib ition
prohib iting
prohib itivae
weight iest
attack ing
Epic urus
Mor als
Sto ic
cal m
dest ined
elev ating
fa ithful
fam ily
lo quacious
mer ge
mer chant
oh n
penetr ate
touch ing
touch stone
wis er
Ġ80 9
instruct ress
enumer ated
Ġthrow s
anch oly
Ġproc ures
Ġproc ured
Ġproc uring
conject ures
confin ed
conven iently
specul ators
propri ety
contempt ible
obvious ly
indefinite ly
product s
PLEAS URE
schol ar
circumst ance
62215 4
Among st
First ly
custom ary
firm ly
fault iness
high ly
pus hed
sure ly
Ġadequ ateness
Ġwarrant ies
Ġbow s
trace able
spread ing
prefer red
Ġcorrupt ing
Ġresist ing
colour ing
false hood
Ġtempt ed
Ġtempt ation
Ġtheolog ian
Ġwander ings
Ġcand id
Ġcitiz ens
Ġsit us
Ġsit uation
Ġsag acious
Ġincompre hensibilities
Ġincorrect ly
Ġindiscern ible
Ġinstrum ents
Ġincontrovert ible
Ġbro ad
Ġthir ty
Ġthwart s
Ġming led
Ġmock ing
Ġfam ous
Ġfam ily
Ġfam iliar
Ġfant astical
Ġnom adic
Ġnought s
Ġecl ipse
Ġrever sely
Ġrepress ed
Ġremind ed
Ġhour s
Ġhint s
Ġliqu id
Ġlangu or
Ġlament ed
Ġlament able
Ġsuppos able
Ġproject ile
Ġdeposit or
Ġalkal is
Ġunsol ved
Ġunquestion ed
Ġcomfort able
Ġempiric ists
Ġembell ishing
Ġtriumph ant
Ġvicious ness
ĠBec ome
Ġimmedi ata
Ġhearer s
Ġabut s
ĠFac ulties
ĠFOU RTH
Ġquick en
Ġquick ly
Ġquick ened
ĠAd aptation
Ġjuris prudence
Ġaccus er
Ġappend ix
ĠPre pared
Ġdiss ension
Ġdispar age
Ġdispar ata
Ġdispar aging
Ġdisappoint ed
Ġdisgust ing
Ġchallen ge
Ġchallen ged
Ġchallen ges
ĠSh ould
ĠSh all
ĠSh allow
ĠOTHER WIS
Ġthank ful
Ġthank fulness
ĠInte ger
ĠGre cian
ĠWis est
ĠWis dom
ĠWis consin
ĠCl assification
ĠCopernic an
Ġobl ivion
Ġdiscret a
ĠHist orical
ĠHypothe tical
Ġenv ying
Ġenig matical
ĠEv il
Ġtert io
Ġimpot ent
Ġcorrection s
Ġinflex ibly
Ġapper tain
Ġanalyst s
Ġsummon s
Ġsummon ing
Ġsummon ed
ĠLat ins
Ġdecre ases
Ġ18 2
Ġsupplement ing
Ġsupplement ed
Ġillum inations
ĠOnt ology
Ġdegr ading
Ġelimin ate
Ġelimin ated
Ġelimin ating
Ġprovision ary
Ġinstant aneous
Ġbrief ly
Ġbrief est
Ġabsor ption
Ġabsor bed
Ġabsor bent
ĠExt ension
ĠExt ensive
ĠExt reme
Ġsurr ounds
Ġsurpass es
Ġsurrender ing
Ġ99 775
Ġ99 712
ĠImper ative
Ġmistrust ful
Ġcrown s
Ġcrown ed
Ġdevi ation
ĠDisc ursive
Ġdescend ants
ĠNeg ative
Ġcharm ing
Ġspoil s
Ġruin ous
ĠAbb Ã©
Ġfriend ship
Ġauthentic ity
Ġastronom er
Ġeconom ize
ĠPerson s
ĠPerson ality
Ġearnest ly
Ġepoch s
Ġrapid ly
illustr ate
illustr ations
attr action
attr actions
contrib ute
contrib uted
belie ves
belie ved
178 1
178 7
Ġret ort
Ġret orted
weak ens
weak nesses
preser ve
preser ving
erect ing
erect ed
care fully
redistrib ution
redistrib uting
accompl ish
accompl ishment
aut ia
aut omaton
Ġapt ness
Ġapt itudes
Ġoc ular
isol ate
isol ated
Ġpon ens
empiric ist
empiric ists
phil autia
acknowled ged
acknowled ges
strong er
fulfil s
fulfil ment
Introdu ction
Introdu ctory
apprehend ed
contempor aneous
contempor aneously
Che mists
ĠQU ALITY
ĠQU ANTITY
Ġble mish
Ġrect ification
Ġrect ify
antagon ism
antagon istic
blind ing
imagin able
imagin arium
AT ES
Com munity
Com plete
Im possibility
Im manent
aud ible
astr ay
astr ology
adequ ateness
bat tle
bungl ers
bungl ingly
cher ished
cher ishes
cert ificate
citiz en
citiz ens
dur ation
dam age
dam ages
dile mma
dimin ution
dimin ishes
fanci ed
fanci ful
gen us
gen uine
govern ment
govern ments
hist orical
hist orian
hyp ocrisy
hyp ostatic
loc ations
loc ated
moun tains
mock ing
mock ed
null ity
null ifies
rhapsod y
rhapsod istic
tre ated
tre asure
temper ate
temper ament
upright ness
voc abulary
wond er
wond ered
inj ure
inj ury
incomp etent
incomp atible
reve als
reve aled
redu ction
redu ced
sever ity
imm ensity
imm utability
consol ing
consol ation
ampl ify
depre ciation
depre ciated
depart ure
depart ment
tranqu il
tranqu ility
pron ounce
pron ounces
succeed s
succeed ing
exec ution
exec uted
exto lled
exto lling
Ġevol ve
Ġevol ved
unfortun ate
unfortun ately
prepar ation
prepar ations
preponder ate
preponder ance
compl aint
compl acent
ĠLI ABILITY
ĠLI FE
subsum ed
subsum ption
correction s
short est
short ening
apper tain
apper tains
comput er
comput ers
ruin ous
superior ity
figur ative
figur ae
symbol ical
school s
school men
Certain ly
EI THER
Logical ly
bes ide
back wards
ein heit
hio ko
mark ed
uphold ers
Ġtur ning
Ġtur bul
inward ly
Ġther mometer
reject ion
itating ly
Ġcert ify
Ġcert ificate
altern ately
Ġban ish
Ġban ishes
Ġmus ic
Ġmus ician
Ġmill enni
secret ly
Ġconqu ered
Ġconqu eror
start ed
exert ions
acid s
unceasing ly
uniform ity
ĠPO STUL
ĠPER CEPTION
ĠPER SIUS
Theoretical ly
display ing
contrast ed
arrogant ia
Ġawa it
Ġawa its
collect s
detect ing
cobweb s
splendour s
condemn ation
Ġtem ere
Ġtem poral
Ġtrem ble
Ġtrem bles
Ġtorment ed
Ġtorment est
Ġwarr anted
Ġwarr ants
Ġwild est
Ġwatch ing
Ġwretched ness
Ġcou ple
Ġcou pled
Ġcount s
Ġcount less
Ġsal es
Ġsal utary
Ġsink s
Ġsap io
Ġpu ppet
Ġpu ffing
Ġpal pable
Ġpal ingenesis
Ġpill ow
Ġpill ars
Ġpoly theism
Ġpoly syllogistic
Ġpomp ous
Ġincompar able
Ġincompar ably
Ġblessed ness
Ġmir acle
Ġmir ror
Ġfif th
Ġfif ty
Ġfight ing
Ġfra il
Ġfra ilty
Ġfier i
Ġfier ce
Ġnes cit
Ġnes cio
Ġeb ook
Ġeb ullitions
Ġeff icacy
Ġeff eminate
Ġeulog ies
Ġeulog ize
Ġreign s
Ġreap ed
Ġrenew ed
Ġrecapit ulate
Ġrecapit ulation
Ġconced ing
Ġconced ed
Ġcondem ning
Ġcondem ned
Ġdull est
ste pping
ste eled
Ġhover s
Ġhover ing
Ġprae ter
Ġprae ferre
Ġproud ly
Ġprogram me
Ġexceed ing
Ġexceed ingly
Ġexcess es
Ġexcess ive
Ġexhort ation
Ġexempl ification
Ġexempl ifies
Ġlust ful
Ġfort itude
Ġfort uitous
Ġforfe it
Ġforfe its
Ġgout y
ĠId entity
ĠId entification
Ġallot ment
Ġallure ment
Ġallure ments
Ġdefe at
Ġdefe ats
Ġdepict s
Ġdepict ed
Ġunw aver
Ġunw onted
Ġunre strained
Ġunre venged
Ġuntr ained
Ġuntr avelled
Ġunjust ifiable
Ġunguarded ly
Ġ(* )
Ġspher ical
Ġspher oid
Ġrot ten
Ġrot eron
Ġrhet oric
Ġrhet oricians
Ġmel ius
Ġmel ancholy
Ġtranqu il
Ġtranqu ility
Ġva unted
Ġva cillating
Ġimpregn ation
Ġimpregn able
Ġpervert s
Ġabsol ves
Ġabsol uta
Ġabund ant
Ġabund antly
Ġusurp ed
Ġusurp ation
Ġshame less
Ġstat ute
Ġstat utes
Ġquib ble
Ġquib bling
ĠAff inity
ĠAff irmative
Ġjugg ling
Ġjugg lery
Ġaccum ulation
Ġaccum ulated
Ġaccru ing
Ġaccru ed
Ġadjust ing
Ġadjust ed
Ġdismis sing
Ġdismis sed
Ġdisappro ved
Ġdisappro val
Ġdiscontinu ing
Ġdiscontinu ed
Ġyaw n
Ġyaw ning
Ġprecl ude
Ġprecl udes
Ġpreponder ate
Ġpreponder ance
Ġchamp ion
Ġchamp ions
ĠSing le
ĠSing ular
ĠSpirit uality
ĠSUB JECTIVE
ĠSUB STAN
ĠIncl ination
ĠIncl uded
Ġplun ge
Ġplun ges
ĠCOM MON
ĠCOM POSITION
Ġdespot ic
Ġdespot ism
Ġcommend able
Ġdistrust ful
Ġextol s
Ġextingu ished
Ġextingu ishing
ĠReciproc al
ĠReciproc ity
ĠEs se
ĠEs sential
ĠEqu ator
ĠEqu ivocal
Ġoutwe ighed
Ġoutwe ighs
ĠDE FIN
ĠDE PENDENCE
ĠDest ination
ĠDest itute
ĠDON ATIONS
Ġimpair s
Ġstray ed
Ġconcess ion
Ġconcess ions
Ġconcur rence
Ġconcur rently
Ġsumm ary
Ġsumm un
Ġadvised ly
Ġconfer red
Ġcloud ed
Ġarrog ate
Ġarrog ates
Ġacknowled ged
Ġacknowled ges
Ġoverthrow ing
Ġcoar se
Ġcoar ser
Ġcool ness
ĠSub sistence
ĠSub stantiality
Ġharsh ness
Ġmischief s
Ġfrustr ate
Ġfrustr ated
Ġblow s
Ġdeline ate
Ġdeline ated
Ġcheer ful
Ġcheer fulness
ĠKNOW LED
Ġinterrog ation
Ġinterrog ate
Ġbenef ited
Ġbenef iting
Ġglim pses
Ġglim mer
Ġrepul se
Ġrepul sed
Ġtwist ing
Ġsympath ize
Ġsympath izing
Ġsymbol s
Ġsympat hetic
Ġsympat hetically
Ġcommunic ates
Ġcommunic ating
ĠPerfect ion
Ġambigu ities
Ġambigu ae
Ġincit ement
Ġincit ements
Ġvex ing
Ġvex ed
Ġvehic le
Ġvehic ula
Ġdeceit fully
Ġratiocinant is
Ġratiocinant es
Ġepisyllogism s
Ġepisyllogism os
Ġsanct ity
Ġsanct ification
Ġincapac itate
Ġincapac itates
Ġflatten ing
Ġflatten ed
ĠPHILOSO PHY
ĠPHILOSO PHICAL
Ġfere nce
Ġven geance
irre coverably
philosoph ize
Ġbit ter
Ġash amed
sign s
Ġener gy
Ġangu ish
Ġarch ives
deriv ation
ĠEM PIR
guarante es
Ġbal anced
Ġunt ouched
ĠOU GHT
measure ment
Ġtermin ation
synon ymous
REM ARK
liber ate
Ġale theian
Ġade pts
Ġoft ener
escap ed
awaken ed
Ġque en
Ġmort ification
ĠAM PHIBOL
Ġordin ances
indiscern ibil
sympat hetic
Judgement s
year s
Ġxi ii
Ġcul pable
Ġcel estial
Ġbi as
Ġhat red
sovereign ty
tell s
parallel ism
serious ly
controver sies
Ġrespond ed
arrog ance
Ġovert urning
legitim ation
schemat a
PRIN CIPLES
combat ant
errone ously
Trancendent al
100 00
Ab solutely
App rehension
Apr il
Astr onomy
Ant icipations
BE FORE
Bod ies
Bole yn
Cr usius
Cogn ition
CON CLUSION
Do es
Des pite
Dem ocritus
Dak ota
Det ection
Del aware
DON ATIONS
DIS TRIBUTION
DES IRE
FOU RTH
GS BERG
Gign i
Hold ing
Hypothe ses
Hamps hire
IP ATIONS
Ind iana
Ill ustration
Imag ination
Law s
Look ing
Mich igan
Mand eville
Mod o
Mast ers
Nat ural
Nol int
Nun c
Numer us
Neg ative
New tonian
Ov id
Ox ford
Object s
Ont ologia
Pre cepts
Phenomen a
Pun ishment
Pers ius
Post ing
PAR TICULAR
Prop Ã¦deutic
Plat onism
Sh ould
Sim ply
Scept icism
Sach heit
Socr atic
Te achers
Tem pus
Vari ety
Wel come
WAN T
Zen o
bu ild
bur st
burd ensome
boast ing
benevol ent
cle arest
cent red
cans on
cens ura
cula e
dr iven
dich otomy
dise ase
eth ical
fle eting
fol k
fide lity
fant asy
fert ility
foc us
frequ ently
fool ish
fals ity
foot ed
fri endship
gard ly
gart en
gra fted
gene alogy
hur ry
hast y
htm l
harm less
ju beo
juris diction
kak ov
laps us
lax er
laud atur
mar vellous
mil king
mel ior
mole culae
micros copical
narr ower
nob ler
narrow ness
obe y
ran ks
rav ages
rip ened
royal ties
rho pon
sink ing
swe et
sedu ced
slight est
salt s
saf ed
soft ware
tol erably
vig orously
vest ibule
viol ates
war ning
wide ly
Ġtort uous
head er
heav y
Ġaud ience
inex orable
insp ire
intern e
instit ute
inconce ivabilities
incompar ably
inhab its
instrum entality
rece iving
retr ogressively
refin ed
reward ing
rearr anges
revel ation
revere ntial
reinst allation
repet ition
remiss io
isos celes
enem ies
encro aching
athe ism
Ġpit iful
Ġpict ure
Ġbat tle
Ġbul warks
Ġtou ched
Ġmour ns
anas ia
anarch y
Ġeur hioko
Ġemin ent
leag ued
stud y
stret ch
asym ptotic
Ġhor ses
theolog ians
theosoph ists
immeasur ably
Ġanch or
irks ome
irreconci lable
quaest io
respon sibilities
Ġorg ans
perman ency
permiss ive
perdur abile
veget able
conca ve
condu ce
charm ing
challen ge
chican eries
illimit ableness
ambig uity
plau sibility
abund ant
Ġatom us
deep ly
delight s
develop ment
degrad ed
minuend ae
Ġrous ed
prae ceptivae
Ġabol ish
adminis ters
supre mum
possident is
individ uo
indemonstr abilia
indescrib ably
indistingu ishables
expon ents
extravag ance
uninter ruptedly
unfit ness
unexception ably
unyield ingly
unrecogn izable
unveil ing
solip sismus
elabor ation
elucid ate
elench i
premis ses
prejud ice
prelimin aries
compart ments
composit a
proxim ate
consentient ia
consummat um
assured ly
ĠMON EY
dissert ation
undeter red
Incorrupt ibility
Innoc ence
relinqu ish
subdiv isio
subrept io
subreption is
monogram ma
misappre hensions
Ġestr anged
REFUT ATION
despot ism
despair ing
brief ly
Allgem einheit
noolog ists
Ġmedi ates
inviol able
invalid ity
confront s
inflex ible
Who ever
glimp se
reflex io
chemist ry
interpol ation
coacerv atio
address ing
laboure r
philodox y
Cheseld en
Quodlib et
necessitat em
scrut iny
Subtr act
Montaign e
Oklah oma
Wizenman n
pharmacop oeia
KÃ ĸNI
Proble matical
dismis sed
ĠâĢĶ >
Ġtas ks
Ġtab ular
Ġtac itly
Ġtute lary
Ġtong ues
Ġtang ible
Ġtild e
Ġaqu am
Ġauth rhopon
Ġavers amur
Ġaiothe ta
ĠaerumnosiqueSol ones
Ġoce an
Ġtheat re
Ġtheosoph ic
Ġwind y
Ġwast ing
Ġcoll ateral
Ġcree p
Ġcover ing
Ġcrow ning
Ġcru cible
Ġcovert ly
Ġcitab ere
Ġsor ry
Ġsou lless
Ġsar castic
Ġsqu are
Ġsore ly
Ġscan ning
Ġswor n
Ġsix ty
Ġswell ing
Ġsatir ical
Ġpiv ot
Ġpil grimage
Ġpum ice
Ġpall iatives
Ġpud ori
Ġpop ulation
Ġpock et
Ġpiec es
Ġinim ical
Ġincon gruity
Ġinad vertently
Ġinca utious
Ġinop s
Ġinser ted
Ġincogn izable
Ġinert iae
Ġinext inguishable
Ġinconsist encies
Ġinconsider ateness
Ġincess antly
Ġinsuper able
Ġinappro priate
Ġincul cate
Ġinco herent
Ġinorgan ic
Ġinhab ited
Ġincorrupt ible
Ġinaccess ible
Ġinoff ensive
Ġinadequ acy
Ġbos om
Ġbur nt
Ġbun gles
Ġbast ard
Ġbarr iers
Ġbungl er
Ġbiog raphies
Ġboister ous
Ġthrif ty
Ġtoll ens
Ġtour ney
Ġtouc hes
Ġmess age
Ġmad ness
Ġmonstr osities
Ġmarr ied
Ġmild est
Ġmerc ury
Ġmalle ability
Ġmicros cope
Ġfet ters
Ġfond ness
Ġfost ers
Ġfoun tain
Ġfath om
Ġfool ed
Ġfores ight
Ġnig gardly
Ġnour ishing
Ġnug atory
Ġeuth anasia
Ġeffici ency
Ġisland ers
Ġrepr inted
Ġrenow ned
Ġresem bles
Ġreminis cence
Ġrevert i
Ġreprim anded
Ġresear ches
Ġitem s
Ġconst ans
Ġconstr aining
Ġcongr uent
Ġconquest s
Ġconger ies
Ġcongrat ulate
Ġdar ling
Ġdaw ned
Ġdab ble
Ġdig ressions
Ġdang ers
Ġdra ughts
Ġbeckon ing
Ġbefit ting
Ġhur tful
Ġprimit ively
Ġprhole psis
Ġassem bled
Ġanatom ist
Ġexpos ure
Ġlog ician
Ġlad der
Ġlun ar
Ġlik ed
Ġlift s
Ġloft iness
Ġlaug hed
Ġsupe resset
Ġsupel lex
Ġgallow s
Ġgestic ulate
ĠImit ation
resol ved
Ġproxim ity
Ġproclaim ed
ĠTod ay
ĠTex as
ĠTyp ic
ĠText s
ĠTOR RICELLI
ĠTIM E
ĠTerr asson
ĠTrade Mark
ĠTenn essee
Ġdepre ciated
Ġdepress ed
Ġdebar red
Ġdebat able
Ġintus susceptionem
Ġintol erable
Ġintemper ance
Ġbuttress es
Ġuncom pensated
Ġunreason able
Ġunass ailable
Ġunlu ckily
Ġunten able
Ġunhes itatingly
Ġunwill ing
Ġungr ateful
Ġunatt ended
Ġuncomp romising
Ġunthink ingly
Ġunsatisf actorily
Ġunadv isable
Ġunri pe
Ġuneduc ated
Ġunmist akable
Ġunsus ceptible
Ġunutter able
Ġunbecom ing
Ġunintention al
Ġunprot ected
Ġuneas iness
Ġunwarrant able
Ġunascertain ed
Ġunskill ful
Ġunilater ally
Ġunsophistic ated
Ġlawsu its
Ġspati i
Ġcomfor ting
Ġrout e
Ġrud eness
Ġrick tig
Ġrhapsod ically
Ġundergo es
Ġundertoo k
Ġtrail er
Ġtrah or
Ġtrampl ed
Ġtraduc ers
Ġvind ication
Ġvoy age
Ġvivid ly
Ġvindic ated
Ġvouch safed
Ġvider i
Ġvarie gated
ĠBON UM
ĠBru cker
ĠBAC ON
ĠBaum garten
Ġimprud ent
Ġimmeasur able
Ġheark ened
Ġpersp icuity
Ġperpend icular
Ġpersec ute
Ġpersever ance
Ġabort ive
Ġabomin able
Ġabhor rence
Ġnoet a
Ġsyncret istic
Ġkins folk
Ġshun ned
Ġshoot s
Ġshrew dness
ĠFollow ing
ĠFRE EDOM
ĠFrequ ent
ĠFals us
ĠFlor ida
ĠFranc is
ĠFonten elle
Ġstag gered
Ġstup idity
Ġstret ches
Ġrelie ving
Ġrelinqu ishing
Ġrelativ a
Ġevok ed
Ġconscient iousness
Ġconserv ative
ĠAlex ander
ĠAXIOM S
ĠApodeict ical
Ġjoc ose
Ġjeal ous
Ġjew el
Ġaccoun ted
Ġmanual s
Ġmanufact ures
Ġappoint ment
uncorrupt ed
unsa fe
Ġadmis sibility
Ġadminis tering
ĠPha edo
ĠPoint s
ĠPne umatism
ĠPlat onic
ĠPOP ULAR
ĠPursu ing
ĠPennsylvan ia
Ġdissol ves
Ġdisarr anging
Ġdissim ulation
Ġdisconc ert
Ġdisclos es
Ġdiseng age
Ġdisproportion ate
Ġdishon est
Ġdisqui et
Ġdisinher it
Ġpredile ction
Ġpredecess ors
Ġprecipit ated
ĠThousand s
Ġchican es
Ġarbit er
Ġarmist ice
ĠSens ations
ĠSpect ators
ĠSoph isma
ĠSIM PLE
ĠSocr ates
Ġphthis is
ĠNev ada
Ġsubserv ient
ĠOreg on
ĠObvious ly
ĠIncert aeque
ĠInvestig ation
Ġplast er
ĠGAL ILEI
ĠGeorg ia
ĠWOL F
ĠWoh l
ĠWyom ing
ĠWalhall a
ĠWashing ton
Ġgrav itation
ĠCoun sels
ĠClear ness
ĠCap e
ĠCAT EGORIES
ĠColumb ia
ĠCOPERNIC US
Ġobtus eness
Ġdespond ing
Ġdesider atum
Ġindefat igably
ĠHob bes
ĠHOP E
ĠHawa ii
ĠHecub a
Ġextrem es
Ġextremit ies
Ġenlight enment
Ġenclos ing
Ġencoun ters
Ġencod ing
Ġenric hed
ĠRATION AL
ĠRidic ule
ĠEduc ation
ĠEgy ptians
ĠEurope an
Ġoutbre ak
Ġterrestr ial
Ġrealissim a
Ġamaz ement
ĠDev oid
ĠDynam ical
ĠDemonstr ations
ĠDiog enes
Ġenthus iasm
Ġimpug ned
Ġcorrel ative
Ġcorrobor ating
Ġinvinc ible
Ġheredit ary
Ġheretof ore
Ġinflu encing
Ġinflict s
Ġinflam mable
ĠReven ue
ĠRequire ment
ĠMont ana
ĠMair an
ĠMED IUM
ĠMOD ALITY
ĠMAD E
ĠMoh ammed
ĠMetamorph oses
ĠMassachusett s
Ġapolog ize
Ġstrik ingly
Ġstratag em
Ġconcaten ation
ĠLeg al
ĠLaert ius
ĠLamber t
Ġmetamorph osed
ĠUta h
ĠUndoubted ly
Ġphysiogn omists
Ġaffirmat ives
ĠConsid ered
Ġindustr ious
Ġindulg ent
Ġelangu escence
Ġscru ple
Ġscrup ulousness
Ġantip athy
Ġantagon ism
ĠTHOU GHT
Ġovergr own
Ġoverbal ance
Ġoverfl ow
Ġcoars est
Ġposthum ous
Ġmisfortun es
Ġmiscarr iage
ĠAssoci ation
ĠAssert orical
Ġsuperfici ality
Ġsuperann uated
Ġbrigh ter
Ġundemonstr ated
Ġintrospect ions
ĠAnnihil ate
ĠAnax agoras
ĠUnquestion ably
Ġinsurmount able
Ġfrug ality
Ġfratern al
Ġfrivol ity
Ġcomprehens ive
Ġsurmoun ted
Ġsurveill ance
ĠArithmet ical
Ġpsycholog ist
ĠVau canson
ĠVermon t
ĠVolta ire
ĠKentuck y
ĠREFL ECTION
Ġgeograp hers
Ġdispassion ate
Ġpropaed eutic
Ġdomestic ae
ĠANTIC IPATIONS
Ġartifici ally
Ġindissolu bly
Ġindisput ably
Ġadmixt ures
Ġirref utable
ĠORIGIN ATION
Ġguardians hip
Ġ750 175
Ġcalumni ators
Ġextramund anum
Ġderivativ us
Ġverbi age
Ġprotuber ance
ĠINTU ITION
Ġcounterbal ancing
Ġcurvil inear
Ġhydro chloric
ĠComput ers
Ġanthropomorphist s
ĠMeiklej ohn
ĠPhysiocr acy
ĠEXPER IENCE
Ġirrevoc ably
ĠNewslet ters
ĠSTAH L
Ġlaboure rs
Ġlabyrin th
Ġanimadvers ions
ĠIllino is
Ġsubterrane an
Ġmarionet te
ĠIDEAL ISM
ĠIMMOR TALITY
Ġshipwre ck
ĠUNDERSTAND ING
ĠOTHERWIS E
Ġturbul ent
Ġmillenni um
ĠPOSTUL ATES
Ġpolysyllogistic a
Ġunwaver ing
ĠSUBSTAN CE
ĠDEFIN ITION
ĠKNOWLED GE
ĠEMPIR ICAL
ĠAMPHIBOL Y
indiscernibil ium
KÃĸNI GSBERG
Ġ nd
Ġ ile
Ġ ived
Ġ ert
Ġ ension
Ġ ensive
Ġ iving
Ġ iding
Ġt ic
Ġt ical
Ġa e
Ġa ve
Ġa ken
Ġa king
Ġp p
Ġp ose
Ġb er
Ġm it
Ġn t
Ġit h
Ġit ing
Ġit as
Ġit her
Ġu de
Ġan e
Ġl ing
Ġare d
Äł k
Äł y
Äł act
Äł us
Äł all
Äł cl
Äł par
Äł med
Äł ha
Äł arr
Äł pur
Äł rem
Äł sc
Äł ins
Äł gu
Äł conce
Äł gl
Äł conc
Ġy p
Ġen e
Ġi an
Äłex p
Äłex tr
Ġ ication
Ġ icism
Ġa il
Ġa ces
Ġo ve
Ġc k
Ġs ion
Ġp ir
Ġm s
Ġit es
Ġu lar
Ġl u
Ġg es
Ġg ed
Ġor s
Ġat io
Ġat ively
Ġr ing
Ġem ent
Äł on
Äł or
Äł end
Äł man
Äł phys
Äł determin
Äł contr
Äł law
Äł ne
Äł leg
Äł sum
Äł Pr
Äł pass
Äł pret
Äł continu
Äł commun
Äł Un
Ġif ies
Ġy ing
Ġar s
ĠE N
Ġut ation
Äłin st
Äłc al
Äłf a
Ġur s
Äłb ene
Ġol og
ÄłD e
Ġous ly
Ġward s
Ġoun ce
Ã¢Ä¢Ä ¿
Â ¦
Ä ī
Ġ Äł
Ġ ime
Ġ ician
Ġa ined
Ġo le
Ġo de
Ġp tion
Ġin es
Ġin ce
Ġn er
Ġe ty
Ġis ion
Ġre at
Ġit able
Ġu ring
Ġu des
Ġan ge
ĠT ION
Ġr ow
Äł J
Äł ver
Äł ph
Äł art
Äł ac
Äł fin
Äł me
Äł ser
Äł there
Äł do
Äł bl
Äł RE
Äł inde
Äł no
Äł analy
Äł origin
Äł prov
Äł vol
Äł concl
Äł assert
Ġse l
ĠA TION
Ġy s
Ġen ed
Ġmat ical
Ġent ion
Ġer y
Ġi or
Ġi us
Ġant s
Ġing ly
Äłm ag
Äłde f
ÄłP er
Äłdis p
ÄłC om
ÄłC ON
Ġul ate
ÄłÄłÄłÄłÄłÄłÄłÄłÄłÄłÄłÄłÄłÄłÄłÄł ÄłÄłÄłÄłÄłÄłÄłÄł
Ġou ld
ĠÃ¢Ä¢Ä ¶
Ġ .
Ġ ie
Ġ ern
Ġ ires
Ġ icable
Ġ ibility
Ġ ÄłÄłÄłÄł
Ġ izes
Ġt ers
Ġa ly
Ġa ins
Ġo ph
Ġo te
Ġo ub
Ġp ect
Ġf fici
Ġn ed
Ġit ive
Ġit io
Ġas es
Ġu g
Ġu ll
Ġu ous
Ġon d
ĠI C
Ġat is
Ġr it
Äł ed
Äł ir
Äł ve
Äł ill
Äł pos
Äł te
Äł with
Äł object
Äł sy
Äł reason
Äł ear
Äł contradict
Äł comple
Äł dif
Äł where
Äł ap
Äł intellig
Äł val
Äł satisf
Äł Su
Äł aff
Äł neg
Äł imag
Äł oblig
Äł vari
Äł adm
Äł design
Äł acqu
Äł Ãĥ
Ġus ions
Ġst it
Ġar k
Ġpl es
ĠC E
Ġen ess
Ġent ial
Ġans c
Ġac k
Ġi gh
Ġi able
Ġce ived
ĠÃ ĥ
Äłc ol
Äłs ch
Äłs ign
Äłf all
Äłre cogn
Äłm ist
Äłp un
Äłde v
Äłh y
Äłh um
Äłh yp
ÄłP ro
Äłex cl
Äłcon ver
Äłpr ot
ÄłI m
Ġound ed
Ġou gh
Ġud ing
Ġud ed
Ġtern al
Ġak es
Äłcoun ter
Äłcirc um
Ġ )
Ġ ich
Ġ ject
Ġ iate
Ġ ief
Ġ ired
Ġ ization
Ġ ibly
Ġt le
Ġa th
Ġa med
Ġo ly
Ġo ll
Ġo id
Ġo od
Ġo ck
Ġo unt
Ġo ok
Ġc ribe
Ġs ist
Ġp ly
Ġp end
Ġp position
Ġp pose
Ġp posed
Ġp posing
Ġin k
Ġb ject
Ġm itted
Ġf f
Ġit er
Ġit ude
Ġd u
Ġd ition
Ġh ing
Ġas ure
Ġu it
Ġu ch
Ġan ted
Ġat a
Ġat ic
Ġr y
Ġem pt
Äł is
Äł ple
Äł fore
Äł here
Äł op
Äł The
Äł exist
Äł ma
Äł wor
Äł ep
Äł exam
Äł incl
Äł appl
Äł separ
Äł produ
Äł consist
Äł employ
Äł constit
Äł mathemat
Äł speci
Äł conform
Äł predic
Äł demonstr
Äł crit
Äł expl
Äł obser
Äł express
Äł conv
Äł abs
Äł sec
Äł comb
Äł anim
Äł sym
Äł ann
Äł illustr
Äł irre
Ġim ent
Ġim ate
Ġhe d
Ġif ying
Ġar ily
ĠE S
Ġi ld
Ġut ions
Ġce ive
Ġful ness
Äłin c
Äłin tr
Äłc r
Äłc le
Äłc ur
Äłm ain
Ġation al
Äłde t
Äłex c
ÄłC h
Ġul ation
ÄłE X
Ġell ed
Ġach ing
Ġog ical
Ġct ive
Ġcrib ed
Ġ hen
Ġ nder
Ġ ience
Ġ irm
Ġ ield
Ġ idence
Ġ iction
Ġ icians
Ġt ies
Ġa ter
Ġa int
Ġo x
Ġo th
Ġc c
Ġc hed
Ġc hes
Ġs ible
Ġs ibility
Ġp s
Ġf ic
Ġe ction
Ġe cess
Ġis ible
Ġit ate
Ġas ing
Ġas ed
Ġu ity
Ġu me
Ġan eous
Ġon ic
Ġon omy
Ġor ical
Ġor ious
Ġha ps
Ġun ction
Ġat or
Ġat um
Ġat ory
Ġat ors
Äł Y
Äł ce
Äł ec
Äł aw
Äł of
Äł her
Äł present
Äł mat
Äł sen
Äł ident
Äł represent
Äł nat
Äł read
Äł mon
Äł go
Äł mor
Äł happ
Äł limit
Äł just
Äł caus
Äł dem
Äł IN
Äł cre
Äł TH
Äł ren
Äł possess
Äł success
Äł character
Äł jud
Äł compre
Äł occ
Äł contin
Äł Wh
Äł rest
Äł indic
Äł consequ
Äł appre
Äł oper
Äł defin
Äł correct
Äł progress
Äł distrib
Äł need
Äł prof
Äł indis
Äł dogmat
Äł pract
Äł assum
Äł pursu
Äł qual
Äł invol
Äł Tr
Äł organ
Äł transc
Äł guard
Äł indu
Äł substant
Äł threat
Äł myst
Äł off
Äł accept
Äł preser
Äł necessit
Äł philosoph
Ġim in
Ġhe mat
Ġif ic
Ġman ent
Ġy n
Ġle ction
Ġar ks
ĠN D
Ġpos es
Ġac hed
Ġac hes
Ġi i
Ġi er
Ġi ent
Ġi ality
Ġce ptions
Äłin qu
Äłin trodu
Äłc op
Äłc reat
Äłs a
Äłs ac
Äłf ig
Äłre c
Äłre strict
Ġur n
Ġur y
Äłd r
Äłd edu
Äłd ialect
Äłp o
Äłl ist
Äłl ab
Äłde pr
Äłh armon
ÄłP U
Äłex per
Äłr atiocin
ÄłA b
ÄłD I
ÄłD IS
Äłe lev
Ġul ty
Äłsu ff
Äłsu ggest
Äłg en
Ġish ment
Ġos m
Äłdes p
ĠÃ¢Ä¢Ä ¿
Ã¢Ä¢Ä ¶
ÄłPh ys
Ġene tr
Äłmag n
Ġansc endent
2 00
o ks
Ã ¢Ä
Ġ ,
Ġ ),
Ġ ertain
Ġ iz
Ġ ivers
Ġ xim
Ġ irect
Ġ icular
Ġ hension
Ġ ensions
Ġ ick
Ġ 000
Ġ ÄłÄłÄłÄłÄłÄłÄłÄłÄłÄłÄłÄłÄłÄłÄłÄł
Ġa u
Ġa ther
Ġa use
Ġa cious
Ġa ining
Ġo v
Ġo int
Ġo cr
Ġo oks
Ġc tr
Ġc ise
Ġc ious
Ġs ed
Ġs ib
Ġp able
Ġp ort
Ġp ond
Ġp eci
Ġp poses
Ġin ct
Ġin ity
Ġf ers
Ġf fect
Ġf icial
Ġe e
Ġe ch
Ġis on
Ġis ions
Ġit ation
Ġit ions
Ġit ates
Ġit ious
Ġas ion
Ġu le
Ġu ition
Ġu ght
Ġu str
Ġan ged
Ġg h
Ġg ement
Ġor iz
ĠT I
ĠT IC
Ġun te
Ġat ter
Ġat ives
Ġr i
Ġr ib
Ġem ber
Ġem onstr
Äł at
Äł es
Äł ut
Äł ess
Äł ide
Äł stand
Äł ord
Äł imit
Äł ro
Äł der
Äł less
Äł av
Äł necess
Äł phenomen
Äł know
Äł subject
Äł dom
Äł connect
Äł some
Äł requ
Äł respect
Äł follow
Äł quant
Äł perfect
Äł ground
Äł cogit
Äł think
Äł presu
Äł sens
Äł non
Äł investig
Äł effect
Äł hand
Äł attain
Äł mot
Äł expect
Äł As
Äł legisl
Äł dog
Äł tal
Äł anthrop
Äł affirm
Äł occup
Äł set
Äł compar
Äł enlar
Äł Qu
Äł affect
Äł anticip
Äł eng
Äł cap
Äł intu
Äł ideal
Äł remain
Äł prev
Äł prob
Äł discus
Äł estim
Äł desc
Äł grat
Äł manifest
Äł transgress
Äł obst
Äł attr
Äł contrib
Äł belie
Äł deriv
Ġv ere
Ġim al
Ġim ental
Ġhe tic
Ġse less
Ġj un
Ġman ence
Ġad ing
Ġle x
Ġle ase
Ġar i
ĠO M
ĠC L
Ġow er
Ġen ing
ĠR O
ĠE C
ĠE NT
ty p
Ġel s
Ġer able
Ġi k
Ġi ans
Ġi ating
Ġant ly
Ġut ive
Ġut able
Ġop e
Ġce ed
ÄłÄł Äł
Ġing u
Ġsequ ently
Äłin j
Äłc our
Äłc osm
Äłc ultiv
Äłs k
Äłs ent
Äłs il
Äłs how
Äłf re
Äłf al
Äłf an
Äłf ound
Äłf ru
Äłre du
Äłre comm
Äłre vol
Äłun f
Ġur ity
Äłm ar
Äłm ult
Äłd ict
Äłd own
Äłp at
Äłb u
Äłb re
Äłb ound
Äłt w
Äłt est
Äłt reat
Äłh on
Äłh ar
Äłh ard
Äłh ind
Äłh op
ÄłP RO
Äłex hib
Äłw ond
Äłw rit
Äłv iol
Äła str
ÄłM e
Ġul a
Ġul ties
Äłpr os
ÄłE m
Äłst art
Äłn umer
Äłsub sum
Ġog n
Ġog ic
Ġog ene
ÄłN ew
Äłar chety
19 9
Äłal tern
Ġced e
Äłdec l
Ġtern ally
Ġfere n
Äłappro xim
Äłam big
Ġcrib es
Ġcrib ing
Ġust om
Ġlect ed
Ġix ed
Ġolog ia
Ġsel ves
Ġffici ent
Äłhy per
Äłhyp ostat
Ġoll ow
Ã¢Ä ¢
e le
Ġ :
Ġ ;
Ġ henomen
Ġ eneral
Ġ ilos
Ġ irst
Ġ ici
Ġ uth
Ġ edu
Ġ ike
Ġ ique
Ġ uthor
Ġ iverse
Ġ icip
Ġ icense
Ġ eduction
Ġ ico
Ġ ilities
Ġ icated
Ġ veyed
Ġ jected
Ġ ibus
Ġ izable
Ġt t
Ġt on
Ġt ains
Ġt aining
Ġa res
Ġa ment
Ġa ving
Ġa enomen
Ġa iled
Ġo in
Ġo res
Ġo ol
Ġo use
Ġo phy
Ġo du
Ġo my
Ġo ured
Ġw o
Ġw are
Ġc ess
Ġc ies
Ġc ience
Ġc cess
Ġp ic
Ġp or
Ġp pos
Ġp endent
Ġp ens
Ġin ion
Ġin al
Ġin ing
Ġin ci
Ġin ary
Ġb id
Ġb ers
Ġm um
Ġm all
Ġf t
Ġf ter
Ġf ered
Ġn i
Ġn the
Ġe ci
Ġe ad
Ġe lf
Ġe rest
Ġe cond
Ġe cul
Ġis sim
Ġre ction
Ġre nt
Ġit le
Ġit um
Ġh ib
Ġas on
Ġas much
Ġu ality
Ġu man
Ġu ra
Ġu bl
Ġu les
Ġan k
Ġan cy
Ġon str
Ġg ing
Ġwith standing
ĠI L
ĠI TY
Ġor ic
Ġor ies
Ġare r
Ġare st
Ġare nt
Ġde qu
ab it
Ġat ever
Ġat eness
Ġr op
Äł it
Äł om
Äł ow
Äł id
Äł est
Äł ge
Äł ens
Äł possib
Äł condition
Äł ke
Äł ful
Äł can
Äł ra
Äł lear
Äł synthe
Äł will
Äł every
Äł right
Äł moral
Äł philos
Äł categor
Äł ignor
Äł rational
Äł bel
Äł appear
Äł univers
Äł consider
Äł distingu
Äł metaphys
Äł worth
Äł tot
Äł great
Äł discover
Äł truth
Äł natural
Äł psych
Äł conting
Äł On
Äł regress
Äł ST
Äł hypothe
Äł fortun
Äł concern
Äł deg
Äł observ
Äł establ
Äł preced
Äł require
Äł attrib
Äł imper
Äł anteced
Äł person
Äł abstract
Äł gain
Äł command
Äł method
Äł agree
Äł material
Äł add
Äł sophist
Äł aggreg
Äł want
Äł stead
Äł let
Äł destr
Äł deser
Äł remark
Äł mean
Äł annihil
Äł contempl
Äł spe
Äł seem
Äł geometr
Äł specif
Äł analog
Äł enjoy
Äł occasion
Äł profess
Äł allow
Äł obsc
Äł critic
Äł confess
Äł asc
Äł princip
Äł weak
Äł care
Äł sensib
Äł guarante
Ġv ation
Ġv ious
Ġim ents
Ġhe nd
Ġhe res
Ġhe ther
Ġper ience
Ġab leness
Ġus ive
Ġif t
Ġif ice
Ġif ices
Ġse ly
Ġad ed
Ġy m
Ġy ond
Ġpre me
Ġle ctr
Ġar n
Ġar act
Ġar ies
Ġar ium
ĠS E
ĠO G
Ġpl ic
Ġpl oy
ĠC I
ĠC T
Ġow s
Ġpos ing
Ġact ical
Ġen se
Ġen cies
ĠR A
ĠR AN
Ġent ially
Ġhere nce
Ġest y
Ġest ed
Ġres sed
ĠU M
Ġill ion
Ġill ed
Ġac ity
Ġac ks
Ġer c
Ġer ted
Ġi ol
Ġi ally
Ġi king
Ġi xt
Ġless ness
Ġsol ute
Ġes ides
Ġher ing
Ġut y
Ġut onomy
EC T
Ġet ent
Ġir med
Ġang er
Ġang es
Äłin ex
Äłin fin
Äłin stit
Äłin cre
Äłin cap
Äłc at
Äłc ent
Äłc red
Äłc arr
Äłs l
Äłs w
Äłs ing
Äłs ci
Äłs ust
Äłs us
Äłs pont
Äłs ignific
Äłf l
Äłf it
Äłf at
Äłf act
Äłf avour
Äłf ail
Äłf urn
Äłre ject
Äłre pe
Äłre conci
Ġur d
Ġur al
Ġmin is
Äłm et
Äłm echan
Äłd on
Äłd est
Äłd ivers
Äłd irect
Äłd oubt
Ġver s
Ġver se
Ġled ge
Äłp ay
Äłp ain
Äłp enetr
Äłl ic
Äłb as
Äłb et
Ġate gor
Äłde ce
Äłt a
Äłh old
Äłh abit
ÄłP ers
Äłex ec
Äłdis claim
Ġum b
Ġum er
ÄłS e
ÄłS p
ÄłS t
ÄłS y
Äłw a
Äłw id
Äłv it
Äłv is
Äłv an
Äłv ent
Äła ut
Äła uthoriz
Äła ugment
ÄłA l
ÄłA pp
Ġist ance
Ġru pted
ÄłD is
Äłcon j
Äłcon fin
Äłe le
ÄłM on
ÄłM is
ÄłM or
Ġul g
Ġul sion
Äłpr a
Äłpr iv
ÄłE pic
Äłst ud
Äłst reng
Äłn um
Äłn ull
Äłper i
Äłper su
Äłper form
Äłpre jud
Äłsub stit
Ġog it
Äłim part
Äłim prov
Äłen umer
Äłen cour
Äłch ar
Ġect ed
Äłbe h
Äład du
Äłsh ar
Äłsp o
ÄłI ll
Äłimp ed
Ġos sib
Äło be
Äłcom pl
Äłcom pens
Ġou ble
Ġud gement
Äłal leg
Ġoun ces
Ġoun ced
Ġoun cing
Ġore tical
Ġci ated
Ġec ulative
Äłres ol
Äłunder min
ĠÄłÄł Äł
Äłpost ul
Äłprom ot
Äłsim pl
ĠAR T
Ġane ously
Ġyp othe
Ġpir ical
ĠEN CE
Äłcal cul
ĠATION S
Ġoph ical
Ġoub ted
Äłsch ol
Äłpun ct
Ġpend ence
Äłmain tain
Äłfru it
Ġferen ces
Â ´
Ä ¨
Ġ ]
Ġ iori
Ġ endent
Ġ igin
Ġ utenberg
Ġ ).
Ġ ivid
Ġ ilar
Ġ llogism
Ġ ivity
Ġ hensible
Ġ ialectic
Ġ igion
Ġ ilis
Ġ ieve
Ġ icious
Ġ ictions
Ġt ion
Ġt eness
Ġa ult
Ġa gement
Ġo ot
Ġo ul
Ġo um
Ġo ud
Ġo ved
Ġo ted
Ġo mor
Ġo men
Ġo gr
Ġo ined
Ġo ses
Ġo gress
Ġo tt
Ġo vered
Ġthe less
Ġc y
Ġc ient
Ġc iousness
Ġs ess
Ġs cribe
Ġs let
Ġs thetic
Ġp ter
Ġp ute
Ġp oreal
Ġin o
Ġin ction
Ġin ations
Ġin ally
Ġin ently
Ġin ions
Ġin omy
Ġb ed
Ġb ly
Ġb ol
Ġb les
Ġth od
Ġth ics
Ġf old
Ġf ici
Ġn ce
Ġn ect
Ġn ex
Ġe al
Ġe ing
Ġe termin
Ġe ties
Ġis able
Ġis ibility
Ġre pt
Ġre me
Ġre edom
Ġit atis
Ġd ic
Ġh ood
Ġpr i
Ġas ions
Ġu b
Ġu ent
Ġu ation
Ġu ating
Ġan ation
Ġon y
Ġon um
Ġl t
Ġl able
Ġl ict
Ġl ated
Ġl imin
Ġwe en
Ġsu ous
Ġsu asion
Ġg g
Ġg in
Ġg an
Ġg um
ĠI TION
ĠI ES
Ġor ial
Ġor ily
ĠT Y
ĠT ER
Ġal f
Ġal ed
Ġal th
Ġal og
Ġal ogism
Ġha ust
Ġat ir
Ġat ur
Ġat us
ol ong
Ġour se
Ġr s
Ġr or
Ġr og
Ġem per
Ġem ents
Ġem ark
Ġtr odu
Äł z
Äł ur
Äł min
Äł now
Äł ign
Äł ast
Äł spect
Äł other
Äł princi
Äł stru
Äł certain
Äł trib
Äł hes
Äł any
Äł regard
Äł strict
Äł giv
Äł consid
Äł call
Äł subst
Äł proc
Äł proper
Äł system
Äł pe
Äł contain
Äł Every
Äł interest
Äł belong
Äł kind
Äł content
Äł ru
Äł correspond
Äł press
Äł subsist
Äł point
Äł proceed
Äł turn
Äł maxim
Äł draw
Äł attempt
Äł diffic
Äł depend
Äł proble
Äł view
Äł concept
Äł pot
Äł IM
Äł import
Äł lead
Äł bod
Äł similar
Äł author
Äł answ
Äł see
Äł arbitr
Äł result
Äł clos
Äł obtain
Äł PH
Äł grad
Äł demand
Äł conduct
Äł esteem
Äł opp
Äł admit
Äł apodeict
Äł educ
Äł accident
Äł argument
Äł Metaphys
Äł class
Äł discern
Äł comprehend
Äł convin
Äł explain
Äł Not
Äł heter
Äł assign
Äł support
Äł proportion
Äł thorough
Äł process
Äł Ide
Äł remo
Äł confirm
Äł appe
Äł accord
Äł occur
Äł extend
Äł artic
Äł plain
Äł distinct
Äł embarrass
Äł Concl
Äł invent
Äł architect
Äł omni
Äł erect
Äł redistrib
Äł accompl
Äł strong
Äł strugg
Äł apprehend
Äł imagin
Äł admir
Äł measure
Äł synon
Äł typ
Ġv ity
ĠB ook
Ġim es
Ġhe it
Ġab l
Ġab les
Ġab ilis
Ġsy ch
Ġus h
Ġus ory
Ġif e
Ġif ferent
Ġst ant
ĠA C
ĠA CE
ĠA BILITY
Ġad em
Ġad emark
Ġy llogism
Ġle ctive
Ġar um
Ġar ge
ĠS I
Ġph ist
ĠO D
ĠO L
ĠO P
ĠO S
Ġend i
Ġend er
ĠG HT
Ġag on
Ġag ing
Ġag ed
Ġen cing
Ġen evol
ĠE MENT
ha p
Ġter able
Ġam p
Ġam es
Ġam ing
Ġam ples
Ġmat ic
Ġent al
Ġest ic
Ġest ig
Ġap s
Ġstr aint
Ġstr ained
ĠU L
Ġac ing
Ġac le
Ġer it
Ġer se
Ġer ity
Ġer ial
Ġer ably
Ġfin itum
Ġi ar
Ġi pp
Ġi ance
Ġi ology
Ġi ae
ĠTH ER
Ġmis sible
Ġund amental
Ġav ity
Ġav our
Ġet aphys
Ġet ween
Ġing dom
Ġra de
ĠV E
Ġens es
ĠÃ Ĥ
Ġir ing
Ġang ing
Äłin n
Äłin determin
Äłin cor
Äłin sist
Äłin fer
Äłin struct
Äłc ens
Äłc lear
Äłc oinc
Äłs an
Äłs cept
Äłs pr
Äłs edu
Äłs piritual
Äłs hap
Äłf ut
Äłf ur
Äłf il
Äłf ill
Äłf am
Äłf lu
Äłf lat
Äłf als
Äłf oot
Äłf ri
Äłre ce
Äłre ver
Äłre ve
Äłre pro
Äłre fer
Äłre ciproc
Äłre view
Äłre luct
Ġren ce
Äłun b
Äłun w
Ġur ther
Ġur ality
Äłm o
Äłm al
Äłm ut
Äłm id
Äłm em
Äłm il
Äłm el
Äłm ast
Äłm ach
Äłm und
Äłm oment
Ġstru ction
Äłd am
Äłd ynam
Äłd imin
Ġver ted
Ġord ing
ĠIN G
Äłp ol
Äłp eculiar
Äłp ubl
Äłp oly
Äłl os
Äłl ur
Äłl oc
Äłb or
Äłb old
Äłb orrow
Äłb oast
Äłde tr
Äłde part
Äłde fici
Äłt re
Äłt ur
Äłt end
Äłt ol
Äłt echn
Äłh ast
Ġid er
ÄłP roble
Äłex ert
Äłex erc
Äłex agger
Äłdis par
Äłdis app
Äłdis pens
Ġclos ed
Ġast ic
Ġum ber
Ġum ption
Ġic a
Ġic es
Ġic ate
Ġic ability
ÄłS c
ÄłS h
Äłw is
Äłw ar
ÄłC ogn
ÄłC ategor
Äłv ac
Äłv ict
Äłv ag
Äłv irt
Äłr ig
Äłr ad
Äłr idic
Äła ccess
ÄłA nt
Ġol ly
Ġol iness
Ġol ution
Ġru pt
ÄłD E
ÄłD etermin
Äłcon ject
Äłcon ven
Äłe as
Äłe ff
ÄłM at
Ġil ed
Ġil ia
Ġul ative
Ġul ated
Ġul ates
Äłpr im
Äłpr ud
Äłpr olong
Ġies t
Äłst e
Ġell ing
Äłper plex
Äłsu cceed
Äłsu ffer
Äłpre p
Äłpre par
Äłpre mis
Äłpre fer
Äłsub l
Äłsub ter
Äłsub div
Ġog y
Ġog icians
Äłim pl
Ġiv er
Ġiv ae
Ġiv ocal
ĠHA T
Äłch o
Äłch ang
Äłch imer
Äłch allen
Ġip se
Äłg overn
ÄłÄłÄłÄłÄłÄłÄłÄłÄłÄłÄłÄłÄłÄłÄłÄł ÄłÄłÄłÄł
Äład or
Äład opt
Äład vers
Äłsh ort
Äłsh arp
Ġsem ble
ÄłN O
ÄłN e
ÄłW is
Äłsp ecul
Ġct ory
ÄłI D
Ġos s
ÄłG er
ÄłO r
ÄłO bject
Äłar gu
Ġound s
Ġound ation
Äłcom pr
Äłcom for
Äłan al
Äłhe av
Äłind ivid
Äłfor bid
Ġoc ation
Ġpon ent
Äłdec om
Äłdec lar
Äłqu ick
Äłinf ring
Ġore tic
Ġci ation
Ġci pline
Äłent ertain
ÄłIn t
Ġort ions
Äłel imin
Äłel abor
Äłel ucid
Ġfere nt
Äłappro pri
Äłres pon
Äłapp et
Äłref lect
Äłunder t
Äłev id
ĠAL ITY
Ġangu age
Äłmod er
Ġome tr
Äłpres um
ÄłEx t
Ġmort ality
ĠÄ ¢
ĠÄ ī
Äłsol ic
Äłag re
Äłprop ens
Ġoy al
Ġfect s
ÄłAN AL
ĠAR K
Ġith met
Ġither to
Äłconce al
Ġck on
Ġpir icism
Ġlu ence
Äłsum mon
Ġurs ive
Ġounce ment
Äī Äī
Ġode ict
Ġaly tic
Ġrit ique
Äłdif feren
Äłval u
ÄłÃĥ Ä¨
ĠCE P
Ġiter ary
Ġuit ous
Äłop en
Äłabs or
ÄłCh rist
Äłher o
Äłinqu ir
Äłsac r
Äłfig ur
Ġosm ological
Ġanscendent al
Ġctr ine
Ġcise ly
Ġsib ilities
Ġpeci al
Ġunte ers
Ġri ption
Äłdiscus s
Äłobst in
Ġjun ctive
ĠENT AL
Äłmult i
Ġogene ous
Äłarchety p
Ġissim um
Ġubl ic
Ġlectr onic
Ġaract er
Ġplic ity
Ġixt ure
Äłspont ane
Ġoum en
Ġogr am
9 9
K Ãĥ
O K
c ult
t ou
u ble
¸ NI
Â ©
Å Ĥ
Ġ ?
Ġ edom
Ġ iew
Ġ iqu
Ġ irc
Ġ ird
Ġ llig
Ġ ividual
Ġ idance
Ġ iber
Ġ nderstanding
Ġ uthoriz
Ġ velop
Ġ ignity
Ġ iberty
Ġ ndered
Ġ ivalent
Ġ ilst
Ġ vey
Ġ ialectical
Ġ ivable
Ġ ÄłÄłÄłÄłÄłÄłÄłÄł
Ġ ertitude
Ġ irtue
Ġ ichael
Ġ igination
Ġ ivil
Ġ icked
Ġ ndeed
Ġ iece
Ġ ibilis
Ġ iversal
Ġ ilege
Ġ irdly
Ġ llogistic
Ġ xious
Ġ xioms
Ġ veloped
Ġ hensibility
Ġ ighed
Ġ iberum
Ġ hensions
Ġ lled
Ġ lling
Ġ eneration
Ġ icipations
Ġ Â¦
Ġt es
Ġt ent
Ġt un
Ġt ellig
Ġt lest
Ġa h
Ġa ves
Ġa ight
Ġa phys
Ġa ved
Ġa ments
Ġa ired
Ġa seless
Ġa pons
Ġo e
Ġo h
Ġo the
Ġo ure
Ġo ple
Ġo very
Ġo ad
Ġo ose
Ġo ment
Ġo mat
Ġo ast
Ġo ke
Ġo lf
Ġo ice
Ġo tle
Ġo des
Ġo ments
Ġo val
Ġo tion
Ġo vere
Ġo sing
Ġo theology
Ġo cks
Ġo tes
Ġo soph
Ġo inted
Ġof old
Ġof essor
is he
is pens
Ġc s
Ġc id
Ġc ence
Ġc ell
Ġc ible
Ġc ks
Ġc ceed
Ġc iate
Ġc ern
Ġc ision
Ġc hema
Ġc iences
Ġc overably
Ġs in
Ġs ation
Ġs id
Ġs tain
Ġs ies
Ġs ciousness
Ġs akes
Ġs cribed
Ġp ire
Ġp one
Ġp ite
Ġp el
Ġp ty
Ġp perception
Ġp ared
Ġp posite
Ġp irit
Ġp dated
Ġp ping
Ġin y
Ġin ent
Ġin able
Ġin ning
Ġb or
Ġb st
Ġb ation
Ġb ig
Ġb its
Ġb itious
Ġb arrass
Ġb servation
Ġth rop
Ġto logical
Ġm ong
Ġm ise
Ġm unity
Ġf ace
Ġf its
Ġf lection
Ġf fort
Ġn it
Ġn itude
Ġe g
Ġe w
Ġe es
Ġe em
Ġe ous
Ġe tic
Ġe avour
Ġe ared
Ġe ibnitz
Ġe avoured
Ġe ctions
Ġe ometry
Ġe culation
Ġis k
Ġis l
Ġis en
Ġis ter
Ġis tr
Ġis trib
Ġis pensable
Ġis pensably
Ġre w
Ġre es
Ġre am
Ġre ement
Ġre to
Ġre ating
Ġre hension
Ġre ption
Ġre ator
Ġit ect
Ġit im
Ġit ative
Ġit ute
Ġit led
Ġit iz
Ġit ial
Ġit ful
Ġit ted
Ġit ating
Ġit tle
Ġit imate
Ġit les
Ġit hetic
Ġit udes
Ġit eness
Ġand i
Ġand o
Ġand on
Ġand er
Ġand ed
Ġand om
Ġcon ci
Ġd le
Ġd ent
Ġd ated
Ġd uct
Ġbe red
Ġh n
Ġh o
Ġh il
Ġh ort
Ġh io
Ġh ip
Ġpr ight
Ġpr iate
Ġas m
Ġas is
Ġas us
Ġas ant
Ġas ibility
Ġu c
Ġu x
Ġu ly
Ġu um
Ġu ary
Ġu ge
Ġu ated
Ġu el
Ġu ously
Ġu cid
Ġan qu
Ġan ations
Ġan gement
Ġan ced
Ġan cing
Ġan while
Ġan imity
Ġan illa
Ġon ations
Ġon ically
Ġl f
Ġl or
Ġl ain
Ġl ig
Ġl ied
Ġl ude
Ġsu s
Ġsu al
Ġg y
Ġg ress
Ġg ue
Ġg reg
Ġg ression
Ġg gest
ĠI CT
Ġor i
Ġor ough
Ġor ph
Ġor tun
Ġor tion
Ġall en
ĠT RODUCTION
ĠT IES
ĠT RIB
ĠT IVE
ĠT ICAL
Ġal id
Ġal ogy
Ġha b
Ġha pter
Ġun al
Ġun ted
Ġun gl
Ġun ciation
Ġun ciated
Ġat i
Ġat s
Ġat en
Ġat iv
Ġat ical
Ġat ure
Ġat ch
Ġat ement
Ġat ible
Ġat icism
Ġat ae
Ġat ivum
Ġour ce
Ġour th
Ġr al
Ġr ist
Ġr ies
Ġr ance
Ġr anscendental
Ġr ong
Ġr ought
Ġr ied
Ġr ase
Ġr ont
Ġr own
Ġr itical
Ġem pl
Ġem por
Ġem bered
Ġme ll
Ġme asur
Äł i
Äł er
Äł rom
Äł um
Äł our
Äł sequ
Äł old
Äł ell
Äł ang
Äł but
Äł them
Äł aim
Äł up
Äł For
Äł inte
Äł lar
Äł own
Äł sensuous
Äł world
Äł quest
Äł ask
Äł nihil
Äł my
Äł fac
Äł question
Äł free
Äł should
Äł path
Äł like
Äł far
Äł abstr
Äł ante
Äł light
Äł soci
Äł hig
Äł when
Äł OR
Äł power
Äł lat
Äł struct
Äł claim
Äł apt
Äł particular
Äł air
Äł manif
Äł look
Äł mind
Äł feel
Äł you
Äł proof
Äł argum
Äł human
Äł intel
Äł addition
Äł intellectual
Äł common
Äł begin
Äł suffici
Äł except
Äł transcendent
Äł element
Äł who
Äł With
Äł sole
Äł QU
Äł af
Äł err
Äł accom
Äł noumen
Äł construct
Äł AG
Äł Be
Äł contem
Äł LI
Äł embr
Äł accomp
Äł destroy
Äł meaning
Äł anci
Äł Gr
Äł accur
Äł THE
Äł accompan
Äł He
Äł endeavour
Äł becom
Äł advance
Äł absurd
Äł shall
Äł answer
Äł maj
Äł Princi
Äł anthropomorph
Äł prevent
Äł your
Äł keep
Äł particip
Äł avail
Äł requis
Äł abandon
Äł fort
Äł intention
Äł doctr
Äł impul
Äł conflict
Äł sett
Äł IND
Äł hel
Äł happen
Äł cast
Äł alter
Äł weight
Äł sensual
Äł commerci
Äł attack
Äł plan
Äł criter
Äł seek
Äł inevit
Äł isol
Äł empiric
Äł acknowled
Äł fulfil
Äł Introdu
Äł contempor
Äł esca
Äł blind
Äł obstac
Äł overlook
Äł apper
Äł oppon
Äł indubit
Äł omnipot
Äł REM
Äł escap
Äł awaken
Äł Sub
Äł indiscern
Äł sympat
Äł awa
Äł tell
Äł root
Äł earth
Äł rap
Äł controver
Äł arrog
Äł schemat
Äł thank
Äł return
Äł afford
Äł PRIN
Äł combat
Äł errone
Äł UNDER
Ġv ered
Ġv erest
Ġv ention
ĠB L
ĠB ERG
ĠB JECTIVE
Ġim er
Ġim ity
Ġim id
Ġim itive
Ġim itable
Ġim ilarly
Ġhe t
Ġhe st
Ġhe tical
Ġab or
Ġab our
Ġab ile
Ġab ilities
Ġno isseurs
Ġk en
Ġk ing
Ġus ality
Ġus iness
Ġus io
Ġus iveness
Ġif ul
Ġif ference
Ġif orm
Ġif icate
ĠF L
ĠF ORE
Ġone y
Ġqu i
Ġqu ire
Ġgiv er
ĠA D
ĠA T
ĠA BL
ac he
Ġad s
Ġad ly
Ġad ict
Ġad ox
Ġad istinction
ĠP L
ĠP TER
ĠP END
ĠP PENDIX
Ġy ers
Ġy right
Ġknow led
Ġpre ted
Ġpre hensible
Ġle y
Ġle ological
Ġle ments
Ġle brated
Ġch ive
Ġch itect
Ġch ievous
Ġar ing
Ġar mon
Ġar ying
Ġar ante
Ġar ched
Ġar ius
ĠS C
ĠS ITION
Ġph old
Ġph iboly
ĠN I
ĠN ITY
ĠO ND
ĠO SE
ĠO REM
ĠO OK
Ġser t
Ġpl ies
Ġpl anation
Ġuse ment
Ġow ers
Ġass ion
Ġpos ite
Ġpos itio
Ġfac es
Ġact ly
Ġact ory
Ġact orily
Ġag raph
Ġen n
Ġen esis
Ġen forceability
ĠR IN
ĠR TH
ĠR ECT
ĠE G
ĠE AS
Ġter ly
Ġter onomy
Ġter ior
Ġam ps
Ġam orph
Ġsim ony
Ġap se
Ġstr um
Ġstr atum
Ġres h
Ġres ent
ĠU C
ĠU D
ĠU RE
ĠU LAR
Ġill ain
Ġple x
Ġup il
Ġarr ow
Ġarr ant
Ġans as
Ġans ition
Ġel t
Ġac ent
Ġac her
Ġer o
Ġer v
Ġer on
Ġer ce
Ġer ation
Ġer ci
Ġer um
Ġer iori
Ġer ke
Ġer ving
Ġer cise
Ġer ms
Ġchange ably
Ġi og
Ġi ently
[...]
