{"<s>":0,"<pad>":1,"</s>":2,"<unk>":3,"<mask>":4,"!":5,"\"":6,"#":7,"$":8,"%":9,"&":10,"'":11,"(":12,")":13,"*":14,"+":15,",":16,"-":17,".":18,"/":19,"0":20,"1":21,"2":22,"3":23,"4":24,"5":25,"6":26,"7":27,"8":28,"9":29,":":30,";":31,"<":32,"=":33,">":34,"?":35,"@":36,"A":37,"B":38,"C":39,"D":40,"E":41,"F":42,"G":43,"H":44,"I":45,"J":46,"K":47,"L":48,"M":49,"N":50,"O":51,"P":52,"Q":53,"R":54,"S":55,"T":56,"U":57,"V":58,"W":59,"X":60,"Y":61,"Z":62,"[":63,"\\":64,"]":65,"^":66,"_":67,"`":68,"a":69,"b":70,"c":71,"d":72,"e":73,"f":74,"g":75,"h":76,"i":77,"j":78,"k":79,"l":80,"m":81,"n":82,"o":83,"p":84,"q":85,"r":86,"s":87,"t":88,"u":89,"v":90,"w":91,"x":92,"y":93,"z":94,"{":95,"|":96,"}":97,"~":98,"¡":99,"¢":100,"£":101,"¤":102,"¥":103,"¦":104,"§":105,"¨":106,"©":107,"ª":108,"«":109,"¬":110,"®":111,"¯":112,"°":113,"±":114,"²":115,"³":116,"´":117,"µ":118,"¶":119,"·":120,"¸":121,"¹":122,"º":123,"»":124,"¼":125,"½":126,"¾":127,"¿":128,"À":129,"Á":130,"Â":131,"Ã":132,"Ä":133,"Å":134,"Æ":135,"Ç":136,"È":137,"É":138,"Ê":139,"Ë":140,"Ì":141,"Í":142,"Î":143,"Ï":144,"Ð":145,"Ñ":146,"Ò":147,"Ó":148,"Ô":149,"Õ":150,"Ö":151,"×":152,"Ø":153,"Ù":154,"Ú":155,"Û":156,"Ü":157,"Ý":158,"Þ":159,"ß":160,"à":161,"á":162,"â":163,"ã":164,"ä":165,"å":166,"æ":167,"ç":168,"è":169,"é":170,"ê":171,"ë":172,"ì":173,"í":174,"î":175,"ï":176,"ð":177,"ñ":178,"ò":179,"ó":180,"ô":181,"õ":182,"ö":183,"÷":184,"ø":185,"ù":186,"ú":187,"û":188,"ü":189,"ý":190,"þ":191,"ÿ":192,"Ā":193,"ā":194,"Ă":195,"ă":196,"Ą":197,"ą":198,"Ć":199,"ć":200,"Ĉ":201,"ĉ":202,"Ċ":203,"ċ":204,"Č":205,"č":206,"Ď":207,"ď":208,"Đ":209,"đ":210,"Ē":211,"ē":212,"Ĕ":213,"ĕ":214,"Ė":215,"ė":216,"Ę":217,"ę":218,"Ě":219,"ě":220,"Ĝ":221,"ĝ":222,"Ğ":223,"ğ":224,"Ġ":225,"ġ":226,"Ģ":227,"ģ":228,"Ĥ":229,"ĥ":230,"Ħ":231,"ħ":232,"Ĩ":233,"ĩ":234,"Ī":235,"ī":236,"Ĭ":237,"ĭ":238,"Į":239,"į":240,"İ":241,"ı":242,"Ĳ":243,"ĳ":244,"Ĵ":245,"ĵ":246,"Ķ":247,"ķ":248,"ĸ":249,"Ĺ":250,"ĺ":251,"Ļ":252,"ļ":253,"Ľ":254,"ľ":255,"Ŀ":256,"ŀ":257,"Ł":258,"ł":259,"Ń":260,"Ġt":261,"he":262,"Ġa":263,"on":264,"in":265,"Ġo":266,"Ġthe":267,"re":268,"it":269,"Ġof":270,"is":271,"en":272,"at":273,"er":274,"Ġw":275,"Ġc":276,"ion":277,"Ġs":278,"Ġp":279,"al":280,"ic":281,"Ġin":282,"nd":283,"es":284,"Ġb":285,"Ġth":286,"or":287,"Ġto":288,"Ġm":289,"ce":290,"ct":291,"Ġf":292,"ing":293,"an":294,"ed":295,"Ġn":296,"Ġe":297,"se":298,"ou":299,"Ġis":300,"ly":301,"ĠĠ":302,"le":303,"Ġre":304,"Ġit":305,"Ġand":306,"Ġcon":307,"Ġd":308,"Ġbe":309,"st":310,"om":311,"ent":312,"Ġwh":313,"ot":314,"ar":315,"as":316,"ut":317,"ich":318,"ect":319,"Ġh":320,"Ġpr":321,"Ġas":322,"ll":323,"Ġwhich":324,"Ġthat":325,"Ġu":326,"the":327,"iv":328,"im":329,"ition":330,"ation":331,"os":332,"ity":333,"Ġan":334,"Ġex":335,"Ġon":336,"Ġl":337,"ical":338,"Ġnot":339,"ĠĠĠĠ":340,"pt":341,"Ġthis":342,"ject":343,"ess":344,"ow":345,"Ġwe":346,"ith":347,"Ġfor":348,"id":349,"bject":350,"Ġsu":351,"ib":352,"ence":353,"cept":354,"ter":355,"ure":356,"ld":357,"ir":358,"Ġg":359,"Ġwith":360,"th":361,"ur":362,"ci":363,"ver":364,"ĠI":365,"qu":366,"og":367,"ive":368,"res":369,"ist":370,"ception":371,"Ġor":372,"ason":373,"ay":374,"ere":375,"Ġcan":376,"gh":377,"ain":378,"ec":379,"Ġby":380,"if":381,"and":382,"sel":383,"per":384,"âĢ":385,"sib":386,"Ġall":387,"rom":388,"ul":389,"em":390,"Ġpro":391,"pp":392,"Ġreason":393,"ĠT":394,"Ġobject":395,"Ġare":396,"ve":397,"ate":398,"con":399,"ch":400,"Ġfrom":401,"end":402,"Ġde":403,"ust":404,"ore":405,"Ġint":406,"il":407,"Ġal":408,"ple":409,"Ġbut":410,"ther":411,"act":412,"hen":413,"us":414,"Ġits":415,"ossib":416,"Ġha":417,"Ġconception":418,"ill":419,"Ġonly":420,"aw":421,"am":422,"pl":423,"ab":424,"Ġun":425,"ould":426,"dition":427,"Ġat":428,"nder":429,"ough":430,"âĢĶ":431,"self":432,"de":433,"um":434,"ol":435,"inci":436,"ĠĠĠĠĠĠĠĠ":437,"ig":438,"Ġca":439,"Ġ(":440,"ans":441,"tain":442,"Ġour":443,"Ġthere":444,"min":445,"ies":446,"Ġlaw":447,"termin":448,"tr":449,"Ġmust":450,"Ġsp":451,"Ġcom":452,"not":453,"of":454,"cc":455,"ality":456,"Ġpossib":457,"Ġprinci":458,"Ġr":459,"est":460,"ecess":461,"resent":462,"ous":463,"Ġem":464,"Ġwor":465,"Ġso":466,"ide":467,"Ġpure":468,"Ġexist":469,"Ġother":470,"Ġme":471,"her":472,"Ġunder":473,"ience":474,"Ġhave":475,"perience":476,"Ġdetermin":477,"stand":478,"Ġtr":479,"Ġdo":480,"Äł":481,"ction":482,"Ġsen":483,"Ġv":484,"Ġmere":485,"Ġwill":486,"ogn":487,"fore":488,"ĠThe":489,"ime":490,"od":491,"ĠB":492,"use":493,"Ġcondition":494,"ary":495,"very":496,"Ġany":497,"Ġnecess":498,"ak":499,"pr":500,"ge":501,"omen":502,"Ġitself":503,"Ġim":504,"Ġhe":505,"ound":506,"Ġmay":507,"henomen":508,"Ġper":509,"ori":510,"Ġform":511,"Ġthem":512,"Ġab":513,"Ġnat":514,"all":515,"Ġno":516,"ad":517,"Ġthey":518,"standing":519,"ard":520,"Ġthing":521,"ame":522,"pir":523,"su":524,"Ġsy":525,"uition":526,"pos":527,"Ġtime":528,"Ġk":529,"ever":530,"able":531,"Ġreg":532,"Ġexperience":533,"ind":534,"iori":535,"pirical":536,"ose":537,"Ġus":538,"ility":539,"Ġif":540,"ant":541,"Ġsh":542,"ĠF":543,"ff":544,"Ġbeing":545,"ph":546,"ex":547,"endent":548,"Ġcannot":549,"ace":550,"actical":551,"ations":552,"art":553,"out":554,"Ġse":555,"Ġcogn":556,"ome":557,"Ġhas":558,"Ġone":559,"ud":560,"Ġst":561,"Ġqu":562,"Ġide":563,"Ġthese":564,"Ġphenomen":565,"Ġrel":566,"ves":567,"Ġev":568,"ĠBut":569,"Ġpossible":570,"ght":571,"ord":572,"present":573,"wh":574,"Ġmor":575,"ire":576,"ance":577,"Ġpriori":578,"Ġcons":579,"now":580,"Ġgiv":581,"Ġintuition":582,"ĠA":583,"our":584,"Ġj":585,"ative":586,"ac":587,"Ġnature":588,"Ġacc":589,"Ġman":590,"Ġempirical":591,"thing":592,"ult":593,"one":594,"ansc":595,"Ġwould":596,"ples":597,"Ãł":598,"Ġtherefore":599,"Ġsuch":600,"ement":601,"Ġapp":602,"Ġunderstanding":603,"Ġtheir":604,"Ġexistence":605,"un":606,"anscendent":607,"ca":608,"Ġconceptions":609,"ite":610,"sequ":611,"Ġpractical":612,"Ġad":613,"for":614,"Ġcognition":615,"Ġprinciple":616,"pon":617,"ally":618,"Ġsubject":619,"ĠFor":620,"nthe":621,"Ġregard":622,"ute":623,"ers":624,"ĠP":625,"to":626,"Ġdis":627,"ĠÃł":628,"selves":629,"Ġgiven":630,"position":631,"Ġy":632,"),":633,"ently":634,"Ġobjects":635,"so":636,"et":637,"Ġworld":638,"Ġmerely":639,"Ġknow":640,"anscendental":641,"which":642,"ight":643,"ict":644,"ong":645,"ions":646,"Ġpre":647,"ment":648,"here":649,"fere":650,"str":651,"ĠTh":652,"Ġle":653,"Ġwithout":654,"te":655,"feren":656,"cl":657,"Ġpart":658,"Ġch":659,"ener":660,"tical":661,"Ġphenomena":662,"Ġrepresent":663,"Ġsame":664,"Ġsome":665,"ertain":666,"Ġmoral":667,"Ġar":668,"sp":669,"Ġthings":670,"Ġevery":671,"Ġmeans":672,"Ġprinciples":673,"ĠĠĠĠĠĠĠĠĠĠĠĠĠĠĠĠ":674,"ces":675,"tern":676,"ought":677,"ake":678,"gement":679,"Ġsynthe":680,"ise":681,"sis":682,"sequently":683,"ie":684,"Ġwhat":685,"ĠS":686,"Ġhow":687,"atter":688,"Ġunity":689,"hing":690,"Ġph":691,"ated":692,"Ġnecessary":693,"sol":694,"ording":695,"el":696,"Ġeven":697,"Ġmy":698,"ress":699,"led":700,"ays":701,"Ġwho":702,"ens":703,"Ġhis":704,"pre":705,"Ġcase":706,"ppos":707,"fin":708,"ĠN":709,"oy":710,"ness":711,"op":712,"that":713,"cause":714,"ag":715,"phy":716,"udgement":717,"ternal":718,"Ġsub":719,"though":720,"ĠO":721,"int":722,"Ġthan":723,"Ġlaws":724,"eneral":725,"possib":726,"mat":727,"Ġser":728,"imit":729,"Ġmore":730,"Ġidea":731,"Ġfre":732,"Ġrelation":733,"solute":734,"Ġne":735,"Ġaction":736,"ced":737,"Ġma":738,"condition":739,"Ġcontain":740,"ecul":741,"Ġbecause":742,"du":743,"nect":744,"Ġalso":745,"Ġfar":746,"Ġdif":747,"Ġdoes":748,"ĠIn":749,"ilos":750,"ber":751,"be":752,"iz":753,"ledge":754,"ways":755,"Ġpresent":756,"Ġupon":757,"Ġcertain":758,"Ġpl":759,"Ġtranscendental":760,"Ġcaus":761,"Ġcomple":762,"Ġconditions":763,"Ġbel":764,"Ġnothing":765,"ort":766,"Ġend":767,"ĠIt":768,"Ġcont":769,"Ġpossibility":770,"ogical":771,"ĠG":772,"oll":773,"ĠW":774,"hether":775,"Ġinto":776,"reat":777,"Ġjudgement":778,"ond":779,"ational":780,"ulty":781,"ollow":782,"cious":783,"ue":784,"Ġthen":785,"Ġuse":786,"Ġwhen":787,"Ġaccording":788,"ost":789,"Ġcause":790,"Ġnever":791,"ffect":792,"Ġsense":793,"Ġproposition":794,"ploy":795,"Ġgr":796,"gor":797,"Ġgeneral":798,"irst":799,"ign":800,"Ġcontr":801,"Ġgo":802,"ategor":803,"The":804,"Ġconsequently":805,"uch":806,"rit":807,"Ġalone":808,"me":809,"Ġabsolute":810,"stem":811,"ĠC":812,"ial":813,"Ġproper":814,"Ġthought":815,"ast":816,"Ġow":817,"Ġhim":818,"Ġspace":819,"ivers":820,"Ġlimit":821,"ates":822,"Ġalways":823,"Ġass":824,"Ġrequ":825,"form":826,"Ġconnect":827,"Ġob":828,"conception":829,"ism":830,"Ġpos":831,"are":832,"Ġdes":833,"com":834,"ither":835,"Ġfound":836,"Ġthemselves":837,"Ġcomm":838,"Ġdist":839,"old":840,"Ġown":841,"Ġcould":842,"Ġknowledge":843,"Ġfac":844,"Ġshould":845,"possible":846,"Ġphilos":847,"fect":848,"ari":849,"pro":850,"Ġfollow":851,"Ġemploy":852,"Ġsay":853,"Ġalthough":854,"Ġseries":855,"Ġwas":856,"Ġobjective":857,"Ġcall":858,"Ġfirst":859,"spect":860,"ro":861,"ici":862,"Ġquest":863,"edom":864,"ish":865,"Ġrational":866,"Ġdifferen":867,"Ġrespect":868,"Ġbeen":869,"Ġpur":870,"with":871,"Ġrem":872,"Ġdisc":873,"other":874,"Ġconsid":875,"Ġcomplete":876,"ĠNow":877,"ach":878,"Ġinde":879,"ink":880,"ine":881,"ied":882,"Ġsystem":883,"Ġexam":884,"ered":885,"ĠH":886,"der":887,"Ġhapp":888,"Ġwhether":889,"Ġthus":890,"âĢľ":891,"âĢĿ":892,"ĠThis":893,"Ġact":894,"Ġfe":895,"we":896,"Ġext":897,"Ġbelong":898,"uth":899,"ination":900,"Ġfaculty":901,"Ġreality":902,"Ġformer":903,"Ġcategor":904,"xim":905,"iness":906,"ree":907,"eculative":908,"sess":909,"Ġsynthesis":910,"Ġvery":911,"Ġorder":912,"Ġag":913,"dic":914,"Ġval":915,"Ġsomething":916,"over":917,"Ġen":918,"Ġmake":919,"Ġlatter":920,"Ġhowever":921,"under":922,"suous":923,"Ġwere":924,"Ġground":925,"mit":926,"par":927,"uman":928,"less":929,"ciousness":930,"Ġplace":931,"Ġsci":932,"Ġunivers":933,"med":934,"ĠâĢľ":935,"Ġnecessity":936,"Ġyou":937,"Ġfreedom":938,"Ġgood":939,"ode":940,"pose":941,"Ġfind":942,"stit":943,"Ġcausality":944,"Ġthose":945,"ĠR":946,"by":947,"Ġeffect":948,"Ġwhole":949,"adict":950,"ĠE":951,"ell":952,"ics":953,"ha":954,"Ġpres":955,"object":956,"Ġthink":957,"preme":958,"Ġout":959,"aly":960,"Ġter":961,"Ġdut":962,"ile":963,"Ġexp":964,"wo":965,"Ġquestion":966,"Ġmaxim":967,"ke":968,"Ġsensib":969,"ophy":970,"Ġhuman":971,"Ġpossess":972,"sy":973,"ty":974,"reason":975,"exist":976,"ual":977,"Ġreal":978,"igin":979,"ove":980,"ear":981,"ser":982,"rough":983,"Ġjust":984,"Ġprodu":985,"Ġappl":986,"Ġpow":987,"Ġam":988,"Ġmind":989,"Ġperfect":990,"uten":991,"ĠIf":992,"av":993,"berg":994,"arily":995,"Ġyet":996,"utenberg":997,"Ġname":998,"Ġcrit":999,"this":1000,"oint":1001,"Ġspeculative":1002,"Ġmat":1003,"Ġsim":1004,"Ġatt":1005,"Ġdetermined":1006,"sen":1007,"oun":1008,"man":1009,"Ġsubst":1010,"Ġdifferent":1011,"phys":1012,"ogit":1013,"ication":1014,"edu":1015,"erest":1016,"lect":1017,"ible":1018,"ince":1019,"Ġrepresentation":1020,"Ġsphere":1021,"Ġsynthetical":1022,"iew":1023,"ural":1024,"ks":1025,"ceed":1026,"lf":1027,"ĠD":1028,"ived":1029,"Ġgreat":1030,"ological":1031,"Ġent":1032,"hed":1033,"Ġtwo":1034,"Ġbas":1035,").":1036,"Ġmanif":1037,"ike":1038,"Ġfact":1039,"ident":1040,"ble":1041,"Ġduty":1042,"hemat":1043,"Ġsec":1044,"Ġvalid":1045,"ffici":1046,"ory":1047,"Ġideas":1048,"roject":1049,"ule":1050,"Ġsensuous":1051,"cons":1052,"ang":1053,"ass":1054,"Ġincl":1055,"Ġinternal":1056,"determin":1057,"Ġimp":1058,"Ġthrough":1059,"Ġself":1060,"Ġdetermination":1061,"Ġshall":1062,"Ġcalled":1063,"cogn":1064,"Ġword":1065,"Ġscience":1066,"Ġperception":1067,"princi":1068,"conditioned":1069,"aract":1070,"rib":1071,"oo":1072,"Ġview":1073,"Ġorigin":1074,"ution":1075,"understanding":1076,"Ġsubjective":1077,"Ġfeel":1078,"ĠWe":1079,"aracter":1080,"ular":1081,"yp":1082,"yond":1083,"Ġconstit":1084,"Ġcor":1085,"Ġphilosophy":1086,"Th":1087,"ice":1088,"finite":1089,"ful":1090,"there":1091,"Ġinv":1092,"Ġhig":1093,"ogy":1094,"Ġpoint":1095,"Ġpurpose":1096,"ved":1097,"Ġrule":1098,"Ġabsolutely":1099,"usion":1100,"Ġexample":1101,"Ġhere":1102,"eci":1103,"necess":1104,"Ġnatural":1105,"Ġconsciousness":1106,"Ġmode":1107,"ents":1108,"oth":1109,"Ġshow":1110,"ange":1111,"Ġwhile":1112,"Ġuniversal":1113,"ted":1114,"Ġ_":1115,"Ġinf":1116,"Ġstill":1117,"Ġeach":1118,"Ġimpossible":1119,"Ġhimself":1120,"Ġbet":1121,"Ġest":1122,"Ġcogit":1123,"Ġnecessarily":1124,"Ġphenomenon":1125,"ĠProject":1126,"iate":1127,"ern":1128,"irect":1129,"Ġexternal":1130,"can":1131,"Ġexpl":1132,"Ġdetermine":1133,"Ġpower":1134,"Ġadmit":1135,"action":1136,"Ġinterest":1137,"sion":1138,"Ġconnection":1139,"ires":1140,"ner":1141,"Ġanother":1142,"Ġsens":1143,"Ġleast":1144,"wise":1145,"ating":1146,"Ġgive":1147,"aphys":1148,"Ġactions":1149,"Ġway":1150,"ellig":1151,"Ġbeyond":1152,"Ġintellig":1153,"Ġquite":1154,"Ġrequire":1155,"Ġquant":1156,"ĠGutenberg":1157,"Ġlike":1158,"Ġwell":1159,"experience":1160,"Ġhappiness":1161,"ĠRe":1162,"Ġnamely":1163,"Ġkind":1164,"Ġdetermining":1165,"atis":1166,"Ġmanifold":1167,"ĠM":1168,"ys":1169,"Ġnor":1170,"Ġeither":1171,"Ġourselves":1172,"ances":1173,"Ġhand":1174,"ught":1175,"Ġcontains":1176,"Ġap":1177,"Ġcategories":1178,"dis":1179,"abl":1180,"Ġindeed":1181,"age":1182,"its":1183,"Ġwhere":1184,"Ġstr":1185,"Ġconsider":1186,"Ġcharacter":1187,"Ġlimits":1188,"ccess":1189,"Ġconc":1190,"Ġdem":1191,"Ġappear":1192,"Ġproceed":1193,"phenomen":1194,"tic":1195,"atisf":1196,"Ġrest":1197,".,":1198,"Ġanaly":1199,"Ġstate":1200,"app":1201,"othe":1202,"ra":1203,"Ġmorality":1204,"gin":1205,"empt":1206,"ingu":1207,"ook":1208,"fficient":1209,"Ġref":1210,"Ġterm":1211,"ize":1212,"gum":1213,"Ġdiv":1214,"Ġsum":1215,"pposition":1216,"Ġcommon":1217,"Ġcontrary":1218,"Ġnotion":1219,"Ġproof":1220,"ypothe":1221,"ology":1222,"much":1223,"Ġcomp":1224,"ished":1225,"Ġadv":1226,"Ġsee":1227,"Ġmatter":1228,"Ġdedu":1229,"ĠThus":1230,"Ġcontradict":1231,"ark":1232,"ring":1233,"akes":1234,"reg":1235,"Ġfree":1236,"Ġassum":1237,"Ġfollows":1238,"Ġfeeling":1239,"ev":1240,"ference":1241,"But":1242,"Ġsupreme":1243,"existence":1244,"ĠL":1245,"Ġconcl":1246,"Ġrepresentations":1247,"conceptions":1248,"Ġconce":1249,"Ġsecond":1250,"contr":1251,"ences":1252,"ious":1253,"ably":1254,"Ġtrue":1255,"Ġboth":1256,"Ġtruth":1257,"Ġremain":1258,"Ġought":1259,"ER":1260,"sible":1261,"pendent":1262,"lu":1263,"Ġhad":1264,"Ġmost":1265,"und":1266,"mediate":1267,"Ġres":1268,"from":1269,"Ġsince":1270,"Ġdec":1271,"Ġ1":1272,"icism":1273,"Ġtake":1274,"Ġdistin":1275,"ĠReason":1276,"fter":1277,"stru":1278,"Ġmet":1279,"Ġparts":1280,"Ġsensibility":1281,"Ġpresu":1282,"ten":1283,"Ġsubstance":1284,"icular":1285,"ives":1286,"fic":1287,"ert":1288,"ween":1289,"Ġmuch":1290,"Ġmight":1291,"Ġbegin":1292,"Ġbeings":1293,"Ġmanner":1294,"Ġregards":1295,"ĠU":1296,"Ġattain":1297,"lear":1298,"Ġsupp":1299,"asmuch":1300,"Ġlogical":1301,"Ġpredic":1302,"Ġexpress":1303,"Ġconsist":1304,"Ġwork":1305,"Ġphys":1306,"irm":1307,"Ġcontent":1308,"Ġill":1309,"Ġable":1310,"Ġnow":1311,"intuition":1312,"Ġregarded":1313,"Ġmade":1314,"ited":1315,"Ġtot":1316,"Ġdirect":1317,"Ġbefore":1318,"Ġfoundation":1319,"aid":1320,"but":1321,"Ġaim":1322,"onstr":1323,"hest":1324,"Ġconf":1325,"Ġmathemat":1326,"represent":1327,"pposed":1328,"Ġdiscover":1329,"acc":1330,"pend":1331,"In":1332,"ma":1333,"Ġmot":1334,"osm":1335,"ving":1336,"Ġaff":1337,"Ġunconditioned":1338,"Ġargum":1339,"Ġconcept":1340,"estig":1341,"pond":1342,"tm":1343,"Ġhypothe":1344,"Ġexists":1345,"Ġconsidered":1346,"Ġcl":1347,"oid":1348,"ision":1349,"Ġconditioned":1350,"atic":1351,"Ġjudgements":1352,"Ġbetween":1353,"Ġquantity":1354,"Ġ[":1355,"respond":1356,"Ġothers":1357,"Ġabove":1358,"ĠAnd":1359,"son":1360,"oub":1361,"lement":1362,"empirical":1363,"Ġproble":1364,"ĠOn":1365,"ĠCon":1366,"ogic":1367,"rel":1368,"asure":1369,"ward":1370,"Ġsatisf":1371,"Ġthough":1372,"cise":1373,"ath":1374,"know":1375,"Ġdeg":1376,"Ġpropositions":1377,"principle":1378,"ene":1379,"pable":1380,"wor":1381,"Ġconform":1382,"ĠOf":1383,"OO":1384,"nat":1385,"Ġind":1386,"Ġsuccess":1387,"Ġdefin":1388,"sub":1389,"Ġset":1390,"Ġworth":1391,"Ġple":1392,"only":1393,"ules":1394,"ized":1395,"Ġstand":1396,"iqu":1397,"raph":1398,"utes":1399,"ialect":1400,"Ġclear":1401,"Ġsimple":1402,"Ġbased":1403,"red":1404,"omy":1405,"oretical":1406,"practical":1407,"Ġsour":1408,"agraph":1409,"Ġdesire":1410,"Ġagain":1411,"Ġup":1412,"aken":1413,"unction":1414,"Ġarr":1415,"being":1416,"read":1417,"ĠPure":1418,"Ġhighest":1419,"EN":1420,"Ġright":1421,"ife":1422,"Ġimper":1423,"Ġregress":1424,"Ġemployed":1425,"Ġestabl":1426,"thod":1427,"them":1428,"crib":1429,"Ġocc":1430,"Ġans":1431,"matical":1432,"ning":1433,"law":1434,"Ġmany":1435,"Ġcognitions":1436,"Ġcauses":1437,"Ġextend":1438,"TI":1439,"Ġder":1440,"perception":1441,"Ġobser":1442,"Ġconcern":1443,",âĢĿ":1444,"ĠGod":1445,"odu":1446,"Ġel":1447,"ON":1448,"Ġac":1449,"Ġleg":1450,"opher":1451,"theless":1452,"cognition":1453,"Ġer":1454,"Ġcompletely":1455,"Ġansw":1456,"Ġinasmuch":1457,"Ġanything":1458,"Ġimag":1459,"ique":1460,"ental":1461,"ep":1462,"Ġchange":1463,"Ġafter":1464,"avour":1465,"Ġrules":1466,"Ġpresented":1467,"Ġdistingu":1468,"certain":1469,"ignif":1470,"ount":1471,"mon":1472,"trib":1473,"Ġsole":1474,"Ġinfinite":1475,"Ġconsequ":1476,"Ġperson":1477,"Ġbelongs":1478,"Ġmaxims":1479,"Ġmetaphys":1480,"mum":1481,"It":1482,"Ġemployment":1483,"must":1484,"Ġseem":1485,"Ġparticular":1486,"Ġneed":1487,"Ġrequires":1488,"phenomena":1489,"tle":1490,"Ġconnected":1491,"ude":1492,"Ġnum":1493,"ather":1494,"Ġmod":1495,"Ġfur":1496,"Ġlife":1497,"Ġimmediate":1498,"Ġmyself":1499,"therefore":1500,"necessary":1501,"Ġresult":1502,"ention":1503,"irt":1504,"Ġgu":1505,"ection":1506,"cont":1507,"onum":1508,"Ġwant":1509,"ordance":1510,"Ġconting":1511,"Ġgrounds":1512,"Ġentire":1513,"hence":1514,"luence":1515,"OOK":1516,"Ġindic":1517,"Ġends":1518,"Ġeverything":1519,"ĠĠĠĠĠĠĠĠĠĠĠĠĠĠĠĠĠĠĠĠĠĠĠĠ":1520,"Ġvalidity":1521,"Ġapplication":1522,"Ġsystematic":1523,"Ġfin":1524,"Ġattempt":1525,"Ġreally":1526,"hes":1527,"mis":1528,"cy":1529,"Ġsc":1530,"mere":1531,"Ġcop":1532,"BOOK":1533,"ourse":1534,"Ġintuitions":1535,"Ġneg":1536,"ides":1537,"oul":1538,"Ġi":1539,"possibility":1540,"This":1541,"Ġinvestig":1542,"Ġtotality":1543,"subject":1544,"Ġ\"":1545,"HA":1546,"Ġnew":1547,"Ġmain":1548,"how":1549,"oubt":1550,"aim":1551,"Ġant":1552,"come":1553,"pect":1554,"contradict":1555,"'s":1556,"Ġelement":1557,"Ġcorrespond":1558,"Ġintelligible":1559,"part":1560,"duct":1561,"Ġside":1562,"Ġbod":1563,"itself":1564,"ercise":1565,"Ġbonum":1566,"Ġlogic":1567,"Ġmethod":1568,"conditions":1569,"Ġcontained":1570,"Ġassert":1571,"Ġcommand":1572,"Ġdegree":1573,"lig":1574,"Ġread":1575,"ase":1576,"Ġeas":1577,"Ġphysical":1578,");":1579,"Ġrather":1580,"Ġmean":1581,"Ġvirt":1582,"raw":1583,"isl":1584,"do":1585,"arr":1586,"Ġthereby":1587,"ension":1588,"Ġphilosopher":1589,"without":1590,"manent":1591,"Ġsenses":1592,"ov":1593,"ctr":1594,"ps":1595,"Ġbelie":1596,"Ġimport":1597,"If":1598,"Ġwords":1599,"ready":1600,"ĠTH":1601,"Ġmen":1602,"unity":1603,"Ġhence":1604,"transcendental":1605,"We":1606,"aking":1607,"go":1608,"Ġdog":1609,"Ġotherwise":1610,"ogress":1611,"bec":1612,"erial":1613,"Ġover":1614,"AL":1615,"TER":1616,"Ġerr":1617,"Ġnon":1618,"Ġspeci":1619,"Ġlong":1620,"paragraph":1621,"ily":1622,"ane":1623,"Ġless":1624,"Ġdemonstr":1625,"synthe":1626,"ided":1627,"Ġsol":1628,"Ġhold":1629,"Ġattrib":1630,"Ġabstr":1631,"Ġrelations":1632,"Ġremains":1633,"Ġanswer":1634,"ities":1635,"mor":1636,"anation":1637,"Ġequ":1638,"nature":1639,"Ġ^":1640,"Ġ{":1641,"ises":1642,"Ġsignif":1643,"Ġsoul":1644,"atever":1645,"Ġideal":1646,"Ġindependent":1647,"Ġbasis":1648,"Ġsummum":1649,"bit":1650,"Ġco":1651,"Ġperfectly":1652,"Ġtheoretical":1653,"Ġpost":1654,"Ġexcept":1655,"ĠThere":1656,"Ġformal":1657,"Ġaccordance":1658,"ĠThat":1659,"Ġproblem":1660,"Ġentirely":1661,"ob":1662,"CHA":1663,"PTER":1664,"dom":1665,"Ġmem":1666,"ĠPr":1667,"ĠSu":1668,"Ġneither":1669,"Ġes":1670,"Ġcontin":1671,"Ġsensible":1672,"Ġproperly":1673,"Ġinfluence":1674,"eing":1675,"Ġtoo":1676,"ually":1677,"although":1678,"Ġbound":1679,"Ġconduct":1680,"Ġgives":1681,"ĠHence":1682,"Ġthinking":1683,"Ġnumber":1684,"uthor":1685,"ency":1686,"Ġinqu":1687,"comple":1688,"ause":1689,"ceive":1690,"Ġbecome":1691,"Ġalready":1692,"Ġexplain":1693,"iar":1694,"Ġever":1695,"Ġsufficient":1696,"ases":1697,"osmological":1698,"rect":1699,"Ġsaid":1700,"priori":1701,"Ġprev":1702,"Ġdiffic":1703,"CHAPTER":1704,"men":1705,"Ġher":1706,"mall":1707,"ceived":1708,"ranscendental":1709,"Ġexercise":1710,"Ġaccount":1711,"ĠOF":1712,"Ġvirtue":1713,"will":1714,"ail":1715,"any":1716,"Â§":1717,"Ġut":1718,"Ġpleasure":1719,"Ġforms":1720,"inations":1721,"Ġdoubt":1722,"Ġdetermines":1723,"Ġdistinction":1724,"Ġident":1725,"hension":1726,"Ġess":1727,"ĠII":1728,"pure":1729,"Ġprov":1730,"Ġinst":1731,"Ġexpect":1732,"gr":1733,"Ġtaken":1734,"Ġdialect":1735,"Ġhar":1736,"Ġhop":1737,"cedure":1738,"Ġproduce":1739,"Ġcogitated":1740,"eculiar":1741,"lectual":1742,"Ġpass":1743,"Ġprove":1744,"Ġpreced":1745,"Ġdeduction":1746,"Ġargument":1747,"Ġelse":1748,"Ġ2":1749,"Ġmis":1750,"Ġden":1751,"Ġappre":1752,"Ġmaterial":1753,"Ġabout":1754,"Ġconstru":1755,"oundation":1756,"ĠAs":1757,"Ġapply":1758,"sensible":1759,"Ġerror":1760,"irc":1761,"dist":1762,"itive":1763,"Ġop":1764,"Ġrender":1765,"Ġcourse":1766,"Now":1767,"time":1768,"Ġaffect":1769,"Ġmakes":1770,"Ġprogress":1771,"Ġgener":1772,"ulties":1773,"ĠĠĠĠĠĠĠĠĠĠĠĠĠĠĠĠĠĠĠĠĠĠĠĠĠĠĠĠĠĠĠĠĠĠĠĠĠĠĠĠ":1774,"Ġoblig":1775,"Ġremark":1776,"Ġbeginning":1777,"up":1778,"Ġlies":1779,"Ġallow":1780,"Ġlimited":1781,"ĠĠĠ":1782,"Ġprom":1783,"Ġdepend":1784,"Ġvari":1785,"objects":1786,"consciousness":1787,"Ġpredicate":1788,"because":1789,"ties":1790,"regard":1791,"antage":1792,"Ġfall":1793,"Ġsuper":1794,"ext":1795,"Ġconscious":1796,"Ġapplied":1797,"uted":1798,"consequently":1799,"ĠBeing":1800,"cannot":1801,"Ġassume":1802,"Ġconsists":1803,"Ġimperative":1804,"Ġcopy":1805,"ability":1806,"Ġchang":1807,"Ġcognize":1808,"these":1809,"ppose":1810,"Ġexisting":1811,"pposite":1812,"Ġnevertheless":1813,"Ġquestions":1814,"have":1815,"sych":1816,"Ġaid":1817,"oc":1818,"Ġlook":1819,"Ġcapable":1820,"ĠTHE":1821,"Ġaw":1822,"Ġpeculiar":1823,"they":1824,"Ġshown":1825,"Ġexplanation":1826,"Ġlegisl":1827,"Ġmaintain":1828,"dequ":1829,"Ġpath":1830,"**":1831,"onic":1832,"Ġdraw":1833,"hema":1834,"ield":1835,"Ġdivision":1836,".âĢĿ":1837,"Ġfal":1838,"Ġwhose":1839,"Ġinclinations":1840,"principles":1841,"Ġhigher":1842,"Ġaffirm":1843,"Ġimagination":1844,"Ġsolely":1845,"merely":1846,"ctrine":1847,"dif":1848,"imate":1849,"sim":1850,"For":1851,"ined":1852,"overed":1853,"Ġunderstand":1854,"nt":1855,"Ġreference":1856,"Ġwhatever":1857,"Ġpurely":1858,"Ġaddition":1859,"Ġfollowing":1860,"Ġdifference":1861,"Ġcontradiction":1862,"connect":1863,"bl":1864,"Ġed":1865,"absolute":1866,"would":1867,"Ġprocedure":1868,"ĠSupreme":1869,"inte":1870,"ne":1871,"ically":1872,"ulative":1873,"ave":1874,"objective":1875,"teness":1876,"their":1877,"Ġadd":1878,"Ġagre":1879,"Ġwithin":1880,"Ġtermed":1881,"wards":1882,"Ġharmon":1883,"ogism":1884,"poses":1885,"strict":1886,"ont":1887,"Ġworks":1888,"_,":1889,"Ġwish":1890,"Ġcirc":1891,"Ġspe":1892,"Ġevident":1893,"Ġyour":1894,"Ġhappens":1895,"Ġillusion":1896,"Ġhypothesis":1897,"Ġsource":1898,"some":1899,"ull":1900,"disc":1901,"oumen":1902,"eavour":1903,"dequate":1904,"hib":1905,"ĠeB":1906,"Ġdone":1907,"Ġintel":1908,"Ġcertainly":1909,"Ġeffects":1910,"Ġinclination":1911,"Ġanalytical":1912,"Ġdefinition":1913,"Ġcontingent":1914,"Ġfalse":1915,"every":1916,"giv":1917,"onomy":1918,"Ġbr":1919,"orough":1920,"Ġund":1921,"ia":1922,"ĠY":1923,"what":1924,"lectr":1925,"Ġav":1926,"Ġcogitate":1927,"RE":1928,"whether":1929,"Ġsmall":1930,"Ġagainst":1931,"Ġhope":1932,"Ġce":1933,"io":1934,"ni":1935,"posed":1936,"haps":1937,"cor":1938,"Ġrelate":1939,"happ":1940,"according":1941,"right":1942,"Ġconj":1943,"Ġdid":1944,"Ġpermanent":1945,"Ġrepresented":1946,"Ġcategory":1947,"Ġfurther":1948,"cing":1949,"ting":1950,"ÄłÄł":1951,"moral":1952,"ential":1953,"amental":1954,"Ġcertainty":1955,"Ġempirically":1956,"Ġextension":1957,"determination":1958,"Ġdemand":1959,"undamental":1960,"Ġimmediately":1961,"Ġschema":1962,"Ġnegative":1963,"philos":1964,"lar":1965,"Ġsing":1966,"Ġvol":1967,"imes":1968,"proposition":1969,"Ġopposite":1970,"own":1971,"ĠTo":1972,"usions":1973,"ĠThey":1974,"Ġjustif":1975,"Ġsubstances":1976,"Ġsensation":1977,"Ġmathematics":1978,"relation":1979,"Ġintellectual":1980,"categor":1981,"les":1982,"urn":1983,"ix":1984,"Ġjud":1985,"etaphys":1986,"sist":1987,"Ġfut":1988,"oph":1989,"ply":1990,"Ġtreat":1991,"Ġbring":1992,"ĠTranscendental":1993,"ritique":1994,"Ġperfection":1995,"Ġconclusion":1996,"Ġdistinct":1997,"Ġconsequence":1998,"Ġinquir":1999,"idence":2000,"ignor":2001,"erse":2002,"Ġclaim":2003,"consid":2004,"complete":2005,"Ġte":2006,"Ġoper":2007,"ivid":2008,"ption":2009,"Ġspring":2010,"Ġadvantage":2011,"00":2012,"Ġintr":2013,"ĠAn":2014,"pposes":2015,"Ġendeavour":2016,"Ġproperties":2017,"Ġperceptions":2018,"knowledge":2019,"Ġconformity":2020,"yn":2021,"ses":2022,"oment":2023,"Ġconv":2024,"Ġserve":2025,"judgement":2026,"ised":2027,"even":2028,"Ġcorrect":2029,"ittle":2030,"Ġthree":2031,"Ġthorough":2032,"such":2033,"ĠAll":2034,"Ġaccordingly":2035,"Ġbelonging":2036,"representations":2037,"Ġseems":2038,"ck":2039,"des":2040,"inde":2041,"ead":2042,"ared":2043,"call":2044,"tog":2045,"imal":2046,"Ġpret":2047,"sh":2048,"Ġrelates":2049,"Ġdistrib":2050,"Ġvalue":2051,"Ġrests":2052,"toge":2053,"ishes":2054,"Ġfunction":2055,"Ġanal":2056,"Ġlie":2057,"Ġdeterminations":2058,"Ġabs":2059,"things":2060,"Ġdisposition":2061,"Ġcho":2062,"Ġproperty":2063,"Ġpossesses":2064,"Ġamong":2065,"themselves":2066,"Ġeasily":2067,"lectronic":2068,"together":2069,"limit":2070,"br":2071,"ird":2072,"ogene":2073,"llig":2074,"fer":2075,"sensuous":2076,"Ġbody":2077,"Ġapprehension":2078,"Ġagreement":2079,"hat":2080,"Ġobtain":2081,"Ġdiscovered":2082,"ĠHe":2083,"Ġextent":2084,"Ġcriter":2085,"Ġconceive":2086,"ĠĠĠĠĠĠĠĠĠĠĠĠĠĠĠĠĠĠĠĠĠĠĠĠĠĠĠĠĠĠĠĠĠĠĠĠĠĠĠĠĠ":2087,"Ġpar":2088,"asion":2089,"RA":2090,"odeict":2091,"All":2092,"ior":2093,"lection":2094,"Ġknown":2095,"Ġpowers":2096,"Ġinvol":2097,"Ġcases":2098,"always":2099,"Ġthereof":2100,"ĠFoundation":2101,"uded":2102,"Ġevent":2103,"Ġcriticism":2104,"Ġinfer":2105,"Ġapperception":2106,"ĠConsequently":2107,"Ġchanges":2108,"Ġfuture":2109,"gan":2110,"pres":2111,"ack":2112,"EC":2113,"Ġproved":2114,"ĠÂ§":2115,"Ġignor":2116,"Ġdeterminate":2117,"exam":2118,"Ġcritical":2119,"where":2120,"Ġauthor":2121,"Ġintu":2122,"Ġactual":2123,"Ġterms":2124,"ood":2125,"bitr":2126,"Ġful":2127,"ynam":2128,"no":2129,"world":2130,"hil":2131,"peci":2132,"Ġlead":2133,"Ġstrict":2134,"ech":2135,"Ġcontinu":2136,".[":2137,"ap":2138,"Ġmed":2139,"Ġnoumen":2140,"Ġlittle":2141,"ilar":2142,"Ġdoctrine":2143,"Ġexpression":2144,"Ġmathematical":2145,"Ġderived":2146,"Ġinvestigation":2147,"given":2148,"iverse":2149,"ower":2150,"ividual":2151,"Ġconceived":2152,"subst":2153,"pens":2154,"requ":2155,"Ġcompar":2156,"Ġante":2157,"may":2158,"esides":2159,"Ġmoment":2160,"Ġnay":2161,"Ġdynam":2162,"Ġsupposed":2163,"Ġhaving":2164,"Ġregulative":2165,"Ġconstitutes":2166,"ĠUn":2167,"Ġelements":2168,"does":2169,"Ġmember":2170,"leg":2171,"proc":2172,"rational":2173,"ferent":2174,"Ġask":2175,"atement":2176,"intellig":2177,"AR":2178,"Ġet":2179,"Ġsupport":2180,"reedom":2181,"Ġinfin":2182,"ended":2183,"ĠThese":2184,"sufficient":2185,"aces":2186,"ensive":2187,"Ġanalysis":2188,"Ġsuccession":2189,"Ġestablished":2190,"Ġdifficulty":2191,"hend":2192,"pur":2193,"IS":2194,"just":2195,"Ġsolution":2196,"llogism":2197,"Ġcompleteness":2198,"Ġsch":2199,"Ġfield":2200,"Ġexhib":2201,"Ġtrans":2202,"Ġarises":2203,"ĠEx":2204,"Ġrequired":2205,"Ġseek":2206,"Ġaims":2207,"Ġmotive":2208,"Ġarguments":2209,"Ġestablish":2210,"Ġdistinguish":2211,"Ġmetaphysics":2212,"however":2213,"Ġcorresponding":2214,"bel":2215,"rem":2216,"nit":2217,"fe":2218,"ordin":2219,"ety":2220,"Ġrecogn":2221,"Ġprof":2222,"Ġpain":2223,"Ġexcl":2224,"Ġspont":2225,"Ġcomb":2226,"Ġvain":2227,"Ġrequis":2228,"Ġdiscus":2229,"Ġapart":2230,"Ġdirectly":2231,"Ġsources":2232,"Ġdogmatical":2233,"Ġprevious":2234,"Ġsingle":2235,"Ġspontane":2236,"caus":2237,"Ġins":2238,"TION":2239,"comm":2240,"ole":2241,"never":2242,"Ġregarding":2243,"Ġfr":2244,"Ġcognized":2245,"inomy":2246,"Ġonce":2247,"Ġsupposition":2248,"Ġhel":2249,"Ġperhaps":2250,"ĠĠĠĠĠĠĠĠĠĠĠĠĠĠĠĠĠĠĠĠ":2251,"ĠCritique":2252,"Ġdesign":2253,"Ġenough":2254,"Ġuniversality":2255,"Ġgreatest":2256,"Thus":2257,"Ġintelligence":2258,"Ġobserv":2259,"Ġanteced":2260,"iving":2261,"quest":2262,"dem":2263,"Ġ3":2264,"Ġtoge":2265,"arn":2266,"synthetical":2267,"Ġtogether":2268,"most":2269,"Ġtakes":2270,"ingdom":2271,"Ġbecom":2272,"Ġevil":2273,"Ġsatisfaction":2274,"ophical":2275,"inion":2276,"Ġcosmological":2277,"ĠIde":2278,"Ġtranscendent":2279,"ĠSuch":2280,"eculation":2281,"Ġpresents":2282,"Ġfaculties":2283,"Ġcategorical":2284,"Ġlikewise":2285,"representation":2286,"Ġsuccessive":2287,"Ġabstract":2288,"Ġsupersensible":2289,"Ġdynamical":2290,"row":2291,"att":2292,"imp":2293,"istic":2294,"ask":2295,"Ġcome":2296,"ising":2297,"Ġcompre":2298,"name":2299,"general":2300,"incl":2301,"nothing":2302,"elled":2303,"Section":2304,"Ġthird":2305,"Ġdon":2306,"Ġsur":2307,"Ġaltogether":2308,"ĠAr":2309,"Ġpursu":2310,"Ġproduced":2311,"Ġconstitution":2312,"Ġbetter":2313,"Ġsuppose":2314,"Ġoccup":2315,"Ġmeaning":2316,"Ġdialectical":2317,"Ġpreceding":2318,"appl":2319,"respect":2320,"follow":2321,"Ġke":2322,"igh":2323,"Ġbl":2324,"proper":2325,"ivity":2326,"ense":2327,"ft":2328,"abour":2329,"Ġey":2330,"Ġrestrict":2331,"atively":2332,"Ġoften":2333,"Ġpsych":2334,"Ġelectronic":2335,"Ġdel":2336,"capable":2337,"Ġdestr":2338,"Ġhumanity":2339,"Ġcritique":2340,"sense":2341,"Ġapodeict":2342,"Ġpredicates":2343,"Ġconstruct":2344,"Ġharmony":2345,"Ġintrodu":2346,"called":2347,"icable":2348,"Ġfore":2349,"appear":2350,"nihil":2351,"Ġing":2352,"ific":2353,"system":2354,"vel":2355,"ensions":2356,"separ":2357,"II":2358,"itum":2359,"oriz":2360,"Ġ5":2361,"Ġappro":2362,"ogeneous":2363,"ines":2364,"Ġappearance":2365,"Ġopposition":2366,"Ġfull":2367,"uting":2368,"Ġexact":2369,"Ġunless":2370,"Ġra":2371,"Ġkingdom":2372,"uding":2373,"Ġstates":2374,"Ġprecept":2375,"Ġarise":2376,"Ġmanifest":2377,"Ġrefer":2378,"Ġadvance":2379,"Ġimportance":2380,"Ġaffected":2381,"Ġrequisite":2382,"inv":2383,"IN":2384,"sum":2385,"Ġ*":2386,"produ":2387,"Ġche":2388,"thought":2389,"consist":2390,"Ġessential":2391,"has":2392,"ium":2393,"Ġsort":2394,"Ġlast":2395,"Ġvoid":2396,"space":2397,"ĠSp":2398,"Ġobjectively":2399,"Ġsimply":2400,"Ġdecl":2401,"contradiction":2402,"Ġreader":2403,"Ġattribute":2404,"Ġbounds":2405,"Ġcircum":2406,"something":2407,"Ġcriterion":2408,"pecially":2409,"Ġhelp":2410,"ĠV":2411,"ctive":2412,"comp":2413,"ometr":2414,"ments":2415,"ubl":2416,"ison":2417,"idance":2418,"ccording":2419,"Ġlet":2420,"Ġagree":2421,"bers":2422,"Ġadequate":2423,"Ġorgan":2424,"Ġappears":2425,"Ġbelief":2426,"alone":2427,"utonomy":2428,"Ġsoon":2429,"Ġleave":2430,"Ġarbitr":2431,"Ġmoreover":2432,"means":2433,"formation":2434,"Ġactually":2435,"determined":2436,"Ġconstitute":2437,"Ġadmitted":2438,"Ġconcepts":2439,"Ġindividual":2440,"laws":2441,"Ġabstraction":2442,"Ġsignific":2443,"Ġpostul":2444,"ĠPrinci":2445,"Ġaway":2446,"namely":2447,"employ":2448,"icip":2449,"cre":2450,"Ġear":2451,"univers":2452,"iction":2453,"consider":2454,"ES":2455,"Ġfinite":2456,"place":2457,"ĠJ":2458,"sc":2459,"then":2460,"Ġline":2461,"cribe":2462,"Ġavoid":2463,"latter":2464,"atum":2465,"quant":2466,"ooks":2467,"love":2468,"reality":2469,"Ġinev":2470,"Ġfundamental":2471,"ceptions":2472,"Ġuniverse":2473,"Ġro":2474,"ĠBy":2475,"ĠSection":2476,"Ġpositive":2477,"Ġplaced":2478,"Ġgreater":2479,"Ġoriginal":2480,"necessity":2481,"Ġpresuppose":2482,"known":2483,"Ġfurn":2484,"Ġconjunction":2485,"Ġvolition":2486,"Ġinevit":2487,"perfect":2488,"pe":2489,"ying":2490,"distingu":2491,"echan":2492,"urd":2493,"ciproc":2494,"contain":2495,"ĠK":2496,"ENT":2497,"iter":2498,"Ġsepar":2499,"ages":2500,"RO":2501,"Ġtest":2502,"utive":2503,"constit":2504,"speculative":2505,"Ġcreat":2506,"ote":2507,"pty":2508,"olly":2509,"Ġcare":2510,"mathemat":2511,"alytic":2512,"Ġconcre":2513,"phenomenon":2514,"Ġphilosophers":2515,"Ġidentical":2516,"Ġvarious":2517,"conf":2518,"metaphys":2519,"ĠRE":2520,"Ġly":2521,"RAN":2522,"ool":2523,"worth":2524,"ula":2525,"TH":2526,"ren":2527,"There":2528,"pter":2529,"Ġge":2530,"sibility":2531,"ffort":2532,"div":2533,"Ġoff":2534,"Ġimportant":2535,"Ġutter":2536,"Ġetc":2537,"freedom":2538,"itle":2539,"Ġwit":2540,"cience":2541,"Ġevents":2542,"Ġdisp":2543,"Ġuseful":2544,"Ġfounded":2545,"Ġexamination":2546,"mitted":2547,"Ġdeduced":2548,"Ġmotives":2549,"Ġclearly":2550,"Ġdistinguished":2551,"Ġindicates":2552,"synthesis":2553,"Ġbrought":2554,"happiness":2555,"categories":2556,"phist":2557,"Ġ4":2558,"ground":2559,"ins":2560,"Ġens":2561,"ip":2562,"hetic":2563,"Ġcarr":2564,"Ġscept":2565,"Ġfa":2566,"ures":2567,"Ġposition":2568,"Ġclaims":2569,"upon":2570,"Ġtask":2571,"Ġwis":2572,"Ġunable":2573,"Ġspeculation":2574,"Ġperceive":2575,"possess":2576,"Ġstatement":2577,"ourselves":2578,"Ġlearn":2579,"Ġleft":2580,"Ġacting":2581,"Ġsciences":2582,"Ġpossession":2583,"Ġattention":2584,"Ġconsideration":2585,"Ġhypothetical":2586,"Ġaccept":2587,"Ġacqu":2588,"Ġresults":2589,"Ġcopyright":2590,"Ġspeak":2591,"ĠeBook":2592,"Ġeyes":2593,"cogit":2594,"iber":2595,"Every":2596,"my":2597,"Ġput":2598,"urs":2599,"etermin":2600,"fac":2601,"opt":2602,"Ġcre":2603,"him":2604,"ublic":2605,"CE":2606,"arch":2607,"Ġsuffici":2608,"Ġgen":2609,"Ġdeterminable":2610,"Ġtheology":2611,"Ġwhom":2612,"Ġwholly":2613,"ends":2614,"Ġadopt":2615,"Ġmorals":2616,"Ġinterests":2617,"Ġpresupposes":2618,"Ġdirected":2619,"Ġstands":2620,"Ġconsequences":2621,"Ġantinomy":2622,"connection":2623,"Ġbecomes":2624,"ven":2625,"lt":2626,"gg":2627,"lict":2628,"speci":2629,"change":2630,"Ġstep":2631,"val":2632,"ata":2633,"arks":2634,"Ġgain":2635,"Ġsimilar":2636,"Ġdrawn":2637,"Ġopp":2638,"Ġmental":2639,"Ġfavour":2640,"Ġforce":2641,"ending":2642,"his":2643,"ishing":2644,"Ġcosm":2645,"ously":2646,"Ġempty":2647,"unconditioned":2648,"ĠSt":2649,"Ġlimitation":2650,"Ġdesires":2651,"Ġexamples":2652,"Ġenable":2653,"Ġmotion":2654,"Ġproblematical":2655,"Ġguidance":2656,"Ġindicate":2657,"Ġattempts":2658,"mission":2659,"Ġbodies":2660,"Ġespecially":2661,"Ġlegislation":2662,"absolutely":2663,"Ġapodeictic":2664,"Ġcircumst":2665,"Ġsignificance":2666,"Ġconcreto":2667,"tot":2668,"think":2669,"presu":2670,"pic":2671,"Ġlight":2672,"tun":2673,"ortion":2674,"question":2675,"more":2676,"Ġfig":2677,"nderstanding":2678,"posite":2679,"cribed":2680,"satisf":2681,"atives":2682,"stood":2683,"Ġprop":2684,"ume":2685,"Ġaccom":2686,"?âĢĿ":2687,"xi":2688,"Ġopposed":2689,"Ġsure":2690,"Ġdefinite":2691,"Ġdeser":2692,"Ġpurposes":2693,"series":2694,"pendence":2695,"Ġoccasion":2696,"Ġconcerns":2697,"Ġcommands":2698,"Ġdogmat":2699,"Ġinstead":2700,"Ġobliged":2701,"Ġdepends":2702,"ĠYou":2703,"philosophy":2704,"Ġjustified":2705,"Ġjudge":2706,"Ġschool":2707,"Ġinsight":2708,"Ġarbitrary":2709,"ĠÃ":2710,"inction":2711,"ured":2712,"aint":2713,"interest":2714,"izing":2715,"arent":2716,"avoid":2717,"used":2718,"Ġphilosophical":2719,"When":2720,"into":2721,"Ġreach":2722,"Ġwhy":2723,"Ġhigh":2724,"Ġforth":2725,"Ġsyllogism":2726,"Ġphenomenal":2727,"ached":2728,"ĠWhen":2729,"Ġcommunity":2730,"Ġhappen":2731,"manence":2732,"Ġsubjectively":2733,"Ġmodes":2734,"contradictory":2735,"Ġassertions":2736,"Ġeasy":2737,"Ġbelieve":2738,"Ġchoice":2739,"Ġdestroy":2740,"iterary":2741,"Ġgeometr":2742,"Ġwisdom":2743,"oly":2744,"END":2745,"belong":2746,"gu":2747,"analy":2748,"kind":2749,"Ġta":2750,"Ġold":2751,"icense":2752,"origin":2753,"free":2754,"Ġtimes":2755,"Ġinter":2756,"pline":2757,"should":2758,"iment":2759,"ively":2760,"ately":2761,"conform":2762,"udes":2763,"Ġsought":2764,"angement":2765,"Ġconver":2766,"Ġsubtle":2767,"good":2768,"Gutenberg":2769,"To":2770,"either":2771,"same":2772,"Ġeffort":2773,"Ġprior":2774,"impossible":2775,"cipline":2776,"chive":2777,"predic":2778,"pposing":2779,"Ġrespecting":2780,"Ġuniversally":2781,"Ġfinds":2782,"Ġwhereby":2783,"Ġreflection":2784,"Ġextended":2785,"Ġderive":2786,"Ġidentity":2787,"Ġconstruction":2788,"Ġopinion":2789,"Ġgenerally":2790,"different":2791,"causality":2792,"Ġkeep":2793,"Ġinevitably":2794,"faculty":2795,"ltimate":2796,"IT":2797,"rop":2798,"sens":2799,"IC":2800,"real":2801,"ms":2802,"Ġwise":2803,"ged":2804,"eduction":2805,"Ġdom":2806,"asing":2807,"than":2808,"demonstr":2809,"emark":2810,"Ġcoun":2811,"purpose":2812,"Ġmag":2813,"could":2814,"Ġautonomy":2815,"Ġcol":2816,"also":2817,"Ġincapable":2818,"Ġbesides":2819,"Ġmaking":2820,"Ġmechan":2821,"cede":2822,"Ġprimal":2823,"Ġannihil":2824,"Ġlay":2825,"ĠĠĠĠĠĠĠ":2826,"those":2827,"Ġexisted":2828,"Ġregion":2829,"whole":2830,"case":2831,"Ġpractically":2832,"Ġeveryone":2833,"Ġsubordin":2834,"Ġproduces":2835,"Ġcompelled":2836,"Ġassumed":2837,"Ġconclusions":2838,"Ġmetaphysic":2839,"Ġcontingency":2840,"Ġfinally":2841,"Ġindependently":2842,"Ġinquiry":2843,"ĠAnalytic":2844,"Ġcomparison":2845,"intelligible":2846,"Ġutterly":2847,"etermined":2848,"iding":2849,"success":2850,"Ġfully":2851,"path":2852,"ibility":2853,"character":2854,"Ġpe":2855,"ENTAL":2856,"ĠAN":2857,"content":2858,"jud":2859,"cess":2860,"like":2861,"itable":2862,"imin":2863,"mort":2864,"ru":2865,"arge":2866,"struction":2867,"Ġtable":2868,"Ġhon":2869,"Ġattained":2870,"Project":2871,"internal":2872,"Ġtheory":2873,"Ġredu":2874,"Ġdown":2875,"Ġexper":2876,"Ġlabour":2877,"Ġnotions":2878,"usory":2879,"Ġuncondition":2880,"idea":2881,"Ġtransc":2882,"Ġimpl":2883,"Ġheter":2884,"anted":2885,"stratum":2886,"ferences":2887,"Ġduties":2888,"sensibility":2889,"fully":2890,"Ġpoints":2891,"Ġcontradictory":2892,"contrary":2893,"Ġconflict":2894,"Ġarrive":2895,"Ġmembers":2896,"Ġfunctions":2897,"substance":2898,"Ġinfinity":2899,"Ġdonations":2900,"Ġcosmical":2901,"crit":2902,"prov":2903,"enetr":2904,"UT":2905,"greg":2906,"hensible":2907,"Ġart":2908,"SC":2909,"ists":2910,"ification":2911,"ckon":2912,"far":2913,"erit":2914,"conce":2915,"expl":2916,"acy":2917,"iang":2918,"matter":2919,"ief":2920,"ounce":2921,"Ġsecure":2922,"anger":2923,"ww":2924,"ings":2925,"ars":2926,"adv":2927,"irection":2928,"Ġgiving":2929,"Ġaccess":2930,"former":2931,"aight":2932,"science":2933,"ret":2934,"eriori":2935,"Ġsake":2936,"Ġindis":2937,"Ġtowards":2938,"Ġfill":2939,"Ġdirection":2940,"omogeneous":2941,"Ġcanon":2942,"Ġdef":2943,"Ġdependent":2944,"actions":2945,"Ġtherein":2946,"Ġmeet":2947,"piricism":2948,"Ġmorally":2949,"Ġadm":2950,"been":2951,"ĠWith":2952,"ĠWhat":2953,"itherto":2954,"ĠHow":2955,"necessarily":2956,"Ġkinds":2957,"ĠLiterary":2958,"Ġpresupposed":2959,"Ġarrangement":2960,"Ġspecial":2961,"ĠPractical":2962,"ĠIII":2963,"Ġdialectic":2964,"Ġoperations":2965,"Ġsufficiently":2966,"non":2967,"abstr":2968,"Re":2969,"great":2970,"ante":2971,"Ġsequ":2972,"discover":2973,"light":2974,"correspond":2975,"soci":2976,"hig":2977,"Ġ9":2978,"ash":2979,"compre":2980,"when":2981,"orrow":2982,"How":2983,"first":2984,"alent":2985,"Ġprud":2986,"immediate":2987,"elf":2988,"universal":2989,"isible":2990,"Ġprob":2991,"Ġperceived":2992,"ÄłÄłÄłÄł":2993,"oin":2994,"times":2995,"Ġfan":2996,"Ġnone":2997,"Ġreciproc":2998,"Ġpriv":2999,"Ġexposition":3000,"Ġlos":3001,"urally":3002,"oretic":3003,"usiness":3004,"Ġcomposite":3005,"Ġrise":3006,"external":3007,"Ġevidence":3008,"Ġaccident":3009,"Ġmaj":3010,"Ġplain":3011,"Ġpurity":3012,"Ġfear":3013,"Ġproduct":3014,"determining":3015,"Ġwhereas":3016,"Ġstraight":3017,"Ġtotal":3018,"Ġclass":3019,"Ġequal":3020,"ĠTherefore":3021,"Ġdeny":3022,"Ġobligation":3023,"ĠeBooks":3024,"Ġpretensions":3025,"Ġanalogy":3026,"limited":3027,"Ġignorance":3028,"Ġspontaneity":3029,"Ġcomprehend":3030,"ĠArchive":3031,"Ġpsychology":3032,"ĠPrinciples":3033,"Ġcarry":3034,"OR":3035,"Ġir":3036,"investig":3037,"den":3038,"ian":3039,"lev":3040,"effect":3041,"occ":3042,"obser":3043,"xiom":3044,"press":3045,"subsist":3046,"point":3047,"ixed":3048,"eem":3049,"since":3050,"org":3051,"pensable":3052,"Ġsever":3053,"Ġunited":3054,"What":3055,"side":3056,"Ġfail":3057,"Ġreceived":3058,"Ġdivers":3059,"Ġassoci":3060,"Ġultimate":3061,"Ġlove":3062,"ifice":3063,"Ġreasoning":3064,"Ġdefect":3065,"Ġsophist":3066,"ĠAccording":3067,"sphere":3068,"Ġsubstratum":3069,"Ġcontaining":3070,"existent":3071,"That":3072,"Ġfeelings":3073,"ĠConceptions":3074,"Ġimperatives":3075,"Ġobserve":3076,"Ġattributes":3077,"Ġsignification":3078,"Ġprevent":3079,"Ġprovided":3080,"Ġopen":3081,"Ġanalog":3082,"Ġnoumenon":3083,"mortality":3084,"iangle":3085,"ND":3086,"Su":3087,"vious":3088,"asant":3089,"reng":3090,"AS":3091,"cceed":3092,"hand":3093,"ibnit":3094,"ibnitz":3095,"itude":3096,"eibnitz":3097,"power":3098,"ites":3099,"ator":3100,"missible":3101,"Ġspecies":3102,"lat":3103,"Ġsk":3104,"Ġpublic":3105,"amed":3106,"Ġpresence":3107,"struct":3108,"Ġtitle":3109,"Ġshe":3110,"Ġback":3111,"Ġfour":3112,"sthetic":3113,"uty":3114,"ĠIm":3115,"Ġdet":3116,"ĠFrom":3117,"ĠPro":3118,"Ġplan":3119,"Ġcontem":3120,"ĠGeneral":3121,"Ġassign":3122,"withstanding":3123,"ĠUnderstanding":3124,"Ġstandard":3125,"certainty":3126,"Ġassertion":3127,"Ġlonger":3128,"Ġdemonstrate":3129,"Ġlegislative":3130,"Ġundetermined":3131,"Ġcease":3132,"propositions":3133,"Ġthoroughly":3134,"Ġabsurd":3135,"Ġparagraph":3136,"Ġnoumena":3137,"Ġpreviously":3138,"ĠSpace":3139,"Ġoppon":3140,"Ġcircumstances":3141,"Ġschools":3142,"avoidable":3143,"Ġseveral":3144,"uthoriz":3145,"vol":3146,"ired":3147,"attain":3148,"claim":3149,"velop":3150,"apt":3151,"inf":3152,"ĠOR":3153,"eness":3154,"Ġused":3155,"ization":3156,"ild":3157,"ially":3158,"angu":3159,"OU":3160,"opular":3161,"contin":3162,"particular":3163,"uous":3164,"Ġworthy":3165,"Ġpract":3166,"through":3167,"ignity":3168,"iberty":3169,"valid":3170,"tion":3171,"Ġsight":3172,"Ġrec":3173,"Ġhum":3174,"Ġjustice":3175,")âĢĶ":3176,"Pr":3177,"Wh":3178,"air":3179,"iting":3180,"Ġwrit":3181,"Ġpast":3182,"Ġindu":3183,"Ġinformation":3184,"Ġmention":3185,"Ġrece":3186,"Ġconfin":3187,"Ġhitherto":3188,"Ġasc":3189,"irmed":3190,"Ġprocess":3191,"Ġunknown":3192,"Ġvent":3193,"ounded":3194,"Ġformula":3195,"Ġnaturally":3196,"ademark":3197,"Ġquality":3198,"Ġrelatively":3199,"ĠAt":3200,"Ġpartly":3201,"Ġchain":3202,"Ġenlar":3203,"hapter":3204,"Ġminds":3205,"manif":3206,"Ġproceeds":3207,"Ġdecide":3208,"Ġdefined":3209,"Ġmetaphysical":3210,"Ġprovide":3211,"Ġdemands":3212,"Ġintuited":3213,"ĠUnited":3214,"Ġdiscuss":3215,"Ġobservation":3216,"Ġfurnish":3217,"mot":3218,"joy":3219,"post":3220,"izes":3221,"truth":3222,"proceed":3223,"turn":3224,"uit":3225,"natural":3226,"***":3227,"ater":3228,"throp":3229,"adequate":3230,"Ġ=":3231,"Ġturn":3232,"rest":3233,"issim":3234,"Ġsa":3235,"theoretical":3236,"well":3237,"ustr":3238,"Ġheld":3239,"Ġsatisfied":3240,"cribes":3241,"Ġconcerned":3242,"Ġsent":3243,"Ġinsepar":3244,"Ġbene":3245,"Ġborrow":3246,"Ġbusiness":3247,"Ġfirm":3248,"Ġelev":3249,"Ġdata":3250,"Ġweight":3251,"Ġsucceed":3252,"Ġcomposition":3253,"Ġpermanence":3254,"Ġstud":3255,"aches":3256,"ĠSo":3257,"ĠSy":3258,"ĠOur":3259,"Ġcontrib":3260,"Ġobst":3261,"Ġobsc":3262,"Ġdiscern":3263,"âĢĿ;":3264,"Ġadmitting":3265,"Ġquantities":3266,"Ġafford":3267,"relate":3268,"Ġwants":3269,"Ġdemonstration":3270,"Ġholds":3271,"Ġproblems":3272,"Ġdenied":3273,"Ġvariety":3274,"everything":3275,"Ġsprings":3276,"Ġignorant":3277,"example":3278,"Ġauthority":3279,"Ġdiscussion":3280,"Ġantecedent":3281,"Ġforeign":3282,"Ġexactly":3283,"quantity":3284,"Ġscepticism":3285,"Ġdomain":3286,"Ġmajor":3287,"ug":3288,"Ġang":3289,"Ġom":3290,"look":3291,"als":3292,"play":3293,"maxim":3294,"TIC":3295,"nex":3296,"Ġmist":3297,"seless":3298,"ialectic":3299,"ED":3300,"aff":3301,"say":3302,"before":3303,"distinguish":3304,"ENDENTAL":3305,"SCENDENTAL":3306,"Ġpun":3307,"uring":3308,"ified":3309,"Ġunderstood":3310,"Ġproduction":3311,"Ġexpected":3312,"Ġadded":3313,"By":3314,"ople":3315,"Ġaxiom":3316,"rees":3317,"itled":3318,"least":3319,"Ġdest":3320,"Ġdanger":3321,"entific":3322,"Ġlost":3323,"Ġlower":3324,"ceptivity":3325,"oliness":3326,"ĠĠĠĠĠĠĠĠĠ":3327,"Ġpossibly":3328,"Äłin":3329,"Ġimmortality":3330,"Ġperform":3331,"Ġapparent":3332,"ĠPh":3333,"aged":3334,"Ġscientific":3335,"Ġpreser":3336,"Ġapplies":3337,"ĠDe":3338,"Ġimpul":3339,"Ġconstitutive":3340,"Ġadmits":3341,"Ġpresupposition":3342,"Ġillusory":3343,"Ġindif":3344,"Ġafterwards":3345,"Ġantit":3346,"Ġinstance":3347,"Ġ200":3348,"connected":3349,"Ġspeaking":3350,"Ġinquiries":3351,"Ġabsence":3352,"Ġearth":3353,"RANSCENDENTAL":3354,"Ġefforts":3355,"issimum":3356,"Äłc":3357,"psych":3358,"draw":3359,"vere":3360,"conting":3361,"Äłs":3362,"attempt":3363,"On":3364,"ico":3365,"cies":3366,"stant":3367,"mind":3368,"oubted":3369,"Ġgl":3370,"igion":3371,"Ġcap":3372,"Ġseen":3373,"Ġeng":3374,"neg":3375,"after":3376,"Ġtry":3377,"physical":3378,"urity":3379,"Ġintention":3380,"actory":3381,"Ġimage":3382,"indic":3383,"Ġqual":3384,"arer":3385,"Ġapplicable":3386,"Ġpay":3387,"Ġinference":3388,"Ġmark":3389,"edience":3390,"Ġeth":3391,"Ġreckon":3392,"Ġdignity":3393,"utation":3394,"Ġproves":3395,"Ġtriangle":3396,"Ġnecessit":3397,"Ġstreng":3398,"oney":3399,"ĠNay":3400,"Ġsubsum":3401,"ĠCosmological":3402,"Ġremo":3403,"Ġexamine":3404,"Ġoriginate":3405,"Ġdivided":3406,"Ġdeduce":3407,"Ġconclude":3408,"Ġsecondly":3409,"Ġindirect":3410,"beings":3411,"Ġdemonstrated":3412,"Ġequally":3413,"Ġrenders":3414,"Ġsmallest":3415,"completely":3416,"Ġendeavours":3417,"Ġconviction":3418,"Ġexhibit":3419,"Ġraised":3420,"mathematics":3421,"worthy":3422,"Ġlearned":3423,"Ġdiversity":3424,"consequ":3425,"Äłf":3426,"express":3427,"gress":3428,"super":3429,"expect":3430,"ggest":3431,"As":3432,"ae":3433,"Ġfit":3434,"JEC":3435,"Ġauthoriz":3436,"Ġcr":3437,"Ġanci":3438,"irit":3439,"again":3440,"appre":3441,"independent":3442,"Ġfigure":3443,".)":3444,"_.":3445,"lies":3446,"Ġestim":3447,"subjective":3448,"Ġproportion":3449,"manifold":3450,",\"":3451,"Transcendental":3452,"ges":3453,"gutenberg":3454,"overy":3455,"take":3456,"inasmuch":3457,"Ġbest":3458,"Ġmerit":3459,"Ġmoney":3460,"another":3461,"Ġreceive":3462,"Ġforces":3463,"thus":3464,"Ġdevelop":3465,"Ġspirit":3466,"Ġempiricism":3467,"Äłre":3468,"orious":3469,"ĠPU":3470,"ĠPRO":3471,"Ġrepresents":3472,"ĠĠĠĠĠĠĠĠĠĠĠĠĠĠĠĠĠĠ":3473,"ĠNo":3474,"Ġsubl":3475,"imitive":3476,"Ġdifferences":3477,"ĠHere":3478,"Ġaggreg":3479,"Ġproceeding":3480,"Ġanalytic":3481,"Ġreflect":3482,"Ġbegins":3483,"Ġexpressions":3484,"Ġhypotheses":3485,"cisely":3486,"Ġdegrees":3487,"Ġinvestigations":3488,"going":3489,"Ġposteriori":3490,"Ġesca":3491,"Ġerrors":3492,"Ġinvolves":3493,"Ġinferred":3494,"nitude":3495,"Ġprofess":3496,"Ġpostulate":3497,"himself":3498,"ĠStates":3499,"Ġprivate":3500,"Ġloss":3501,"subsistent":3502,"anguage":3503,"gl":3504,"icians":3505,"conc":3506,"pri":3507,"legisl":3508,"regress":3509,"feel":3510,"Con":3511,"ST":3512,"ains":3513,"umer":3514,"you":3515,"asser":3516,"ify":3517,"ERG":3518,"jun":3519,"oined":3520,"vice":3521,"step":3522,"Ġformed":3523,"proof":3524,"BERG":3525,"oper":3526,"Ġusu":3527,"while":3528,"Ġconsistent":3529,"Ġguard":3530,"Ġcontinue":3531,"Ġallowed":3532,"ares":3533,"Ġpopular":3534,"Ġrep":3535,"ased":3536,"Ġones":3537,"ulate":3538,"Ġhabit":3539,"notion":3540,"Ġobserved":3541,"Ġinvolved":3542,"Ġleads":3543,"Ġaccomp":3544,"Hence":3545,"two":3546,"Ġtheoretic":3547,"Ġwishes":3548,"Ġsign":3549,"Ġincre":3550,"ouble":3551,"Ġreturn":3552,"entially":3553,"Ġholiness":3554,"Ġascribe":3555,"Ġanimal":3556,"Ġexc":3557,"Ġnotwithstanding":3558,"ĠTime":3559,"Ġobjections":3560,"Ġcomes":3561,"ideas":3562,"Ġanyone":3563,"Ġforming":3564,"Ġshort":3565,"Ġsubjects":3566,"Ġdisappear":3567,"ternally":3568,"Ġserves":3569,"Ġplaces":3570,"Ġfollowed":3571,"Ġremarks":3572,"ĠHume":3573,"Ġactivity":3574,"Ġfew":3575,"Ġextensive":3576,"Ġthinks":3577,"Ġrealissimum":3578,"Ġenter":3579,"Ġincluded":3580,"determine":3581,"Ġshows":3582,"Ġrequirement":3583,"Ġappearances":3584,"Ġproofs":3585,"ficial":3586,"Ġexpresses":3587,"Ġsatisfy":3588,"Ġnegation":3589,"Ġcoexistence":3590,"Ġinquire":3591,"Ġprecedes":3592,"Ġpromise":3593,"ĠYOU":3594,"ĠIdeas":3595,"Ġcheck":3596,"employment":3597,"cogitate":3598,"ĠÃ¦":3599,"Ġpeople":3600,"Ġindispensable":3601,"Reason":3602,"tt":3603,"por":3604,"hypothe":3605,"Ġ7":3606,"erc":3607,"cond":3608,"argum":3609,"Ġont":3610,"ik":3611,"Ġren":3612,"ITY":3613,"imag":3614,"ained":3615,"bid":3616,"human":3617,"andon":3618,"ember":3619,"Ġsearch":3620,"Ġways":3621,"conscious":3622,"Ġ6":3623,"itimate":3624,"Ġexception":3625,"plic":3626,".\"":3627,"Ġmo":3628,"sely":3629,"From":3630,"til":3631,"Ġcal":3632,"Ġsays":3633,"Ġbad":3634,"Ġbold":3635,"Ġmult":3636,"lease":3637,"Ġbeh":3638,"Ġhomogeneous":3639,"Ġpros":3640,"Ġexec":3641,"Ġextr":3642,"Ġliberty":3643,"istance":3644,"âĢĻ":3645,"Ġdev":3646,"olution":3647,"Ġviz":3648,"Ġimmanent":3649,"Ġpersu":3650,"Ġpermission":3651,"evertheless":3652,"Ġdiscipline":3653,"Ġdisplay":3654,"Ġprecede":3655,"finitum":3656,"Ġcausal":3657,"Ġendless":3658,"ĠGUT":3659,"ĠCh":3660,"Ġobedience":3661,"ishment":3662,"Ġrespects":3663,"Ġdiscovery":3664,"Ġfee":3665,"Ġenjoy":3666,"ĠEm":3667,"Ġattend":3668,"ĠDo":3669,"ĠDiv":3670,"Ġentitled":3671,"determines":3672,"Ġstrong":3673,"Ġconsiderations":3674,"Ġrefund":3675,"Ġcommonly":3676,"Ġcomply":3677,"Ġassumption":3678,"ĠLeibnitz":3679,"ENBERG":3680,"Ġoccur":3681,"Ġpersons":3682,"Ġguide":3683,"Ġschemat":3684,"Ġcopies":3685,"morality":3686,"Ġcoexistent":3687,"Ġpromot":3688,"regards":3689,"Ġavail":3690,"Ġchoose":3691,"Ġfulf":3692,"Ġcontinuous":3693,"Ġinfinitum":3694,"inclination":3695,"Ġblind":3696,"Ġconstructed":3697,"Ġintroduce":3698,"Ġprecepts":3699,"consistent":3700,"Ġseparate":3701,"Ġcreature":3702,"Ġstatements":3703,"Ġgenu":3704,"Ġgeometry":3705,"Ġunconditional":3706,"conceit":3707,"Ġassociated":3708,"Ġsophistical":3709,"Ġopponent":3710,"JECT":3711,"ĠGUTENBERG":3712,"ref":3713,"fortun":3714,"oblig":3715,"dog":3716,"defin":3717,"logical":3718,"ultiv":3719,"ician":3720,"SE":3721,"itect":3722,"concern":3723,"diffic":3724,"inct":3725,"depend":3726,"pass":3727,"Äłun":3728,"unte":3729,"pret":3730,"Ġmediate":3731,"line":3732,"ank":3733,"Ġur":3734,"ustom":3735,"found":3736,"Ġplay":3737,"influence":3738,"Ġangles":3739,"infinite":3740,"Ġholy":3741,"Ġprim":3742,"pleasure":3743,"order":3744,"Ġaccur":3745,"Ġlea":3746,"anged":3747,"Ġsafe":3748,"contingent":3749,"foundation":3750,"were":3751,"Ġtw":3752,"hesis":3753,"inary":3754,"atio":3755,"erted":3756,"Ġwond":3757,"Ġcost":3758,"Ġpaid":3759,"Ġinferences":3760,"Ġbu":3761,"leological":3762,"Ġreceptivity":3763,"Ġconstant":3764,"Ġhist":3765,"owed":3766,"Ġsuggest":3767,"Ġreasons":3768,"Ġunavoidable":3769,"Ġimpossibility":3770,"Ġheav":3771,"Ġreligion":3772,"Ġaccord":3773,"nthetical":3774,"Ġknows":3775,"straint":3776,"Ġparty":3777,"ĠSolution":3778,"solution":3779,"Ġgoes":3780,"aching":3781,"ĠEpic":3782,"exists":3783,"Ġconstituted":3784,"ĠMor":3785,"Ġcommonest":3786,"Ġassuming":3787,"ĠLicense":3788,"Ġattainment":3789,"accordance":3790,"Ġdefine":3791,"Ġderiv":3792,"cognitions":3793,"Ġimagine":3794,"Ġcorresponds":3795,"Ġspecif":3796,"Ġidealism":3797,"Ġutility":3798,"Ġremarkable":3799,"regarded":3800,"Ġfalls":3801,"judgements":3802,"Ġmedium":3803,"ART":3804,"nevertheless":3805,"application":3806,"follows":3807,"Ġadvanced":3808,"metaphysics":3809,"ursive":3810,"totality":3811,"Ġtax":3812,"Ġmagnitude":3813,"Ġmechanism":3814,"Ġhonest":3815,"Ġexperiment":3816,"Ġimplies":3817,"corresponding":3818,"investigation":3819,"Ġstudy":3820,"Ġantithesis":3821,"plicity":3822,"supp":3823,"PL":3824,"equ":3825,"ient":3826,"iol":3827,"Ġmin":3828,"conci":3829,"Äłm":3830,"proble":3831,"Ġstru":3832,"view":3833,"deg":3834,"observ":3835,"inqu":3836,"ors":3837,"imer":3838,"conv":3839,"concept":3840,"intel":3841,"OG":3842,"PR":3843,"che":3844,"alt":3845,"oured":3846,"addition":3847,"Ġusing":3848,"IR":3849,"scept":3850,"alogism":3851,"second":3852,"intellectual":3853,"find":3854,"signif":3855,"ndered":3856,"Ġforward":3857,"ĠNO":3858,"Ġacts":3859,"Ġaware":3860,"brated":3861,"nor":3862,"Ġtal":3863,"Äłd":3864,"Ġappe":3865,"Ġcharge":3866,"Ġgrad":3867,"Ġhappy":3868,"ables":3869,"Ġphysics":3870,"Ġconvin":3871,"inions":3872,"lebrated":3873,"Ġaside":3874,"Ġlist":3875,"Ġlanguage":3876,"Ġweak":3877,"Ġproposed":3878,"Ġreasonable":3879,"ĠTO":3880,"Ġuntil":3881,"ĠĠĠĠĠĠĠĠĠĠĠĠ":3882,"Ġtrademark":3883,"Ġdoctr":3884,"Ġhead":3885,"Ġpermit":3886,"presented":3887,"Ġadapt":3888,"etent":3889,"Ġsometimes":3890,"Ġarising":3891,"ĠNat":3892,"ĠNot":3893,"Ġsubsist":3894,"Ġfrequ":3895,"beyond":3896,"These":3897,"Ġlimitations":3898,"Ġsaying":3899,"ĠEvery":3900,"ĠEven":3901,"Ġattached":3902,"ĠDeduction":3903,"Ġsecret":3904,"Ġesteem":3905,"Ġconcluded":3906,"Ġillustr":3907,"Ġconfess":3908,"Ġaffirmed":3909,"Ġdesired":3910,"Ġfinal":3911,"Ġdifficult":3912,"Ġessentially":3913,"Ġmaterials":3914,"Ġpromote":3915,"Ġcircle":3916,"considered":3917,"Ġdistribution":3918,"substances":3919,"Ġtransgress":3920,"Ġcombination":3921,"Ġoccupied":3922,"systematic":3923,"division":3924,"satisfaction":3925,"Ġsyllogisms":3926,"Ġsubordinate":3927,"highest":3928,"immediately":3929,"Ġrecourse":3930,"Ġventure":3931,"Ġinseparably":3932,"Ġaxioms":3933,"Ġengaged":3934,"junctive":3935,"ĠÃ¦sthetic":3936,"Ġontological":3937,"Ġleaves":3938,"inter":3939,"EM":3940,"pot":3941,"establ":3942,"tal":3943,"olog":3944,"inst":3945,"ili":3946,"preced":3947,"require":3948,"Ġver":3949,"Ġfortun":3950,"Ġimit":3951,"oyal":3952,"dedu":3953,"fact":3954,"show":3955,"Ġation":3956,"common":3957,"IL":3958,"ream":3959,"ened":3960,"ceasing":3961,"ivalent":3962,"ilst":3963,"positive":3964,"mention":3965,"Ġ15":3966,"distinction":3967,"philosopher":3968,"orizon":3969,"unteers":3970,"ling":3971,"Ġ0":3972,"Ġprot":3973,"Ġlines":3974,"ĠIV":3975,"trodu":3976,"Ġvan":3977,"Ġprep":3978,"ĠDI":3979,"Ġ20":3980,"Ġprudence":3981,"Ġskill":3982,"Of":3983,"duty":3984,"fundamental":3985,"give":3986,"rong":3987,"rule":3988,"yet":3989,"inity":3990,"Ġobe":3991,"itas":3992,"Ġwide":3993,"Ġsac":3994,"Ġinsufficient":3995,"ingly":3996,"Ġhind":3997,"Ġprimitive":3998,"Ġascribed":3999,"Ġsuitable":4000,"urious":4001,"Ġunlimited":4002,"trans":4003,"Ġcompl":4004,"Ġmeasure":4005,"Ġimposes":4006,"Ġheart":4007,"Ġperi":4008,"acity":4009,"Ġaddu":4010,"ĠSEC":4011,"ressions":4012,"ĠInt":4013,"Ġcomplex":4014,"ĠIts":4015,"ĠWh":4016,"ĠWhether":4017,"Ġgoal":4018,"Ġgover":4019,"Ġemploying":4020,"ĠHis":4021,"Ġprescribes":4022,"Ġsubstant":4023,"ĠDis":4024,"Ġincluding":4025,"determinations":4026,"Ġcharacteristic":4027,"Ġdeclar":4028,"Ġconfirm":4029,"Ġdiscovering":4030,"OOF":4031,"Ġmoder":4032,"Ġwanting":4033,"Ġinvestigate":4034,"Ġanticip":4035,"parts":4036,"Ġexplained":4037,"Ġgenera":4038,"Ġfalla":4039,"Ġpathological":4040,"Ġaffirmative":4041,"Ġadditional":4042,"Ġdefinitions":4043,"Ġjustify":4044,"indeed":4045,"Ġobtained":4046,"examination":4047,"requires":4048,"Ġschol":4049,"Ġprofound":4050,"Ġantecedes":4051,"applied":4052,"properly":4053,"Ġpsychological":4054,"Ġreferred":4055,"Ġdeclared":4056,"Ġorganized":4057,"Ġroot":4058,"ĠKant":4059,"Ġcarefully":4060,"Ġcreation":4061,"total":4062,"comprehensible":4063,"Ġreciprocal":4064,"Ġdefective":4065,"ASON":4066,"lato":4067,"Ġcontempl":4068,"Ġpractice":4069,"apprehension":4070,"ĠPROJECT":4071,"Ġsigns":4072,"Ġgenuine":4073,"PROOF":4074,"Ġord":4075,"IM":4076,"attrib":4077,"imper":4078,"vey":4079,"rupt":4080,"Ġget":4081,"direct":4082,"sing":4083,"restrict":4084,"begin":4085,"appro":4086,"import":4087,"doubt":4088,"fall":4089,"main":4090,"itious":4091,"ery":4092,"Ġled":4093,"suffici":4094,"except":4095,"An":4096,"ACE":4097,"theology":4098,"transcendent":4099,"According":4100,"PRE":4101,"cul":4102,"element":4103,"iences":4104,"labour":4105,"uel":4106,"Ġpat":4107,"entire":4108,"among":4109,"who":4110,"Ġclose":4111,"work":4112,"ixt":4113,"analytical":4114,"advantage":4115,"//":4116,"reme":4117,"ick":4118,"Ġefficient":4119,"Ġdur":4120,"chitect":4121,"ants":4122,"ARK":4123,"Ġfruit":4124,"://":4125,"And":4126,"ging":4127,"mode":4128,"opposition":4129,"Ġtre":4130,"Ġtill":4131,"really":4132,"Ġwar":4133,"Ġsound":4134,"Ġinj":4135,"Ġinstruction":4136,"orical":4137,"Ġreject":4138,"Ġwhilst":4139,"aries":4140,"Ġhyp":4141,"iments":4142,"Ġforbid":4143,"Ġsuff":4144,"Ġattr":4145,"Ġspaces":4146,"Ġtrouble":4147,"ĠBesides":4148,"Ġpermitted":4149,"Ġabandon":4150,"Ġsym":4151,"antages":4152,"Ġstart":4153,"Ġrelated":4154,"Ġevid":4155,"acing":4156,"ĠPhenomen":4157,"soever":4158,"Ġprejud":4159,"Ġcha":4160,"ĠĠĠĠĠĠĠĠĠĠĠĠĠĠĠĠĠĠĠ":4161,"Ġthence":4162,"Ġwhence":4163,"Ġgranted":4164,"ĠCON":4165,"Ġconnects":4166,"Ġobvious":4167,"Ġdesc":4168,"Ġcommence":4169,"Ġcommun":4170,"Ġremove":4171,"otherwise":4172,"Ġindependence":4173,"ĠEgo":4174,"existing":4175,"ĠDialectic":4176,"Ġinclude":4177,"cognize":4178,"Ġsensations":4179,"Ġrequirements":4180,"Ġdivine":4181,"Ġcontradictions":4182,"Ġsupply":4183,"Ġexpressed":4184,"intuitions":4185,"Ġconfidence":4186,"Ġconfused":4187,"made":4188,"ĠOnly":4189,"Ġacute":4190,"Ġattributed":4191,"Ġdifficulties":4192,"Ġherself":4193,"Ġdoubts":4194,"Ġaffirmation":4195,"objectively":4196,"Ġsmaller":4197,"Ġcelebrated":4198,"Ġteleological":4199,"Ġoperation":4200,"Ġcombined":4201,"ĠIdea":4202,"Ġoccupies":4203,"following":4204,"Ġraise":4205,"ĠJudgement":4206,"perfectly":4207,"ĠREM":4208,"ĠREASON":4209,"Everything":4210,"Ġgenus":4211,"species":4212,"changeable":4213,"Ġaccompl":4214,"Ġdeserves":4215,"conformity":4216,"Ġconversely":4217,"Ġsubordinated":4218,"Ġreduce":4219,"Ġheteronomy":4220,"Ġadmir":4221,"ĠWithout":4222,"abstraction":4223,"Ġsequence":4224,"ĠSynthetical":4225,"Ġomni":4226,"Ġdestination":4227,"Ġimpulses":4228,"Ġaggregate":4229,"Ġescape":4230,"Ġoneself":4231,"Ġschemata":4232,"Ġminor":4233,"Ġperiod":4234,"Ex":4235,"vers":4236,"ĠIN":4237,"anteced":4238,"dec":4239,"Ġability":4240,"person":4241,"posing":4242,"abstract":4243,"ATION":4244,"CT":4245,"big":4246,"ox":4247,"enomen":4248,"lead":4249,"Äłp":4250,"Ġlying":4251,"AM":4252,"bod":4253,"nce":4254,"concl":4255,"similar":4256,"ugment":4257,"With":4258,"iable":4259,"itio":4260,"itions":4261,"ift":4262,"pleasant":4263,"Ġtrib":4264,"maintain":4265,"aps":4266,"aenomen":4267,"atus":4268,"anthrop":4269,"statement":4270,"Ġspect":4271,"acher":4272,"Ġadmissible":4273,"ialectical":4274,"face":4275,"iance":4276,"Ġcultiv":4277,"Ġsection":4278,"urality":4279,"econd":4280,"Ġalter":4281,"Ġrid":4282,"supposition":4283,"Ġmortal":4284,"unal":4285,"Ġ10":4286,"relations":4287,"Ġsatisfactory":4288,"Ġsett":4289,"Ġlegitimate":4290,"Ġcounter":4291,"assert":4292,"both":4293,"each":4294,"make":4295,"Ġtast":4296,"Ġtyp":4297,"Ġair":4298,"isable":4299,"isibility":4300,"Ġwrong":4301,"Ġcur":4302,"Ġsides":4303,"Ġslight":4304,"alog":4305,"Ġfive":4306,"ouse":4307,"Ġisol":4308,"Ġrendered":4309,"Ġdict":4310,"state":4311,"utions":4312,"ected":4313,"Ġhy":4314,"theological":4315,"Ġexposed":4316,"Ġlose":4317,"Ġloc":4318,"Ġsusp":4319,"quite":4320,"Ġpropose":4321,"Ġobjection":4322,"Ġdeep":4323,"Ġalong":4324,"above":4325,"Ġunceasing":4326,"umber":4327,"umption":4328,"true":4329,"Ġrank":4330,"Ġmeant":4331,"prop":4332,"Ġimposed":4333,"exercise":4334,"Ġseat":4335,"Ġstated":4336,"Ġrelating":4337,"ĠPlato":4338,"Ġdisjunctive":4339,"Ġpremis":4340,"Ġprecisely":4341,"Ġparties":4342,"Ġchimer":4343,"ĠSince":4344,"ĠNe":4345,"ĠNevertheless":4346,"ĠObject":4347,"Ġservice":4348,"Ġpresenting":4349,"ĠCom":4350,"astic":4351,"Ġasserted":4352,"Ġgoodness":4353,"Ġoutside":4354,"Ġpossessed":4355,"ounces":4356,"Ġimpart":4357,"ĠMat":4358,"ĠMetaphys":4359,"Ġcompare":4360,"Ġadvantages":4361,"Ġillusions":4362,"Ġrightly":4363,"Ġextending":4364,"Ġconcerning":4365,"certainly":4366,"Ġmodality":4367,"Ġequivalent":4368,"Ġsignifies":4369,"completeness":4370,"Ġutmost":4371,"simple":4372,"Ġedifice":4373,"Ġharmonize":4374,"Ġundoubted":4375,"Ġconjoined":4376,"Ġtreats":4377,"Ġdistribute":4378,"Ġdistributing":4379,"Ġcriteria":4380,"Ġstrictly":4381,"Ġexhibits":4382,"Ġexcluded":4383,"Ġpursue":4384,"Ġblame":4385,"Ġdelusion":4386,"Ġforegoing":4387,"Ġapproxim":4388,"summum":4389,"ĠSpeculative":4390,"ĠPrinciple":4391,"consideration":4392,"contains":4393,"contained":4394,"grounds":4395,"Ġadopted":4396,"thinking":4397,"belonging":4398,"predicates":4399,"sensation":4400,"Ġannihilated":4401,"succession":4402,"explanation":4403,"Ġsequel":4404,"ĠAccordingly":4405,"Ġconfine":4406,"Ġborrowed":4407,"Ġobstac":4408,"Ġpreserve":4409,"Ġstrength":4410,"ttp":4411,"hypothesis":4412,"Ġbehind":4413,"degree":4414,"Ġgovern":4415,"ixture":4416,"Ġduration":4417,"correct":4418,"RI":4419,"ibly":4420,"affirm":4421,"progress":4422,"occup":4423,"80":4424,"set":4425,"gain":4426,"Äłl":4427,"command":4428,"VE":4429,"author":4430,"ger":4431,"gener":4432,"ier":4433,"oot":4434,"orm":4435,"sole":4436,"clear":4437,"sour":4438,"iform":4439,"Ġpleasant":4440,"ARRAN":4441,"cks":4442,"ee":4443,"fit":4444,"icion":4445,"ott":4446,"construction":4447,"pright":4448,"uncondition":4449,"compar":4450,"avoured":4451,"aneous":4452,"ogeneity":4453,"inquir":4454,"Here":4455,"deduction":4456,"Ġtaking":4457,"Ġbre":4458,"utable":4459,"Ġlink":4460,"abs":4461,"Ġunion":4462,"Äłb":4463,"ope":4464,"Ġcogitating":4465,"Ġattempted":4466,"ashion":4467,"expected":4468,"Chapter":4469,"God":4470,"Let":4471,"dialectical":4472,"might":4473,"nay":4474,"Ġtend":4475,"Ġtell":4476,"Ġthesis":4477,"reference":4478,"itate":4479,"Ġcle":4480,"Ġpenetr":4481,"Ġinward":4482,"Ġfict":4483,"sec":4484,"Ġresol":4485,"Ġrecomm":4486,"Ġreplace":4487,"Ġconstraint":4488,"Ġdr":4489,"Ġdim":4490,"Ġdream":4491,"Ġbear":4492,"Ġhid":4493,"Ġhard":4494,"Ġexert":4495,"Ġlaid":4496,"ĠTRANSCENDENTAL":4497,"conceived":4498,"Ġdepr":4499,"Ġintended":4500,"usive":4501,"illusion":4502,"Ġunworthy":4503,"Ġthereto":4504,"ofold":4505,"Ġundert":4506,"Ġwills":4507,"Ġanywhere":4508,"Ġformat":4509,"Ġstop":4510,"ĠAuthor":4511,"unless":4512,"Ġsubjected":4513,"ĠPer":4514,"Ġdisclaim":4515,"Ġprefer":4516,"Ġarchitect":4517,"ternity":4518,"Ġwhatsoever":4519,"ĠSto":4520,"Ġnearer":4521,"Ġcompletion":4522,"Ġgrant":4523,"ĠCategor":4524,"ĠChapter":4525,"Ġthoughts":4526,"comb":4527,"Ġconsiders":4528,"Ġenables":4529,"ĠEBOOK":4530,"serve":4531,"Ġambig":4532,"manner":4533,"manuel":4534,"Ġoriginated":4535,"ĠMy":4536,"Ġcompared":4537,"evident":4538,"ĠLogic":4539,"Ġattaining":4540,"Ġbeforehand":4541,"empirically":4542,"ĠConception":4543,"Ġsets":4544,"Ġdistinguishing":4545,"Ġpersonal":4546,"Ġnumer":4547,"aneously":4548,"ailed":4549,"anything":4550,"Ġexpectation":4551,"Ġapprehend":4552,"Ġopinions":4553,"Ġallowable":4554,"Ġpromises":4555,"Ġdependence":4556,"regarding":4557,"extension":4558,"Ġmaintained":4559,"difference":4560,"Ġbringing":4561,"Ġteach":4562,"Ġteaches":4563,"Ġcorrectness":4564,"limits":4565,"Ġasked":4566,"Ġseeking":4567,"Ġrecognize":4568,"Ġrecognized":4569,"Ġspontaneous":4570,"ĠĠĠĠĠĠĠĠĠĠĠĠĠĠĠĠĠĠĠĠĠĠĠ":4571,"ĠIdeal":4572,"including":4573,"ĠJust":4574,"Ġroom":4575,"distinguished":4576,"mathematical":4577,"insic":4578,"presupposes":4579,"predicate":4580,"Ġannihilate":4581,"Ġhonour":4582,"Ġtranscend":4583,"Ġheterogeneous":4584,"Ġprobably":4585,"Ġanalogies":4586,"ĠImmanuel":4587,"validity":4588,"Ġmentioned":4589,"Ġreceiving":4590,"drawn":4591,"Ġethics":4592,"Ġremoved":4593,"Ġindirectly":4594,"against":4595,"ĠPURE":4596,"Ġfulfil":4597,"depends":4598,"Ġdoctrines":4599,"Ġadapted":4600,"Ġchapter":4601,"ĠJudgements":4602,"Ġtaste":4603,"Ġhyper":4604,"Ġsuspicion":4605,"enlar":4606,"distrib":4607,"QU":4608,"orph":4609,"ilis":4610,"answ":4611,"need":4612,"AN":4613,"col":4614,"mod":4615,"ri":4616,"Ġmon":4617,"see":4618,"Ġate":4619,"prom":4620,"method":4621,"co":4622,"arbitr":4623,"result":4624,"clos":4625,"af":4626,"rist":4627,"ivable":4628,"obtain":4629,"ock":4630,"ched":4631,"ius":4632,"uity":4633,"reciproc":4634,"erable":4635,"Äłde":4636,"els":4637,"RIN":4638,"vari":4639,"inc":4640,"render":4641,"imity":4642,"Ġproving":4643,"orily":4644,"Ġjoin":4645,"Ġactive":4646,"Ġready":4647,"Ġcomprehensible":4648,"ÄłÄłÄłÄłÄłÄłÄłÄł":4649,"iating":4650,"long":4651,"was":4652,"Ġage":4653,"alth":4654,"Ġann":4655,"iring":4656,"urther":4657,"Ġpropri":4658,"ĠTr":4659,"else":4660,"undred":4661,"metaphysic":4662,"negative":4663,"Ġaccompan":4664,"definition":4665,"Ġfortune":4666,"imperative":4667,"FACE":4668,"cosmological":4669,"electronic":4670,"fers":4671,"iology":4672,"lied":4673,"member":4674,"number":4675,"opposite":4676,"Ġtalent":4677,"Ġaugment":4678,"Ġtheological":4679,"isions":4680,"atur":4681,"aticism":4682,"Ġcent":4683,"Ġinadequate":4684,"Ġfashion":4685,"anations":4686,"Ġeternity":4687,"Ġreve":4688,"Ġrepro":4689,"Ġreached":4690,"Ġdam":4691,"Ġdays":4692,"Ġdimin":4693,"Ġhorizon":4694,"Ġpra":4695,"Ġexerc":4696,"Ġlarge":4697,"Ġwelf":4698,"Ġforced":4699,"urus":4700,"istics":4701,"Ġdeath":4702,"Ġdepart":4703,"oreover":4704,"Ġalleg":4705,"Ġalmost":4706,"illed":4707,"Ġuncertain":4708,"Ġspite":4709,"esty":4710,"Ġembr":4711,"Ġdoll":4712,"ĠBoth":4713,"admissible":4714,"Ġshap":4715,"ĠFirst":4716,"ĠFreedom":4717,"Ġideality":4718,"Ġrelative":4719,"Ġchance":4720,"Ġsomewhat":4721,"ĠON":4722,"ĠOr":4723,"Ġassured":4724,"Ġemploys":4725,"Ġdiscursive":4726,"Ġindetermin":4727,"Ġindefinite":4728,"ĠHim":4729,"Ġextreme":4730,"Ġenounce":4731,"understood":4732,"Ġoutward":4733,"Ġproducing":4734,"Ġsynthetically":4735,"Ġincludes":4736,"Ġimply":4737,"Ġviewed":4738,"Ġcorrelate":4739,"Ġestimate":4740,"Ġpowerful":4741,"Ġseeks":4742,"ĠLet":4743,"Ġdecided":4744,"ĠUse":4745,"Ġclearness":4746,"Ġrights":4747,"cribing":4748,"Ġextends":4749,"Ġanswered":4750,"Ġcommanded":4751,"Ġreadily":4752,"Ġvirtuous":4753,"ĠTHIS":4754,"Ġoverstep":4755,"Ġerrone":4756,"Ġholding":4757,"Ġdoubtful":4758,"purely":4759,"Ġpasses":4760,"Ġpreceded":4761,"Ġprogression":4762,"Ġpeculiarity":4763,"Ġdrawing":4764,"neither":4765,"discovered":4766,"Ġanalytically":4767,"categorical":4768,"Ġteacher":4769,"independence":4770,"Ġparalogism":4771,"Ġmomenta":4772,"ĠExperience":4773,"Ġestablishment":4774,"causes":4775,"ĠĠĠĠĠĠĠĠĠĠĠĠĠĠĠĠĠĠĠĠĠ":4776,"ĠĠĠĠĠĠĠĠĠĠĠĠĠĠĠĠĠĠĠĠĠĠ":4777,"Ġdestru":4778,"Ġchecks":4779,"Ġdeclares":4780,"ĠVII":4781,"Ġorganon":4782,"constitute":4783,"constitutive":4784,"Ġdispute":4785,"Ġdisputes":4786,"Ġsceptical":4787,"Ġfaith":4788,"myself":4789,"Ġcreated":4790,"special":4791,"Ġgained":4792,"Ġdeserve":4793,"Ġdogmatic":4794,"Ġhighly":4795,"senses":4796,"Ġmagn":4797,"Ġcolour":4798,"ĠANY":4799,"Ġreduced":4800,"Ġunconditionally":4801,"critical":4802,"ĠHowever":4803,"higher":4804,"Ġaccidental":4805,"Supreme":4806,"Ġfirmly":4807,"Ġobscurity":4808,"nexion":4809,"Ġindifference":4810,"Ġindifferent":4811,"psychology":4812,"legislation":4813,"Ġdisappears":4814,"Ġenjoyment":4815,"Ġavailable":4816,"Ġwonder":4817,"Ġbuild":4818,"Ġhistory":4819,"observation":4820,"ĠNature":4821,"mentioned":4822,"important":4823,"Accordingly":4824,"PREFACE":4825,"Ġtreated":4826,"Ġwarning":4827,"ĠPhenomena":4828,"ĠREMARK":4829,"Ġtribunal":4830,"aenomenon":4831,"Ġslightest":4832,"Ġwelfare":4833,"Qu":4834,"SI":4835,"ilities":4836,"Äłt":4837,"PH":4838,"affect":4839,"Äłh":4840,"anticip":4841,"grad":4842,"OM":4843,"Ġid":4844,"err":4845,"eng":4846,"78":4847,"Ġ-":4848,"agree":4849,"material":4850,"UC":4851,"au":4852,"cop":4853,"coun":4854,"mo":4855,"arante":4856,"prof":4857,"ostat":4858,"accom":4859,"demand":4860,"chety":4861,"noumen":4862,"Ġinc":4863,"conduct":4864,"construct":4865,"AB":4866,"CI":4867,"flu":4868,"iality":4869,"cell":4870,"search":4871,"oreal":4872,"esteem":4873,"oad":4874,"small":4875,"word":4876,"Ġinner":4877,"entia":4878,"term":4879,"ciation":4880,"individual":4881,"understand":4882,"ertitude":4883,"Ġchangeable":4884,"irtue":4885,"Ġchanged":4886,"pathological":4887,"vereign":4888,"Ġusual":4889,"problematical":4890,"?\"":4891,"ned":4892,"Ġve":4893,"Ġinstruct":4894,"Ġfl":4895,"Ġday":4896,"asis":4897,"imental":4898,"Ġanthrop":4899,"Ġration":4900,"supreme":4901,"Ġ50":4902,"successive":4903,"feeling":4904,"\";":4905,"TRANSCENDENTAL":4906,"cases":4907,"homogeneous":4908,"oice":4909,"poreal":4910,"viz":4911,"way":4912,"inally":4913,"Ġwa":4914,"Ġwid":4915,"Ġwater":4916,"Ġcred":4917,"alf":4918,"Ġinhere":4919,"Ġinstit":4920,"Ġbase":4921,"Ġthy":4922,"Ġthreat":4923,"Ġmut":4924,"Ġmund":4925,"Ġfile":4926,"Ġfoot":4927,"Ġnull":4928,"Ġerect":4929,"Ġrepe":4930,"Ġconject":4931,"still":4932,"Ġhundred":4933,"Ġpride":4934,"Ġuseless":4935,"Ġupright":4936,"Ġexpose":4937,"Ġsuscept":4938,"Ġgift":4939,"ainted":4940,"Ġpropens":4941,"ĠTot":4942,"Ġintensive":4943,"abled":4944,"Ġunb":4945,"Ġunnecessary":4946,"Ġuniform":4947,"Ġprincip":4948,"Ġrange":4949,"Ġexistences":4950,"ÄłP":4951,"Ġviol":4952,"Ġimprov":4953,"Ġhear":4954,"ĠFOR":4955,"Ġquar":4956,"nowledge":4957,"ĠAl":4958,"ĠApp":4959,"ĠAnt":4960,"acks":4961,"Ġyear":4962,"etween":4963,"Ġarchety":4964,"Ġsynthetic":4965,"ĠSelf":4966,"Ġsubmit":4967,"Ġplurality":4968,"ortunity":4969,"Ġendowed":4970,"proved":4971,"procedure":4972,"Ġremote":4973,"Ġsystems":4974,"Ġexamined":4975,"Ġenabled":4976,"Ġyouth":4977,"Ġattack":4978,"lective":4979,"Ġentered":4980,"cognized":4981,"Ġoriginally":4982,"Ġshowing":4983,"Ġquantum":4984,"ĠMe":4985,"Ġconsidering":4986,"Ġdivisible":4987,"Ġadvisable":4988,"Ġmatters":4989,"Ġconceal":4990,"Ġremaining":4991,"luences":4992,"Ġdecom":4993,"Ġdecision":4994,"Ġpresupposing":4995,"Ġconfusion":4996,"Ġaffinity":4997,"Ġconforms":4998,"Ġsetting":4999,"Ġplease":5000,"Ġarranged":5001,"Ġimperfect":5002,"Ġregressive":5003,"Ġelaps":5004,"Ġpersonality":5005,"Ġseemed":5006,"Ġindicating":5007,"doctrine":5008,"Ġconducted":5009,"Ġessence":5010,"Ġfallacy":5011,"Ġsuperior":5012,"happens":5013,"Ġsingular":5014,"Ġvolunteers":5015,"Ġtreatise":5016,"Ġbrings":5017,"Ġdistributed":5018,"limitation":5019,"Ġintuitive":5020,"pecial":5021,"Ġcontinued":5022,"apperception":5023,"ĠUnity":5024,"intelligence":5025,"Ġexhibited":5026,"ĠExposition":5027,"ordinated":5028,"Ġdesignate":5029,"Ġobservations":5030,"questions":5031,"synthetically":5032,"Ġbecoming":5033,"Ġsurface":5034,"Ġsorts":5035,"Ġpostulates":5036,"Ġroad":5037,"ĠKnowledge":5038,"Ġoffice":5039,"Ġacquainted":5040,"cogitated":5041,"ĠÃĨ":5042,"Ġgeometrical":5043,"demonstration":5044,"Ġcollection":5045,"Ġmechanical":5046,"Ġpeace":5047,"www":5048,"Ġdirections":5049,"Ġprudent":5050,"Ġaccidents":5051,"Ġproducts":5052,"Ġanalogous":5053,"ĠProof":5054,"ĠProble":5055,"Ġcontempor":5056,"Ġassigned":5057,"Ġhumili":5058,"Ġobstin":5059,"Ġpunishment":5060,"ĠPhilos":5061,"ĠPhys":5062,"Ġcapacity":5063,"consequences":5064,"supersensible":5065,"Ġancient":5066,"Ġancients":5067,"Ġdevelopment":5068,"Ġsublime":5069,"arguments":5070,"imagination":5071,"Ġmultitude":5072,"Ġprospect":5073,"ĠDivision":5074,"obligation":5075,"Ġtwofold":5076,"Ġheaven":5077,"ĠEpicurus":5078,"IRST":5079,"Ġappeal":5080,"Ġgradually":5081,"ĠĠĠĠĠĠĠĠĠĠĠĠĠ":5082,"Ġvanity":5083,"Ġsacr":5084,"Ġcompliance":5085,"ĠIntuition":5086,"ĠDiscipline":5087,"sufficiency":5088,"entirely":5089,"Ġhypostat":5090,"Ġadmiration":5091,"body":5092,"econdly":5093,"Ġsettled":5094,"Ġisolated":5095,"Ġdollars":5096,"Ġelapsed":5097,"opp":5098,"Äłex":5099,"cid":5100,"armon":5101,"add":5102,"indis":5103,"anc":5104,"Äłdis":5105,"sophist":5106,"evol":5107,"arrass":5108,"ILITY":5109,"AG":5110,"CL":5111,"TY":5112,"UL":5113,"cour":5114,"pet":5115,"icated":5116,"barrass":5117,"sem":5118,"admit":5119,"Ġclos":5120,"000":5121,"apodeict":5122,"68":5123,"Be":5124,"fig":5125,"oast":5126,"Ġaf":5127,"Ġast":5128,"omorph":5129,"plex":5130,"abor":5131,"cap":5132,"new":5133,"ING":5134,"continu":5135,"ken":5136,"po":5137,"Ġ8":5138,"ativ":5139,"alid":5140,"ulg":5141,"contem":5142,"echn":5143,"ael":5144,"limin":5145,"ores":5146,"ichael":5147,"Ġum":5148,"istinction":5149,"solu":5150,"ression":5151,"formal":5152,"syllogism":5153,"Ġcogitable":5154,"ITED":5155,"AMAG":5156,"Being":5157,"inal":5158,"espect":5159,"Ġmov":5160,"Ġfix":5161,"Ġreconci":5162,"istence":5163,"ifies":5164,"etch":5165,"Ġposited":5166,"Ġproductive":5167,"Ġamount":5168,"lected":5169,"determinate":5170,"Ġselfish":5171,"apply":5172,"account":5173,"works":5174,"desire":5175,"Ġrestricted":5176,"antecedent":5177,"fluous":5178,",[":5179,";_":5180,"Book":5181,"Our":5182,"based":5183,"basis":5184,"eavoured":5185,"gives":5186,"junction":5187,"virtue":5188,"wish":5189,"Ġic":5190,"Ġtechn":5191,"Ġsite":5192,"Ġinconsistent":5193,"Ġbott":5194,"ories":5195,"Ġmid":5196,"Ġfiction":5197,"Ġflatter":5198,"Ġrevol":5199,"Ġdue":5200,"Ġdatur":5201,"Ġbea":5202,"omogeneity":5203,"otle":5204,"Ġhouse":5205,"Ġprint":5206,"osen":5207,"Ġonline":5208,"owers":5209,"Ġsupposing":5210,"ury":5211,"verse":5212,"perhaps":5213,"Ġdeal":5214,"Ġunchangeable":5215,"âĢĶâĢľ":5216,"ĠĠĠĠĠĠĠĠĠĠĠ":5217,"ĠĠĠĠĠĠĠĠĠĠĠĠĠĠĠ":5218,"Ġ(Â§":5219,"Ġtherewith":5220,"try":5221,"Ġrad":5222,"Ġrash":5223,"Ġroyal":5224,"Ġsovereign":5225,"Ġvis":5226,"Ġwilling":5227,"ĠBe":5228,"Ġnoble":5229,"adistinction":5230,"Ġshar":5231,"Ġshare":5232,"ements":5233,"Ġadmission":5234,"ĠPossib":5235,"Ġworlds":5236,"fered":5237,"Ġchar":5238,"Ġchosen":5239,"speculation":5240,"ĠĠĠĠĠĠĠĠĠĠĠĠĠĠĠĠĠĠĠĠĠĠĠĠĠĠĠĠĠĠĠĠ":5241,"Ġmach":5242,"Ġfarther":5243,"Ġcompleted":5244,"Ġbelow":5245,"Ġcontact":5246,"ĠGree":5247,"ĠWARRAN":5248,"Ġgrow":5249,"Ġgrand":5250,"Ġcontrast":5251,"arest":5252,"Ġdesp":5253,"ĠHart":5254,"Ġfees":5255,"Ġagent":5256,"Ġenumer":5257,"Ġgrounded":5258,"ĠEX":5259,"Ġmaximum":5260,"Ġpossessing":5261,"aving":5262,"Ġsimplicity":5263,"Ġattended":5264,"anges":5265,"Ġimpressions":5266,"Ġfeels":5267,"thereby":5268,"Ġmodel":5269,"Ġinfall":5270,"Ġexplanations":5271,"ĠMan":5272,"Ġwherein":5273,"Ġproceeded":5274,"Ġcomput":5275,"Ġcompens":5276,"Ġseeing":5277,"regulative":5278,"Ġfreely":5279,"Ġ12":5280,"Ġsupplied":5281,"Ġphysico":5282,"Ġdirects":5283,"Ġarrange":5284,"Ġarriving":5285,"Ġoccurs":5286,"perceptions":5287,"OND":5288,"Ġanswers":5289,"Ġimaginary":5290,"Ġparticularly":5291,"Ġguarante":5292,"Ġindicated":5293,"contradictions":5294,"Ġmethods":5295,"Ġbelieves":5296,"Ġoverlook":5297,"Ġequip":5298,"Ġtheoretically":5299,"Ġposted":5300,"Ġboundaries":5301,"Ġexplaining":5302,"Ġmisunderstanding":5303,"Ġapplying":5304,"Ġlooking":5305,"Ġlooked":5306,"Ġmaintains":5307,"Ġadditions":5308,"Ġfalsely":5309,"philosophical":5310,"Ġdispositions":5311,"brought":5312,"Ġobtaining":5313,"Ġtransition":5314,"remains":5315,"Ġrecognizes":5316,"Ġexclude":5317,"Ġ30":5318,"Ġpursuit":5319,"Ġpursues":5320,"applicable":5321,"Ġadvancement":5322,"produce":5323,"produced":5324,"Ġpostulated":5325,"universality":5326,"Ġpositively":5327,"perfection":5328,"confidence":5329,"Ġwitness":5330,"Ġfault":5331,"possesses":5332,"Ġaccepted":5333,"Ġcircumstance":5334,"Ġdogmatism":5335,"Ġhappened":5336,"Ġkeeping":5337,"pathy":5338,"Ġlabours":5339,"Ġconflicting":5340,"enetrability":5341,"Ġfanaticism":5342,"Ġreciprocally":5343,"Ġirre":5344,"effects":5345,"points":5346,"While":5347,"Ġascending":5348,"motive":5349,"Ġelevated":5350,"ĠSystem":5351,"Ġobscure":5352,"Ġaffords":5353,"Ġdangerous":5354,"Ġmarked":5355,"Ġethical":5356,"independently":5357,"Ġsublimity":5358,"Consequently":5359,"Ġusually":5360,"Ġincrease":5361,"Ġexecution":5362,"Ġpersuasion":5363,"ĠChrist":5364,"ĠEmpirical":5365,"dogmat":5366,"difficulties":5367,"ustomed":5368,"Ġaccurately":5369,"Ġstrugg":5370,"OGY":5371,"Ġtalents":5372,"Ġconvinced":5373,"Ġfrequent":5374,"Ġfallacious":5375,"Ġscholastic":5376,"IMITED":5377,"Ġevidently":5378,"Ġcommencement":5379,"Ġomnipot":5380,"Ġspectator":5381,"Ġpremisses":5382,"ĠNew":5383,"Ġundoubtedly":5384,"Ġbreak":5385,"Ġhidden":5386,"closed":5387,"Ġreproach":5388,"Ġshape":5389,"Ġindeterminate":5390,"Ġerroneous":5391,"ĠTotality":5392,"Ġquarter":5393,"Ġcontemporaneously":5394,"Ġbottom":5395,"Ġz":5396,"unt":5397,"anim":5398,"pract":5399,"LI":5400,"intu":5401,"assum":5402,"educ":5403,"aggreg":5404,"OL":5405,"circ":5406,"icial":5407,"Ġity":5408,"embr":5409,"ideal":5410,"Ġformation":5411,"want":5412,"rept":5413,"lex":5414,"ĠST":5415,"accident":5416,"remain":5417,"furn":5418,"mist":5419,"sus":5420,"Ġpo":5421,"Ġpress":5422,"stead":5423,"emonstr":5424,"ÄłS":5425,"veyed":5426,"AC":5427,"OD":5428,"ORE":5429,"ault":5430,"don":5431,"ihil":5432,"mechan":5433,"rog":5434,"rust":5435,"uct":5436,"erci":5437,"throw":5438,"resist":5439,"ament":5440,"Ġvice":5441,"get":5442,"ieve":5443,"arrow":5444,"argument":5445,"bound":5446,"mong":5447,"yright":5448,"inom":5449,"insepar":5450,"rent":5451,"Ġcour":5452,"Ġmixed":5453,"ters":5454,"olf":5455,"tains":5456,"phism":5457,"exper":5458,"pons":5459,"formula":5460,"ALEC":5461,"Ġconven":5462,"commun":5463,"olem":5464,"ESIS":5465,"THESIS":5466,"psychological":5467,"Ġauthorized":5468,"SIS":5469,"aper":5470,"pgl":5471,"atory":5472,"Ġnamed":5473,"utter":5474,"Ġascertain":5475,"irth":5476,"ulation":5477,"Ġaltern":5478,"Ġrun":5479,"Äłw":5480,"Ġqua":5481,"disposition":5482,"ableness":5483,"Ġpassing":5484,"upil":5485,"Ġsupported":5486,"Ġearly":5487,"criticism":5488,"TICAL":5489,"Ġaccurate":5490,"ologia":5491,"beginning":5492,"No":5493,"Understanding":5494,"Whether":5495,"],":5496,"apons":5497,"critique":5498,"hood":5499,"hope":5500,"pperception":5501,"public":5502,"powers":5503,"rance":5504,"rather":5505,"uly":5506,"onically":5507,"itation":5508,"itative":5509,"itles":5510,"Ġofficial":5511,"isen":5512,"Ġwww":5513,"Ġpaper":5514,"icability":5515,"Ġincomplete":5516,"Ġincomp":5517,"Ġbook":5518,"Ġboast":5519,"Ġtouch":5520,"Ġmarks":5521,"ancing":5522,"Ġnext":5523,"Ġeternal":5524,"Ġego":5525,"seen":5526,"Ġconnexion":5527,"Ġdate":5528,"oted":5529,"Ġannex":5530,"Ġexempt":5531,"Ġexceptions":5532,"Ġexcell":5533,"Ġlic":5534,"Ġlur":5535,"Ġliving":5536,"Ġlater":5537,"Ġnotice":5538,"ĠĠĠĠĠĠ":5539,"Ġsun":5540,"Ġsuit":5541,"thics":5542,"ogicians":5543,"ulates":5544,"Ġdetr":5545,"acting":5546,"usively":5547,"about":5548,"Ġunf":5549,"taining":5550,"Ġours":5551,"Ġspo":5552,"notions":5553,"Ġsophism":5554,"Ġtried":5555,"Ġvac":5556,"aded":5557,"suppose":5558,"Ġsees":5559,"Ġcognizing":5560,"Ġmankind":5561,"unavoidable":5562,"Ġsubjecting":5563,"ĠPRIN":5564,"Ġeverywhere":5565,"ĠĠĠĠĠĠĠĠĠĠĠĠĠĠĠĠĠ":5566,"ĠSome":5567,"Ġphaenomenon":5568,"enses":5569,"ĠNor":5570,"Ġsubstit":5571,"ĠInformation":5572,"Ġpresently":5573,"Ġcontempt":5574,"Ġlimiting":5575,"Ġassent":5576,"Ġassure":5577,"Ġrequiring":5578,"forms":5579,"formed":5580,"Ġowner":5581,"Ġphilosoph":5582,"within":5583,"others":5584,"Ġindefinitum":5585,"âĢĿâĢĶ":5586,"Ġextinction":5587,"Ġformerly":5588,"Ġenounces":5589,"Ġgroundless":5590,"Ġeffected":5591,"ĠEither":5592,"Ġpresumption":5593,"Ġrealization":5594,"Ġjustly":5595,"avid":5596,"many":5597,"physico":5598,"Ġentertain":5599,"Ġentitle":5600,"Ġoriginating":5601,"ĠWeb":5602,"fulness":5603,"Ġinvalid":5604,"Ġinfluences":5605,"Ġcogitates":5606,"ĠMoreover":5607,"yss":5608,"phenomenal":5609,"rase":5610,"Ġdivide":5611,"Ġdivisibility":5612,"Ġcompetent":5613,"Ġ19":5614,"Ġpredicated":5615,"Ġconformed":5616,"Ġconformably":5617,"Ġarrived":5618,"Ġregressus":5619,"TITHESIS":5620,"Ġelabor":5621,"Ġinfinitely":5622,"Ġneeds":5623,"Ġmodern":5624,"Ġresulting":5625,"Ġindication":5626,"HAT":5627,"Ġantinom":5628,"Ġelementary":5629,"Ġreaders":5630,"become":5631,"Ġspecific":5632,"Ġsolic":5633,"Ġsolid":5634,"Ġsolve":5635,"Ġholder":5636,"Ġcoinc":5637,"Ġprovince":5638,"Ġinstinct":5639,"Ġharm":5640,"Ġelsewhere":5641,"Ġdenom":5642,"Ġgenerated":5643,"extent":5644,"ĠTHESIS":5645,"Ġmaintaining":5646,"Ġpaths":5647,"Ġadds":5648,"Ġconjoin":5649,"category":5650,"Ġjudged":5651,"Ġjudging":5652,"Ġtreating":5653,"Ġtreatment":5654,"Ġoperating":5655,"Ġintrinsic":5656,"Ġcorrectly":5657,"Ġpretended":5658,"Ġamongst":5659,"Ġintuite":5660,"Ġcontinuity":5661,"required":5662,"Ġcomparative":5663,"Ġmomentum":5664,"justice":5665,"Ġexcludes":5666,"Ġexclusively":5667,"Ġcombat":5668,"Ġspontaneously":5669,"inclinations":5670,"Ġkey":5671,"Ġapodeictically":5672,"appears":5673,"appearance":5674,"consistency":5675,"employed":5676,"Ġavoided":5677,"Ġinevitable":5678,"Ġseparated":5679,"Ġacquired":5680,"Ġopportunity":5681,"ĠStill":5682,"presupposed":5683,"satisfactory":5684,"Ġdogmatist":5685,"analysis":5686,"Ġtaught":5687,"ĠANAL":5688,"Ġexperiences":5689,"Ġimplied":5690,"Ġdefend":5691,"greater":5692,"Ġ90":5693,"Ġassociation":5694,"Ġfourth":5695,"attainable":5696,"Ġwriting":5697,"Ġreceives":5698,"Ġconfined":5699,"Ġformulae":5700,"Ġenlargement":5701,"Ġdiscussions":5702,"motion":5703,"posteriori":5704,"rests":5705,"maxims":5706,"Ġimpulse":5707,"indicate":5708,"Ġreckoned":5709,"Ġsubsumption":5710,"Ġauthorize":5711,"Ġspiritual":5712,"Ġaccompany":5713,"ikes":5714,"Ġmoon":5715,"Ġmoving":5716,"Ġcalcul":5717,"Ġmulti":5718,"ĠDivine":5719,"concerned":5720,"Ġmediately":5721,"Ġprimary":5722,"Ġcosts":5723,"Ġconstantly":5724,"ĠMorality":5725,"Ġderivative":5726,"signification":5727,"ĠNothing":5728,"preceding":5729,"deduced":5730,"philosophers":5731,"Ġprepare":5732,"ĠDIALEC":5733,"ĠSECTION":5734,"Ġsubstantial":5735,"Ġconfirmation":5736,"Ġmoderate":5737,"elements":5738,"Ġinjurious":5739,"assertions":5740,"Ġtype":5741,"Ġlocated":5742,"ĠMathemat":5743,"solely":5744,"source":5745,"Ġlinks":5746,"Ġreplacement":5747,"ĠCategories":5748,"Ġwonderful":5749,"ength":5750,"Ġflow":5751,"Ġrationis":5752,"Ġdecomposition":5753,"ĠÃĨsthetic":5754,"ĠPhilosophy":5755,"Ġheavenly":5756,"Ġsacrifice":5757,"liminary":5758,"soluble":5759,"ĠGreek":5760,"Ġequipment":5761,"ĠChristian":5762,"pglaf":5763,"Ġion":5764,"ÄłC":5765,"Äłv":5766,"pursu":5767,"Ġten":5768,"let":5769,"qual":5770,"Äłr":5771,"accomp":5772,"destr":5773,"invol":5774,"sed":5775,"deser":5776,"remark":5777,"ati":5778,"Äła":5779,"mean":5780,"UND":5781,"annihil":5782,"Metaphys":5783,"Per":5784,"utic":5785,"emper":5786,"excl":5787,"class":5788,"inev":5789,"ocr":5790,"discern":5791,"comprehend":5792,"convin":5793,"destroy":5794,"ony":5795,"cil":5796,"dev":5797,"ÄłA":5798,"sual":5799,"DUC":5800,"Leibnitz":5801,"Sp":5802,"St":5803,"Ġol":5804,"rection":5805,"Ġist":5806,"Ġhes":5807,"adm":5808,"Ġgoing":5809,"explain":5810,"PLES":5811,"ATIONS":5812,"meaning":5813,"41":5814,"EAS":5815,"SEC":5816,"harmon":5817,"treat":5818,"ym":5819,"Ġ***":5820,"infin":5821,"enevol":5822,"ifferent":5823,"defect":5824,"igination":5825,"Ġru":5826,"ÄłD":5827,"adox":5828,"Ġstead":5829,"previous":5830,"haust":5831,"evil":5832,"ĠVI":5833,"RODUC":5834,"ORAL":5835,"dogmatical":5836,"RODUCTION":5837,"ry":5838,"soul":5839,"reement":5840,"Ġfat":5841,"Ġfixed":5842,"ancy":5843,"essential":5844,"urean":5845,"three":5846,"definite":5847,"tray":5848,"exposition":5849,"Ġserved":5850,"mell":5851,"Ġconsiderable":5852,"Ġchanging":5853,"production":5854,"Ġfair":5855,"Ġsufficiency":5856,"Ġsteps":5857,"ICT":5858,"secure":5859,"CIPLES":5860,"!\"":5861,"Pure":5862,"Please":5863,"PART":5864,"Such":5865,"Secondly":5866,"TRODUCTION":5867,"ade":5868,"aseless":5869,"came":5870,"further":5871,"iability":5872,"logic":5873,"life":5874,"makes":5875,"pute":5876,"rules":5877,"uality":5878,"Ã¦":5879,"Ġtitles":5880,"heres":5881,"Ġomit":5882,"Ġoppose":5883,"receive":5884,"itates":5885,"Ġoffer":5886,"Ġsil":5887,"Ġsalt":5888,"Ġportion":5889,"Ġpupil":5890,"Ġinex":5891,"Ġinability":5892,"Ġinternally":5893,"Ġinadmissible":5894,"Ġinsoluble":5895,"especially":5896,"Ġband":5897,"Ġbind":5898,"Ġbirth":5899,"Ġtopic":5900,"Ġnarrow":5901,"Ġelectr":5902,"Ġreaction":5903,"Ġbears":5904,"Ġbetray":5905,"Ġbecame":5906,"stone":5907,"utility":5908,"Ġhttp":5909,"Ġhalf":5910,"Ġhomogeneity":5911,"Ġprime":5912,"theoretic":5913,"impossibility":5914,"oses":5915,"Ġexternally":5916,"Ġexposing":5917,"Ġlot":5918,"Ġlab":5919,"Ġlicense":5920,"Ġlength":5921,"Ġweal":5922,"termed":5923,"Ġgave":5924,"ura":5925,"ĠIs":5926,"istotle":5927,"ifying":5928,"permanent":5929,"Ġproposes":5930,"ĠTake":5931,"ender":5932,"Ġdece":5933,"uses":5934,"Ġunfortun":5935,"Ġations":5936,"Ġtherefrom":5937,"trademark":5938,"Ġspurious":5939,"ecessity":5940,"hering":5941,"Ġtrust":5942,"Ġtrack":5943,"Ġtrying":5944,"Äłcon":5945,"Ġvoice":5946,"Ġimpose":5947,"Ġheight":5948,"Ġperplex":5949,"Ġabide":5950,"adly":5951,"admitted":5952,"ĠFIRST":5953,"Ġstatus":5954,"whose":5955,"ĠAb":5956,"Ġaccustomed":5957,"ulture":5958,"ultaneous":5959,"universe":5960,"ĠPart":5961,"Ġdissimilar":5962,"Ġknowing":5963,"Ġpreliminary":5964,"Ġparticip":5965,"Ġchild":5966,"Ġrepresenting":5967,"Ġarisen":5968,"Ġmyst":5969,"finally":5970,"Ġdiffer":5971,"ortions":5972,"Ġlimitative":5973,"Ġassist":5974,"Ġassistance":5975,"Ġconnecting":5976,"composition":5977,"Ġdistance":5978,"prove":5979,"Ġrationalis":5980,"ĠHuman":5981,"Ġfell":5982,"Ġenclosed":5983,"lessness":5984,"Ġprescribed":5985,"Ġthinker":5986,"Ġthinkers":5987,"alytical":5988,"Ġrealized":5989,"ounced":5990,"ĠDIS":5991,"ĠDAMAG":5992,"ĠDavid":5993,"Ġgreatly":5994,"Ġimped":5995,"Ġviews":5996,"Ġconstituting":5997,"thereof":5998,"Ġinvisible":5999,"Ġshowed":6000,"Ġintelligent":6001,"Ġintelligences":6002,"ĠMichael":6003,"ĠMORAL":6004,"Ġstrange":6005,"Ġcharacteristics":6006,"Ġcompass":6007,"Ġadvancing":6008,"Ġdeducing":6009,"Ġreside":6010,"Ġattains":6011,"Ġphysiology":6012,"Ġcontentment":6013,"Ġdirecting":6014,"ĠConcl":6015,"Ġconformable":6016,"Ġsettle":6017,"Ġestablishes":6018,"Ġlegal":6019,"Ġdistinguishes":6020,"Ġnumbers":6021,"Ġmodific":6022,"Ġreadable":6023,"Ġdemonstrations":6024,"Ġsolved":6025,"Ġproviding":6026,"Ġpassed":6027,"Ġ25":6028,"Ġrendering":6029,"Ġawaken":6030,"Ġlegislating":6031,"simply":6032,"bles":6033,"Ġagrees":6034,"Ġinferring":6035,"examples":6036,"Ġintuiting":6037,"Ġstrictest":6038,"Ġmediating":6039,"Ġcomparing":6040,"ĠExistence":6041,"belief":6042,"Ġframe":6043,"Ġframed":6044,"Ġobservance":6045,"Ġantecedently":6046,"Ġabstracted":6047,"ĠAristotle":6048,"Ġpursued":6049,"property":6050,"Ġeye":6051,"Ġrestriction":6052,"Ġrestrictions":6053,"Ġdeliber":6054,"Ġintroduction":6055,"Ġintroducing":6056,"Ġdeclare":6057,"considerations":6058,"schema":6059,"Ġfurnished":6060,"metaphysical":6061,"Ġoffers":6062,"Ġfavourable":6063,"presupposition":6064,"Ġfigures":6065,"Ġdeserving":6066,"interests":6067,"belongs":6068,"original":6069,"freely":6070,"Ġcountry":6071,"likewise":6072,"Ġtranscends":6073,"Ġadmixture":6074,"corresponds":6075,"However":6076,"Ġprobability":6077,"Ġfancy":6078,"Ġclasses":6079,"Ġcomprehends":6080,"Ġirresist":6081,"observed":6082,"powerful":6083,"Ġsketch":6084,"Ġparagraphs":6085,"Ġopponents":6086,"Whatever":6087,"Ġwritten":6088,"Ġindubit":6089,"Ġascend":6090,"Ġenlarge":6091,"Ġinseparable":6092,"Ġbenefit":6093,"Ġcontribute":6094,"Ġcontributes":6095,"distinguishable":6096,"ĠDeity":6097,"Ġ2002":6098,"Ġqualities":6099,"Ġqualitative":6100,"Ġpaying":6101,"Ġnecessitated":6102,"Ġsubsumed":6103,"expression":6104,"Ġdeveloped":6105,"iking":6106,"Ġrenounce":6107,"Ġexecuted":6108,"Ġdisplaying":6109,"ĠDoctrine":6110,"pretensions":6111,"Ġfrequently":6112,"Ġtransgression":6113,"established":6114,"instead":6115,"shown":6116,"Ġobey":6117,"Ġadduced":6118,"ĠSECOND":6119,"Ġpatient":6120,"Ġclosely":6121,"Ġforbids":6122,"Ġsuffer":6123,"Ġattraction":6124,"Ġsympathy":6125,"leads":6126,"Ġcultivation":6127,"Ġridic":6128,"Ġapproximate":6129,"Ġobstacle":6130,"Ġdreams":6131,"Ġarchitectonic":6132,"ĠStoics":6133,"ription":6134,"Ġpropriety":6135,"Ġalleged":6136,"Ġembrace":6137,"Ġdestruction":6138,"Ġbuilding":6139,"Ġconjecture":6140,"Ġgifts":6141,"Ġpropensity":6142,"Ġimprovement":6143,"Ġyears":6144,"Ġhumiliation":6145,"Ġcloser":6146,"apodeictic":6147,"figure":6148,"ativum":6149,"oresaid":6150,"Ġmovements":6151,"Ġtechnical":6152,"Ġradical":6153,"utterly":6154,"Ġelectronically":6155,"ĠDAMAGES":6156,"Ġmodifications":6157,"Tr":6158,"Ġred":6159,"Ġated":6160,"prev":6161,"design":6162,"organ":6163,"Äłe":6164,"transc":6165,"contempl":6166,"anci":6167,"istrib":6168,"prob":6169,"Ġical":6170,"ÄłM":6171,"pont":6172,"spe":6173,"discus":6174,"Ġil":6175,"seem":6176,"geometr":6177,"ENCE":6178,"specif":6179,"15":6180,"Gr":6181,"Not":6182,"yllogism":6183,"¢Ä":6184,"heter":6185,"icious":6186,"assign":6187,"accur":6188,"Ġmission":6189,"THE":6190,"support":6191,"proportion":6192,"accompan":6193,"..":6194,"He":6195,"UD":6196,"ax":6197,"hab":6198,"ipp":6199,"alle":6200,"ices":6201,"Ġul":6202,"ivil":6203,"jected":6204,"thorough":6205,"aining":6206,"endeavour":6207,"oft":6208,"exc":6209,"arrant":6210,"becom":6211,"process":6212,"advance":6213,"Ar":6214,"De":6215,"Un":6216,"bal":6217,"bol":6218,"cosm":6219,"hon":6220,"ii":6221,"spont":6222,"incre":6223,"introdu":6224,"Ġnihil":6225,"deutic":6226,"umb":6227,"posit":6228,"exhib":6229,"Ġyield":6230,"agger":6231,"sym":6232,"Ġentity":6233,"corrupt":6234,"CEP":6235,"EMENT":6236,"icked":6237,"absurd":6238,"ETH":6239,"METH":6240,"access":6241,"dated":6242,"eed":6243,"ians":6244,"merit":6245,"peculiar":6246,"reckon":6247,"erity":6248,"icate":6249,"ndeed":6250,"Ġanim":6251,"Ġlest":6252,"ciated":6253,"Ġsoever":6254,"Äłpr":6255,"exception":6256,"forth":6257,"iece":6258,"Ġconceivable":6259,"aneity":6260,"*****":6261,"shall":6262,"pensably":6263,"Produ":6264,"declar":6265,"answer":6266,"PHY":6267,"did":6268,"effort":6269,"moment":6270,"sight":6271,"ton":6272,"text":6273,"uary":6274,"uge":6275,"ĠQu":6276,"Ġtext":6277,"refer":6278,"ening":6279,"ero":6280,"ale":6281,"Ġmine":6282,"Ġfil":6283,"Ġness":6284,"Ġease":6285,"sect":6286,"section":6287,"Ġrestr":6288,"oss":6289,"Ġweb":6290,"uries":6291,"cient":6292,"ogant":6293,"chain":6294,"ush":6295,"Ġcast":6296,"Ġtrace":6297,"arying":6298,"antly":6299,"ĠAG":6300,"Ġchief":6301,"elt":6302,"Ġgrat":6303,"arium":6304,"lucid":6305,"Ġconsistency":6306,"Ġworthiness":6307,"TIQU":6308,"Ġequality":6309,"extensive":6310,"ocation":6311,"Ġprobable":6312,"OGIC":6313,"Ġconvincing":6314,"establish":6315,"Ġfruitful":6316,"RITIQU":6317,"Ġaccompanied":6318,"ODOL":6319,"METHODOL":6320,"16":6321,"CTICAL":6322,"So":6323,"Since":6324,"You":6325,"autonomy":6326,"bits":6327,"bonum":6328,"cision":6329,"course":6330,"day":6331,"done":6332,"dialectic":6333,"gulative":6334,"http":6335,"liberty":6336,"mixed":6337,"na":6338,"said":6339,"ĉĉ":6340,"onations":6341,"infinitum":6342,"Ġtheories":6343,"itful":6344,"encies":6345,"Ġwished":6346,"Ġcat":6347,"Ġsize":6348,"Ġpolem":6349,"aled":6350,"already":6351,"Ġinn":6352,"Ġinsist":6353,"Ġincomprehensible":6354,"Ġinconsistency":6355,"Ġbon":6356,"Ġburd":6357,"Ġthou":6358,"orn":6359,"ctory":6360,"Ġfate":6361,"Ġelective":6362,"Ġretain":6363,"Ġreview":6364,"Ġdark":6365,"Ġbegan":6366,"oments":6367,"arise":6368,"Ġprag":6369,"Ġexagger":6370,"Ġlate":6371,"Ġsust":6372,"Ġsupposes":6373,"ĠIll":6374,"ifference":6375,"perceive":6376,"uler":6377,"empiricism":6378,"ĠThen":6379,"Ġarena":6380,"conceive":6381,"conjunction":6382,"Ġdeceived":6383,"active":6384,"actual":6385,"using":6386,"illion":6387,"away":6388,"ames":6389,"Ġunit":6390,"Ġunexpected":6391,"Ġcompr":6392,"Ġcomposed":6393,"Ġround":6394,"Ġrace":6395,"Ġratio":6396,"Ġruler":6397,"Ġemail":6398,"Ġembarrass":6399,"Ġdeterminative":6400,"Ġdoing":6401,"Ġvit":6402,"Ġvict":6403,"Ġvag":6404,"Ġconditional":6405,"Ġconditionally":6406,"Ġhealth":6407,"Ġperce":6408,"Ġabyss":6409,"Ġsynon":6410,"Ġuser":6411,"ĠFundamental":6412,"Ġseven":6413,"Ġsevere":6414,"Ġste":6415,"presentation":6416,"whatever":6417,"ĠAfter":6418,"ĠASC":6419,"ĠApperception":6420,"unable":6421,"unknown":6422,"unciation":6423,"poned":6424,"ponent":6425,"ĠPRA":6426,"Ġdispens":6427,"Ġdisgu":6428,"ets":6429,"etary":6430,"herence":6431,"Ġleaving":6432,"Ġaround":6433,"Ġarose":6434,"Ġphrase":6435,"ressed":6436,"oping":6437,"opinion":6438,"agreement":6439,"Ġsubter":6440,"Ġnear":6441,"Ġmast":6442,"ĠIntrodu":6443,"Ġplacing":6444,"Ġendeavoured":6445,"ĠGr":6446,"ĠGer":6447,"ĠGood":6448,"ĠWill":6449,"ĠWhere":6450,"Ġcontrover":6451,"ritical":6452,"ĠCRITIQU":6453,"Ġrequest":6454,"Ġdescribe":6455,"composite":6456,"Ġdistant":6457,"Ġdistress":6458,"Ġcalls":6459,"Ġcalling":6460,"Ġencour":6461,"ĠRational":6462,"ĠEnd":6463,"Ġprescribe":6464,"Ġsensibly":6465,"Ġrealize":6466,"serves":6467,"Ġcritic":6468,"Ġattach":6469,"Ġattacks":6470,"ĠDes":6471,"Ġsensuously":6472,"Ġcorporeal":6473,"Ġquanta":6474,"ĠRegulative":6475,"ĠMis":6476,"Ġstrike":6477,"Ġstrives":6478,"Ġanalysing":6479,"Ġrefuse":6480,"Ġrefers":6481,"Ġdiverse":6482,"Ġcompels":6483,"Ġadvances":6484,"Ġcontradicts":6485,"ĠLogical":6486,"ĠLIMITED":6487,"ĠLOGIC":6488,"Ġconcluding":6489,"Ġconceiving":6490,"Ġremained":6491,"Ġresistance":6492,"Ġdecides":6493,"Ġ178":6494,"Ġlogically":6495,"Ġdiscoverable":6496,"Ġsatisfies":6497,"knows":6498,"practically":6499,"TIES":6500,"Ġobserving":6501,"Ġacknowledge":6502,"Ġseemingly":6503,"Ġmodest":6504,"ĠĠĠĠĠĠĠĠĠĠĠĠĠĠĠĠĠĠĠĠĠĠĠĠĠĠ":6505,"ĠĠĠĠĠĠĠĠĠĠĠĠĠĠĠĠĠĠĠĠĠĠĠĠĠĠĠĠĠĠĠ":6506,"Ġattempting":6507,"Ġneglect":6508,"subjectively":6509,"aims":6510,"Ġbelieved":6511,"Ġspecially":6512,"Ġideals":6513,"ĠPrint":6514,"Ġespecial":6515,"Ġcontinually":6516,"Ġtook":6517,"Ġessay":6518,"Ġinstances":6519,"Ġexpectations":6520,"Ġpassive":6521,"Ġdenies":6522,"Ġaffects":6523,"Ġallows":6524,"Ġsuperfluous":6525,"Ġcopying":6526,"ocke":6527,"Ġedition":6528,"Ġeditions":6529,"Ġyourself":6530,"giving":6531,"accordingly":6532,"Ġjustifies":6533,"Ġinquiring":6534,"ĠAnalytical":6535,"Ġconvince":6536,"Ġthoroughness":6537,"Ġpretend":6538,"Ġobtains":6539,"Ġinvolve":6540,"Ġinvolving":6541,"purposes":6542,"justified":6543,"Ġrecognise":6544,"Ġfri":6545,"Ġabstracto":6546,"attention":6547,"impenetrability":6548,"Ġdonate":6549,"Ġsurpr":6550,"Ġoccupation":6551,"Ġdelusive":6552,"Ġconstructing":6553,"separate":6554,"Ġapproach":6555,"Ġmanifestations":6556,"productive":6557,"consists":6558,"Ġdecline":6559,"compelled":6560,"Ġletter":6561,"Ġadequately":6562,"Ġorganization":6563,"constitution":6564,"Ġcreator":6565,"Ġcreating":6566,"Ġcreatures":6567,"Therefore":6568,"grounded":6569,"insight":6570,"Ġacquire":6571,"Ġacquaint":6572,"Ġproblematically":6573,"moreover":6574,"Ġfigur":6575,"Ġdefinitely":6576,"guidance":6577,"realization":6578,"Ġcounsel":6579,"Ġsecurely":6580,"Ġfilling":6581,"Ġfilled":6582,"Ġdefence":6583,"Ġdefici":6584,"Ġmeets":6585,"greatest":6586,"Ġfancies":6587,"Ġfailed":6588,"Ġultimately":6589,"Suppose":6590,"ators":6591,"ĠImpossibility":6592,"Ġdetected":6593,"Ġdetailed":6594,"attained":6595,"Ġwritings":6596,"Ġinduce":6597,"Ġascent":6598,"Ġsentiment":6599,"Ġsentiments":6600,"Ġbeneficial":6601,"Ġsucceeded":6602,"Ġmistakes":6603,"Ġmistaken":6604,"Ġpunct":6605,"Ġperforms":6606,"Ġ2001":6607,"Ġpayments":6608,"Ġstrengthen":6609,"consequence":6610,"Ġfitness":6611,"Ġestimated":6612,"Ġestimating":6613,"Ġmeritorious":6614,"Ġescap":6615,"operation":6616,"Ġdevoted":6617,"Ġdisplayed":6618,"Ġcomplying":6619,"Ġpromotion":6620,"Ġpromoting":6621,"Ġfulfilled":6622,"reflection":6623,"fortune":6624,"difficulty":6625,"Ġurged":6626,"Ġprimarily":6627,"Ġhistorical":6628,"Ġheavy":6629,"Ġaccords":6630,"Ġderivation":6631,"Ġspecified":6632,"supply":6633,"concepts":6634,"ĠNOT":6635,"Ġtalk":6636,"Ġweakness":6637,"Ġsubsists":6638,"Ġesteemed":6639,"precedes":6640,"Ġimitated":6641,"Ġobeying":6642,"Ġwidely":6643,"Ġhinder":6644,"Ġhindrance":6645,"transition":6646,"Ġanticipate":6647,"Ġfallacies":6648,"Ġcontemplation":6649,"attribute":6650,"Analytic":6651,"Ġaccomplish":6652,"Ġaccomplished":6653,"Without":6654,"statements":6655,"Ġalteration":6656,"Ġdeeply":6657,"ĠObjects":6658,"Ġserviceable":6659,"Ġimpartial":6660,"ĠMetaphysic":6661,"Ġobstacles":6662,"Ġgovernment":6663,"occupied":6664,"authority":6665,"generally":6666,"unconditional":6667,"unconditionally":6668,"inquiry":6669,"inquiries":6670,"Ġtendency":6671,"Ġfictions":6672,"Ġfictitious":6673,"Ġdimensions":6674,"Ġexertions":6675,"Ġdeprive":6676,"Ġundertaking":6677,"Ġambiguity":6678,"Ġpraise":6679,"ausible":6680,"ABILITY":6681,"Ġwidest":6682,"Ġmundus":6683,"Ġrepeated":6684,"Ġuprightness":6685,"Ġsusceptible":6686,"Ġprincipal":6687,"ĠAlthough":6688,"ĠAntinomy":6689,"ĠMethod":6690,"indispensable":6691,"Before":6692,"Ġaforesaid":6693,"Ġaston":6694,"ĠĠĠĠĠĠĠĠĠĠĠĠĠĠĠĠĠĠĠĠĠĠĠĠĠĠĠĠĠĠĠĠĠĠĠĠĠĠĠĠĠĠĠĠĠĠĠĠĠĠ":6695,"ĠWARRANTY":6696,"Ġcomputer":6697,"aggregate":6698,"embracing":6699,"mechanism":6700,"rogative":6701,"inseparably":6702,"experiences":6703,"Ġincompetent":6704,"Ġexcellent":6705,"Ġsophisms":6706,"ĠPRINCIPLES":6707,"Ġantinomies":6708,"Ġdenomin":6709,"Ġmultiplicity":6710,"ĠDIALECTIC":6711,"Metaphysic":6712,"infinity":6713,"enevolence":6714,"Ġfatal":6715,"Ã¦deutic":6716,"Ġirresistible":6717,"ĠAGRE":6718,"METHODOLOGY":6719,"Ġpolemic":6720,"ĠASCII":6721,"ĠPRACTICAL":6722,"ĠCRITIQUE":6723,"Ġive":6724,"ION":6725,"analog":6726,"ÄłE":6727,"Ide":6728,"enjoy":6729,"guard":6730,"arm":6731,"estim":6732,"desc":6733,"IES":6734,"met":6735,"sch":6736,"Ġies":6737,"Ġax":6738,"ptions":6739,"Äłst":6740,"maj":6741,"ocin":6742,"occasion":6743,"RIB":6744,"profess":6745,"atiocin":6746,"Ph":6747,"sur":6748,"ining":6749,"Ġell":6750,"remo":6751,"confirm":6752,"OS":6753,"TRIB":6754,"bar":6755,"revol":6756,"itiz":6757,"iboly":6758,"del":6759,"det":6760,"Äłn":6761,"Äłper":6762,"Äłsu":6763,"allow":6764,"piric":6765,"agon":6766,"Ġposit":6767,"ĠEND":6768,"avag":6769,"appe":6770,"accord":6771,"contest":6772,"occur":6773,"Princi":6774,"anthropomorph":6775,"prevent":6776,"22":6777,"50":6778,"TRA":6779,"creat":6780,"king":6781,"mag":6782,"rown":6783,"test":6784,"vation":6785,"your":6786,"yield":6787,"Ġign":6788,"Ġost":6789,"recogn":6790,"que":6791,"minis":6792,"duc":6793,"keep":6794,"extend":6795,"Ġstruct":6796,"Em":6797,"FL":6798,"OSE":6799,"PRO":6800,"bed":6801,"bring":6802,"last":6803,"nis":6804,"ram":6805,"spr":6806,"slet":6807,"Ġeduc":6808,"intr":6809,"atir":6810,"Ġtol":6811,"Ġmal":6812,"Ġment":6813,"oud":6814,"ibilis":6815,"ogram":6816,"iful":6817,"illa":6818,"amp":6819,"prud":6820,"artes":6821,"too":6822,"soon":6823,"close":6824,"precept":6825,"iversal":6826,"ilege":6827,"Ġ13":6828,"TIVE":6829,"bling":6830,"Ġceasing":6831,"irdly":6832,"THER":6833,"hypothetical":6834,"allel":6835,"71":6836,"APHY":6837,"ET":6838,"Respect":6839,"SIC":6840,"VIS":6841,"dut":6842,"fund":6843,"favour":6844,"load":6845,"net":6846,"oe":6847,"oose":6848,"popular":6849,"tent":6850,"Ġions":6851,"Ġaut":6852,"itory":6853,"isk":6854,"encing":6855,"Ġsw":6856,"Ġpol":6857,"ctible":6858,"entity":6859,"osing":6860,"third":6861,"version":6862,"ĠIND":6863,"resh":6864,"ulous":6865,"ulsion":6866,"pping":6867,"Ġric":6868,"phiboly":6869,"Ġseld":6870,"tellig":6871,"matic":6872,"Ġpresentation":6873,"roken":6874,"Ġsecurity":6875,"mail":6876,"Ġpleases":6877,"RECT":6878,"legitimate":6879,"Ġ45":6880,"volition":6881,"Ġprepared":6882,"rupted":6883,"error":6884,"?âĢĶ":6885,"At":6886,"Both":6887,"General":6888,"Nevertheless":6889,"Some":6890,"Small":6891,"See":6892,"_âĢĶ":6893,"acious":6894,"bation":6895,"between":6896,"certitude":6897,"dle":6898,"ees":6899,"ego":6900,"field":6901,"founded":6902,"fuge":6903,"had":6904,"joined":6905,"lain":6906,"lable":6907,"little":6908,"lines":6909,"making":6910,"ng":6911,"ries":6912,"sort":6913,"ub":6914,"ux":6915,"uent":6916,"uum":6917,"void":6918,"varying":6919,"ware":6920,"Ġence":6921,"Ġastr":6922,"inently":6923,"insufficient":6924,"Ġtheore":6925,"receptivity":6926,"isive":6927,"enough":6928,"enable":6929,"erms":6930,"Ġwarn":6931,"Ġwicked":6932,"Ġcens":6933,"Ġcertitude":6934,"Ġsl":6935,"Ġsaw":6936,"Ġsave":6937,"Ġpubl":6938,"Ġparent":6939,"altogether":6940,"Ġinsp":6941,"Ġincor":6942,"Ġbenevolence":6943,"Ġmar":6944,"Ġmass":6945,"Ġfelt":6946,"anilla":6947,"Ġissu":6948,"Ġrefin":6949,"Ġreply":6950,"Ġrevel":6951,"Ġreferences":6952,"Ġrelease":6953,"Ġreserve":6954,"Ġredistrib":6955,"Ġdas":6956,"Ġdatum":6957,"asions":6958,"Ġaspect":6959,"Ġanxi":6960,"Ġlow":6961,"Ġlime":6962,"Ġlays":6963,"Ġlogicians":6964,"Ġliability":6965,"Ġweaken":6966,"Ġweapons":6967,"irable":6968,"Ġgot":6969,"Ġwithdraw":6970,"ĠID":6971,"ĠIF":6972,"ĠIndeed":6973,"istered":6974,"Ġorigination":6975,"permitted":6976,"permanence":6977,"ulated":6978,"Ġprohib":6979,"Ġprolong":6980,"concre":6981,"changes":6982,"Ġdead":6983,"actually":6984,"actorily":6985,"amples":6986,"Ġunite":6987,"Ġunits":6988,"Ġunavoid":6989,"Ġunsuccess":6990,"Ġuncertainty":6991,"Ġunpleasant":6992,"Ġunattainable":6993,"dependent":6994,"dependence":6995,"ansition":6996,"triangle":6997,"Ġspecul":6998,"Ġrig":6999,"Ġrare":7000,"Ġratiocin":7001,"Ġundertake":7002,"Ġdeterminability":7003,"Ġtruly":7004,"Ġves":7005,"Ġvision":7006,"Ġvisible":7007,"ĠBE":7008,"ĠBRE":7009,"priate":7010,"primitive":7011,"Ġheat":7012,"Ġperpet":7013,"ading":7014,"suasion":7015,"Ġregular":7016,"Ġregistered":7017,"antinomy":7018,"Ġselect":7019,"Ġcognitive":7020,"Ġstake":7021,"Ġstage":7022,"Ġquoad":7023,"Ġreluct":7024,"presents":7025,"Ġconsult":7026,"ĠAgain":7027,"ĠAmong":7028,"acities":7029,"Ġappell":7030,"Ġsubjection":7031,"ĠPsych":7032,"Ġdissatisfaction":7033,"),âĢĿ":7034,"Ġprepar":7035,"Ġprecise":7036,"Ġprecision":7037,"Ġprerogative":7038,"Ġlevel":7039,"teaches":7040,"Ġpartial":7041,"Ġarms":7042,"ĠSe":7043,"ĠScience":7044,"precisely":7045,"ĠNeither":7046,"agogic":7047,"Ġsubdiv":7048,"Ġsubdivision":7049,"ĠInstead":7050,"ĠWolf":7051,"Ġgroping":7052,"Ġcontrol":7053,"Ġcontradistinction":7054,"ĠCan":7055,"ĠCogn":7056,"Ġdesert":7057,"Ġcommerci":7058,"Ġowns":7059,"fects":7060,"ishments":7061,"derived":7062,"Ġfeet":7063,"Ġcategorically":7064,"Ġvalu":7065,"Ġyoung":7066,"Ġfinding":7067,"ĠRel":7068,"ĠRoyal":7069,"ĠEach":7070,"elling":7071,"Ġprescribing":7072,"objections":7073,"Ġexpense":7074,"Ġexpenses":7075,"reasons":7076,"Ġrealities":7077,"Ġrealizing":7078,"aved":7079,"avity":7080,"Ġsimpl":7081,"Ġsimultaneous":7082,"physics":7083,"ĠDetermin":7084,"ĠDonations":7085,"Ġsecuring":7086,"anging":7087,"Ġimpression":7088,"Ġthroughout":7089,"Ġviewing":7090,"Ġoriginates":7091,"therein":7092,"Ġinvent":7093,"Ġhereafter":7094,"Ġinfring":7095,"ĠMon":7096,"ĠMET":7097,"Ġapagogic":7098,"Ġstrikes":7099,"Ġanalyse":7100,"Ġcompares":7101,"evidence":7102,"ĠLaw":7103,"Ġconceit":7104,"Ġconcede":7105,"undetermined":7106,"Ġrespon":7107,"Ġdeciding":7108,"Ġdecisive":7109,"tenance":7110,"ĠUltimate":7111,"ĠUSE":7112,"Ġsupplies":7113,"Ġnowhere":7114,"Ġtotally":7115,"Ġmathematicians":7116,"Ġmathematician":7117,"Ġclue":7118,"relatively":7119,"Ġsatisfying":7120,"Ġsuccessful":7121,"Ġdefines":7122,"Ġarrives":7123,"Ġestablishing":7124,"Ġderives":7125,"Ġlegality":7126,"Ġconsequent":7127,"Ġseeming":7128,"Ġmodi":7129,"Ġmodification":7130,"Ġcontingently":7131,"Ġfinality":7132,"misunderstanding":7133,"Ġcorrespondence":7134,"party":7135,"Ġdemonstrating":7136,"Ġsignify":7137,"Ġsouls":7138,"Ġpostponed":7139,"ĠSubject":7140,"Ġconducts":7141,"completed":7142,"Ġexplains":7143,"granted":7144,"Ġhopes":7145,"Ġmisconception":7146,"Ġmisunderstood":7147,"Ġprogressus":7148,"Ġgeneration":7149,"ĠĠĠĠĠĠĠĠĠĠĠĠĠĠĠĠĠĠĠĠĠĠĠĠĠĠĠĠĠĠĠĠĠĠĠĠĠĠĠĠĠĠ":7150,"Ġoblige":7151,"Ġremarked":7152,"Ġdepending":7153,"Ġfallen":7154,"Ġaffirmations":7155,"Ġaddress":7156,"Ġharmonious":7157,"discursive":7158,"Ġfalsehood":7159,"giver":7160,"happy":7161,"Ġdemanding":7162,"Ġdemanded":7163,"Ġnegatively":7164,"Ġjustification":7165,"Ġjudges":7166,"Ġteaching":7167,"Ġthoroughgoing":7168,"desires":7169,"Ġpretension":7170,"Ġabsent":7171,"Ġchooses":7172,"Ġparadox":7173,"whereas":7174,"Ġleading":7175,"Ġstrictness":7176,"Ġtransitory":7177,"Ġdistinguishable":7178,"Ġprofit":7179,"Ġrequisites":7180,"Ġsuppositions":7181,"Ġhelps":7182,"Ġdesignation":7183,"Ġobservable":7184,"Ġ35":7185,"impressions":7186,"Ġpursuing":7187,"Ġoccupy":7188,"properties":7189,"Ġrestricting":7190,"Ġrestrictive":7191,"Ġintroduces":7192,"Ġintroduced":7193,"appearances":7194,"ifices":7195,"III":7196,"Ġappropri":7197,"Ġexactness":7198,"Ġmanifests":7199,"produces":7200,"Ġchem":7201,"Ġlasting":7202,"Ġlastly":7203,"compared":7204,"Ġsooner":7205,"Ġarbitrarily":7206,"quantities":7207,"Ġfurnishes":7208,"constitutes":7209,"rence":7210,"Ġoffender":7211,"Ġdispense":7212,"ipse":7213,"Ġfacil":7214,"Ġaccepting":7215,"Ġputting":7216,"Ġsimilarity":7217,"presuppose":7218,"picion":7219,"satisfied":7220,"interested":7221,"Ġtaut":7222,"Ġdominion":7223,"demonstrated":7224,"Ġdownload":7225,"Ġconflicts":7226,"provided":7227,"conceivable":7228,"ouncement":7229,"Ġaccession":7230,"Ġfills":7231,"Ġarrangements":7232,"discoverable":7233,"Ġlosing":7234,"Ġirrational":7235,"investigations":7236,"Ġprevented":7237,"Ġdetach":7238,"claims":7239,"Ġhumbles":7240,"Practical":7241,"Why":7242,"Ġenlarged":7243,"Ġdiscussing":7244,"Ġdiscussed":7245,"motives":7246,"postulates":7247,"proceeds":7248,"proceeding":7249,"theoretically":7250,"Ġsentence":7251,"Ġbenefic":7252,"Ġelevation":7253,"Ġcontributions":7254,"Ġdiscerned":7255,"Ġomnis":7256,"Ġperforming":7257,"Ġantithetic":7258,"Ġearths":7259,"attempts":7260,"Ġgladly":7261,"Ġcapacities":7262,"indicates":7263,"Ġnecessitation":7264,"Ġremoving":7265,"Ġcrime":7266,"Ġcrude":7267,"Ġestimation":7268,"Ġprofessed":7269,"legislative":7270,"feelings":7271,"assertion":7272,"Ġincreased":7273,"Ġexcite":7274,"Ġ60":7275,"Ġpromotive":7276,"obliged":7277,"passing":7278,"Ġsafely":7279,"ĠEpicurean":7280,"ĠMoral":7281,"Ġspecification":7282,"Ġspecifically":7283,"problems":7284,"conviction":7285,"IRD":7286,"Ġgradual":7287,"ĠNatural":7288,"requirements":7289,"Ġprotected":7290,"ĠDIVIS":7291,"Ġsacred":7292,"Ġadduce":7293,"Ġdeclaring":7294,"Ġdeclaration":7295,"Ġdeclarations":7296,"Ġconfirms":7297,"Ġmoderation":7298,"Ġfruitless":7299,"Ġforbidden":7300,"Ġprejudice":7301,"Ġprejudicial":7302,"Ġobviously":7303,"Ġdescending":7304,"Ġcurrent":7305,"Ġunceasingly":7306,"Ġchimera":7307,"ĠObjective":7308,"Ġpenetration":7309,"Ġpenetrate":7310,"Ġrecommend":7311,"ĠStoic":7312,"combination":7313,"combined":7314,"Ġnumerous":7315,"Ġhyperphysical":7316,"ANTITHESIS":7317,"methods":7318,"arbitrary":7319,"obtained":7320,"reciprocal":7321,"Ġaccompanies":7322,"Ġcenturies":7323,"Ġreveals":7324,"Ġdamages":7325,"Ġdiminish":7326,"Ġdiminished":7327,"Ġexercises":7328,"Ġexercised":7329,"Ġdepartment":7330,"Ġextremely":7331,"Ġteachers":7332,"ĠVIII":7333,"affected":7334,"counter":7335,"demanded":7336,"noumena":7337,"noumenon":7338,"Ġwaver":7339,"Ġcredit":7340,"Ġmutually":7341,"Ġunbounded":7342,"Ġarchetyp":7343,"Ġarchetype":7344,"added":7345,"sophistical":7346,"semble":7347,"ulgence":7348,"Ġreconciled":7349,"Ġrevolution":7350,"Ġbeauty":7351,"Ġprinted":7352,"Ġrashly":7353,"ĠPossibility":7354,"Ġmachine":7355,"Ġinfallibly":7356,"Ġoverlooked":7357,"Ġstruggle":7358,"Ġomnipotent":7359,"Ġzero":7360,"suspicion":7361,"emonstrable":7362,"ACH":7363,"OREM":7364,"donate":7365,"Ġannexed":7366,"Ġ199":7367,"Ġsolicit":7368,"convinced":7369,"States":7370,"harmony":7371,"ymous":7372,"hausted":7373,"Ġsaltus":7374,"Ġbinding":7375,"Ġunfortunately":7376,"Ġchildren":7377,"ĠMORALS":7378,"discussion":7379,"becomes":7380,"Ġcatalog":7381,"Ġburden":7382,"Ġdispensed":7383,"Ġsubterfuge":7384,"Ġcontroversy":7385,"Ġacquaintance":7386,"Ġaxis":7387,"APHYSIC":7388,"duties":7389,"Ġseldom":7390,"telligence":7391,"concreto":7392,"Ġunavoidably":7393,"Ġunsuccessful":7394,"ĠBREACH":7395,"ĠMETAPHYSIC":7396,"ĠDIVISION":7397,"Äłpre":7398,"indu":7399,"Ġance":7400,"Äłtr":7401,"Ġach":7402,"Ġating":7403,"Äłsub":7404,"grat":7405,"substant":7406,"eous":7407,"Ġrom":7408,"Ġted":7409,"acqu":7410,"Ġog":7411,"itted":7412,"ibus":7413,"Äłim":7414,"obsc":7415,"oinc":7416,"fil":7417,"van":7418,"Ġers":7419,"Ġep":7420,"particip":7421,"HT":7422,"cr":7423,"Ġiv":7424,"Ġous":7425,"ouch":7426,"Ġism":7427,"llog":7428,"ĠIM":7429,"hens":7430,"artic":7431,"ĠHA":7432,"avail":7433,"requis":7434,"critic":7435,"BL":7436,"PEND":7437,"ban":7438,"coinc":7439,"dict":7440,"numer":7441,"pat":7442,"pun":7443,"ta":7444,"uc":7445,"athemat":7446,"Ġpot":7447,"anqu":7448,"Ġanc":7449,"Ġlar":7450,"iled":7451,"plain":7452,"abandon":7453,"Äłen":7454,"allen":7455,"fort":7456,"ponder":7457,"intention":7458,"izable":7459,"Ġacted":7460,"overt":7461,"knowled":7462,"Ġstanding":7463,"doctr":7464,"Ġmiss":7465,"impul":7466,"confess":7467,"conflict":7468,"circum":7469,"llogistic":7470,"NI":7471,"UM":7472,"authoriz":7473,"bene":7474,"cultiv":7475,"fl":7476,"fr":7477,"fal":7478,"ration":7479,"sk":7480,"sent":7481,"reconci":7482,"Ġpet":7483,"sett":7484,"Ġure":7485,"chief":7486,"Ġexperienced":7487,"exerc":7488,"force":7489,"ictions":7490,"strum":7491,"medi":7492,"distinct":7493,"IND":7494,"Ideal":7495,"Philos":7496,"13":7497,"17":7498,"18":7499,"Al":7500,"Ca":7501,"EG":7502,"GHT":7503,"ITION":7504,"Mathemat":7505,"NAL":7506,"NITY":7507,"Sy":7508,"bst":7509,"bour":7510,"bered":7511,"divers":7512,"eal":7513,"fill":7514,"lest":7515,"mem":7516,"mast":7517,"ngl":7518,"tow":7519,"tempt":7520,"uating":7521,"writ":7522,"xious":7523,"hel":7524,"ones":7525,"itim":7526,"isy":7527,"oric":7528,"Ġflu":7529,"edistrib":7530,"streng":7531,"ibr":7532,"uris":7533,"vert":7534,"ander":7535,"perform":7536,"Ġates":7537,"Ġsoci":7538,"ÄłF":7539,"Äłch":7540,"priv":7541,"indifferent":7542,"Ġship":7543,"matism":7544,"Ġended":7545,"undity":7546,"ĠUND":7547,"Ġattainable":7548,"miss":7549,"Ġip":7550,"pses":7551,"happen":7552,"Ġ40":7553,"xioms":7554,"signific":7555,"comparison":7556,"SITION":7557,"Ġconvenience":7558,"UDING":7559,"TRIBUT":7560,"AD":7561,"Again":7562,"BS":7563,"Happ":7564,"Is":7565,"NOM":7566,"OF":7567,"OBS":7568,"VI":7569,"VATIONS":7570,"aordin":7571,"bet":7572,"danger":7573,"ey":7574,"fut":7575,"fici":7576,"function":7577,"fixed":7578,"horizon":7579,"ipt":7580,"iant":7581,"lie":7582,"lated":7583,"pel":7584,"parent":7585,"rain":7586,"run":7587,"smell":7588,"wit":7589,"hetical":7590,"Ġaught":7591,"infer":7592,"iss":7593,"Ġcivil":7594,"Ġpair":7595,"Ġbes":7596,"Ġthrown":7597,"Ġmoun":7598,"cely":7599,"Ġdrop":7600,"iver":7601,"imb":7602,"ecided":7603,"Ġrob":7604,"Äłg":7605,"Ġsensual":7606,"ĠBOOK":7607,"orial":7608,"ades":7609,"adow":7610,"antom":7611,"ĠFUND":7612,"ourth":7613,"Ġadvers":7614,"Ġartic":7615,"Ġcontest":7616,"rade":7617,"TINOM":7618,"rowd":7619,"Ġraising":7620,"Ġsaf":7621,"Ġappeared":7622,"Ġimitation":7623,"various":7624,"habit":7625,"CEPTION":7626,"toward":7627,"'t":7628,")(":7629,"):":7630,"--":7631,".âĢĶ":7632,"280":7633,"40":7634,"Act":7635,"Author":7636,"Besides":7637,"Critique":7638,"Foundation":7639,"Finally":7640,"Hume":7641,"IV":7642,"Necessity":7643,"Plain":7644,"Time":7645,"VEN":7646,"YTIC":7647,"agement":7648,"aught":7649,"bra":7650,"business":7651,"culate":7652,"ethics":7653,"fold":7654,"fits":7655,"gue":7656,"holy":7657,"iatus":7658,"lication":7659,"license":7660,"lier":7661,"losing":7662,"mutable":7663,"pone":7664,"pite":7665,"pared":7666,"pdated":7667,"rs":7668,"sation":7669,"sciousness":7670,"scribe":7671,"takes":7672,"taken":7673,"vention":7674,"Ġtone":7675,"Ġtemper":7676,"held":7677,"once":7678,"onical":7679,"inner":7680,"incapable":7681,"inferences":7682,"inconsistent":7683,"incomprehensible":7684,"Ġomitted":7685,"itute":7686,"ithetic":7687,"isition":7688,"ateness":7689,"eral":7690,"erably":7691,"Ġwings":7692,"Ġwoe":7693,"Ġcut":7694,"Ġcard":7695,"Ġcustom":7696,"Ġculture":7697,"Ġsan":7698,"Ġsine":7699,"Ġsedu":7700,"Ġsmo":7701,"Ġsoft":7702,"Ġsaved":7703,"Ġpays":7704,"Ġpage":7705,"Ġpages":7706,"Ġportions":7707,"Ġpiece":7708,"alogy":7709,"almost":7710,"ica":7711,"Ġinsufficiency":7712,"Ġincap":7713,"Ġinhering":7714,"Ġincontest":7715,"Ġball":7716,"Ġbooks":7717,"Ġbaseless":7718,"orne":7719,"Ġmil":7720,"Ġmixture":7721,"Ġmoments":7722,"Ġfed":7723,"Ġfire":7724,"Ġflat":7725,"anwhile":7726,"anuary":7727,"Ġecon":7728,"Ġelucid":7729,"Ġreception":7730,"Ġrevere":7731,"Ġrestraint":7732,"Ġresolution":7733,"Ġreverse":7734,"Ġdi":7735,"Ġdread":7736,"Ġdwell":7737,"Ġduring":7738,"Ġdoubted":7739,"Ġbeg":7740,"entitled":7741,"otion":7742,"arum":7743,"arles":7744,"arched":7745,"arcely":7746,"asus":7747,"utiful":7748,"Ġhit":7749,"Ġhollow":7750,"iven":7751,"Ġlive":7752,"Ġlof":7753,"Ġlives":7754,"Ġlooks":7755,"Ġlively":7756,"Ġloose":7757,"Ġlimb":7758,"Ġnote":7759,"ĠĠĠĠĠ":7760,"Ġwealth":7761,"Ġforget":7762,"ceptive":7763,"terior":7764,"terms":7765,"Ġwithdrawn":7766,"uristic":7767,"ciences":7768,"verted":7769,"quality":7770,"ogmatism":7771,"perity":7772,"ulating":7773,"ĠTHAT":7774,"ĠTerms":7775,"changed":7776,"Ġdeed":7777,"Ġdeceive":7778,"Ġintend":7779,"ilt":7780,"ilty":7781,"Ġalge":7782,"Ġalike":7783,"pleteness":7784,"acted":7785,"usality":7786,"usual":7787,"Ġhast":7788,"Ġhabits":7789,"illusions":7790,"illiant":7791,"aments":7792,"Ġunlaw":7793,"Ġunites":7794,"Ġuniting":7795,"Ġunconscious":7796,"Ġuninter":7797,"Ġunansw":7798,"Ġunobserved":7799,"Ġunmixed":7800,"Ġunvarying":7801,"ummum":7802,"umbling":7803,"Ġ(_":7804,"Ġthereon":7805,"Ġlawgiver":7806,"Ġspare":7807,"Ġcompos":7808,"Ġcomponent":7809,"notwithstanding":7810,"often":7811,"Ġrises":7812,"Ġrising":7813,"Ġrisk":7814,"estors":7815,"Ġundermin":7816,"stands":7817,"Ġtroub":7818,"ĠBel":7819,"ĠBUT":7820,"Ġimpract":7821,"Ġheuristic":7822,"Ġpersist":7823,"ads":7824,"posited":7825,"Ġregulate":7826,"Ġshadow":7827,"ĠFinally":7828,"ĠFUL":7829,"Ġstability":7830,"Ġstopp":7831,"Ġquit":7832,"Ġquid":7833,"ordination":7834,"Ġconsent":7835,"ĠAct":7836,"acle":7837,"Ġappet":7838,"united":7839,"caution":7840,"Ġadhere":7841,"ĠPG":7842,"ĠPers":7843,"ĠPost":7844,"Ġdisregard":7845,"Ġye":7846,"strained":7847,"ĠThought":7848,"Ġleap":7849,"teaching":7850,"Ġparte":7851,"Ġpartiality":7852,"Ġcharact":7853,"Ġargu":7854,"ĠĠĠĠĠĠĠĠĠĠĠĠĠĠĠĠĠĠĠĠĠĠĠĠĠĠĠĠĠĠĠĠĠĠĠĠĠĠĠ":7855,"ĠSc":7856,"ĠSen":7857,"ĠSee":7858,"elve":7859,"preted":7860,"precede":7861,"pposites":7862,"opyright":7863,"Ġsubmitted":7864,"Ġsubrept":7865,"ĠOp":7866,"possibly":7867,"Ġserious":7868,"Ġserving":7869,"Ġdiffers":7870,"Ġdiffered":7871,"ĠInternal":7872,"Ġplane":7873,"Ġplausible":7874,"Ġnothingness":7875,"orts":7876,"ĠGos":7877,"reator":7878,"Ġgrate":7879,"Ġgross":7880,"ĠCa":7881,"ĠCertain":7882,"ĠCosm":7883,"ĠCritical":7884,"Ġowing":7885,"Ġdescribed":7886,"Ġdesirable":7887,"coming":7888,"proving":7889,"Ġemployees":7890,"Ġfirstly":7891,"Ġremed":7892,"Ġbelonged":7893,"Ġago":7894,"overty":7895,"Ġenabl":7896,"ĠRespect":7897,"ĠRedistrib":7898,"ĠEngl":7899,"ĠEVEN":7900,"having":7901,"Ġpresum":7902,"Ġoutset":7903,"Ġpossessions":7904,"earance":7905,"Ġapplicability":7906,"Ġamid":7907,"Ġamphiboly":7908,"Ġmatured":7909,"Ġattaching":7910,"ouncing":7911,"ĠDO":7912,"ĠDate":7913,"ĠDuty":7914,"ĠDifference":7915,"ĠDogmatism":7916,"angles":7917,"assume":7918,"assumption":7919,"Ġimpelled":7920,"thereto":7921,"Ġinviol":7922,"Ġhereby":7923,"Ġintelligibilis":7924,"Ġlikely":7925,"Ġhands":7926,"disposed":7927,"dispute":7928,"Ġresting":7929,"appoint":7930,"Ġrefuted":7931,"Ġrefutation":7932,"Ġdivisions":7933,"Ġproofread":7934,"Ġcompel":7935,"Ġcontradictorily":7936,"Ġassumptions":7937,"event":7938,"ĠLIC":7939,"ĠLocke":7940,"Ġconcludes":7941,"contradistinction":7942,"Ġtruths":7943,"ERVATIONS":7944,"Ġ100":7945,"Ġconsisting":7946,"Ġcontented":7947,"Ġconfound":7948,"Ġconfirmed":7949,"Ġconfounded":7950,"Ġmathematically":7951,"represented":7952,"Ġdiscovers":7953,"Intelligence":7954,"Ġmotions":7955,"Ġaffair":7956,"Ġconceptus":7957,"lements":7958,"relates":7959,"Ġsatisfactorily":7960,"Ġindul":7961,"Ġindivid":7962,"Ġindemonstrable":7963,"subordinated":7964,"Ġstandpoint":7965,"Ġarrogant":7966,"ENSE":7967,"Ġlegally":7968,"Ġimagin":7969,"Ġimages":7970,"Ġneeded":7971,"Ġneedless":7972,"Ġguess":7973,"Ġguides":7974,"Ġguided":7975,"Ġguiding":7976,"ĠĠĠĠĠĠĠĠĠĠĠĠĠĠĠĠĠĠĠĠĠĠĠĠĠ":7977,"ĠĠĠĠĠĠĠĠĠĠĠĠĠĠĠĠĠĠĠĠĠĠĠĠĠĠĠĠĠĠ":7978,"Ġscarcely":7979,"Ġnegativum":7980,"Ġinvestigated":7981,"Ġinvestigating":7982,"subjected":7983,"Ġantiqu":7984,"partly":7985,"Ġasserts":7986,"Ġassertor":7987,"Ġasserting":7988,"Ġassertorical":7989,"oval":7990,"ĠTHIRD":7991,"TERNAL":7992,"Ġattributing":7993,"morally":7994,"Ġcoal":7995,"ĠSuppose":7996,"Ġesse":7997,"completion":7998,"Ġprevents":7999,"Ġhero":8000,"Ġdistinctions":8001,"Ġpassages":8002,"Ġdeductions":8003,"Ġmisled":8004,"Ġmisconceptions":8005,"Ġmaterialism":8006,"Ġaffection":8007,"Ġvariance":8008,"Ġfalling":8009,"ĠTHEOREM":8010,"Ġfals":8011,"Ġadding":8012,"Ġagreed":8013,"ontological":8014,"Ġcircular":8015,"Ġspecious":8016,"Ġintellect":8017,"everyone":8018,"Ġbrain":8019,"Ġbranc":8020,"Ġbrilliant":8021,"Ġunden":8022,"ĠYet":8023,"Ġceases":8024,"morals":8025,"Ġvolunt":8026,"ignorance":8027,"Ġadvantageous":8028,"indefinitum":8029,"Ġparallel":8030,"prescribes":8031,"whereby":8032,"Ġauthors":8033,"Ġcontinues":8034,"Ġcontinuum":8035,"Ġcomparatively":8036,"Ġantecede":8037,"ĠUnless":8038,"ĠUniversal":8039,"justify":8040,"Ġtransfer":8041,"Ġtransformed":8042,"ĠExcept":8043,"believe":8044,"Ġprofits":8045,"Ġexclusion":8046,"Ġcombine":8047,"Ġdogmatically":8048,"Ġinscr":8049,"community":8050,"Ġdesigns":8051,"Ġevils":8052,"Ġtranscendentally":8053,"Ġcomprehension":8054,"Ġsurvey":8055,"ĠArgum":8056,"ighbour":8057,"Ġblamed":8058,"Ġbliss":8059,"Ġrestricts":8060,"ificent":8061,"Ġ568":8062,"Ġappropriate":8063,"INTRODUCTION":8064,"ĠVanilla":8065,"employing":8066,"Ġearlier":8067,"ĠJanuary":8068,"containing":8069,"Ġseparation":8070,"Ġtests":8071,"Ġcareful":8072,"Ġconcrete":8073,"THING":8074,"divisibility":8075,"insically":8076,"possession":8077,"Ġhypothetically":8078,"Ġacquisition":8079,"Ġputs":8080,"faculties":8081,"Ġadopting":8082,"thinks":8083,"ĠpropÃ¦deutic":8084,"Ġreaching":8085,"Ġhappening":8086,"Ġdestroyed":8087,"analyse":8088,"kinds":8089,"conformable":8090,"conformably":8091,"Ġconvert":8092,"Ġconversion":8093,"Ġsubtlety":8094,"sensations":8095,"demonstrative":8096,"Ġcollected":8097,"Ġannihilates":8098,"Ġlaying":8099,"characteristic":8100,"characteristics":8101,"ĠANTINOM":8102,"contentment":8103,"judge":8104,"ruption":8105,"Ġimplanted":8106,"province":8107,"enetrable":8108,"Ġindispensably":8109,"Ġdefault":8110,"Ġadmire":8111,"lightened":8112,"Ġfanci":8113,"Ġmajesty":8114,"Ġplainly":8115,"subsisting":8116,"Ġopened":8117,"Supposing":8118,"Ġplanets":8119,"Ġassigns":8120,"Ġabsurdity":8121,"continue":8122,"continuous":8123,"particularly":8124,"Ġinduction":8125,"Ġinduced":8126,"Ġreceipt":8127,"Ġborrowing":8128,"Ġelevating":8129,"Ġsucceeding":8130,"Ġdiscernment":8131,"Ġangle":8132,"Ġmistake":8133,"Ġperformed":8134,"Ġapparently":8135,"Only":8136,"afterwards":8137,"Ġnecessitate":8138,"Ġsubsume":8139,"Ġremoves":8140,"Ġfitted":8141,"Ġfitting":8142,"Ġcry":8143,"Ġproportioned":8144,"Ġaggregation":8145,"Ġreflecting":8146,"proofs":8147,"Ġpopularity":8148,"Ġrepay":8149,"Ġsignal":8150,"Ġreturns":8151,"Ġanimals":8152,"Ġexcused":8153,"Ġentering":8154,"Ġrenunciation":8155,"Ġcalm":8156,"Ġcalculate":8157,"Ġprosperity":8158,"Ġextravag":8159,"Ġextraordin":8160,"Ġpersuaded":8161,"Ġpersuade":8162,"ĠCharles":8163,"ĠEmpty":8164,"Ġschematism":8165,"defined":8166,"pretation":8167,"influenced":8168,"Ġtwelve":8169,"Ġwondered":8170,"Ġbuilt":8171,"Ġsuggested":8172,"ĠMorals":8173,"Ġhonesty":8174,"Ġhonestly":8175,"scepticism":8176,"Ġdoctrinal":8177,"Ġsubsisting":8178,"Ġsubsistence":8179,"Ġsecretly":8180,"Ġillustration":8181,"Ġillustrate":8182,"Ġconfession":8183,"deduce":8184,"commonest":8185,"Ġprotect":8186,"Ġcomplaint":8187,"ĠInterest":8188,"ĠWho":8189,"ĠWhatever":8190,"Ġanticipation":8191,"Ġpathologically":8192,"Ġcontemplated":8193,"Ġordains":8194,"Ġordinary":8195,"restriction":8196,"restricted":8197,"sufficiently":8198,"Ġpattern":8199,"Ġabandons":8200,"ĠCONFL":8201,"Ġcommunicated":8202,"Ġsupplying":8203,"Ġperiods":8204,"Ġperiodic":8205,"AMENTAL":8206,"maintained":8207,"anthropology":8208,"Ġdictate":8209,"Ġdictates":8210,"Ġchimeras":8211,"Ġchimerical":8212,"ĠCompleteness":8213,"ĠMetaphysical":8214,"commanded":8215,"clearness":8216,"absence":8217,"Ġclearer":8218,"Ġresolve":8219,"Ġresolved":8220,"Ġrecommended":8221,"Ġdry":8222,"Ġhardly":8223,"Ġundertaken":8224,"Ġformats":8225,"Ġdisclaimer":8226,"Ġdisclaimers":8227,"Ġarchitectonical":8228,"Ġgranting":8229,"Ġambiguous":8230,"Ġnumerical":8231,"ĠIdealism":8232,"Ġfulfilment":8233,"Ġhypertext":8234,"Ġmonth":8235,"coexistence":8236,"reciprocally":8237,"Ġproprietary":8238,"ĠTransition":8239,"Ġreveal":8240,"Ġpraised":8241,"Ġembraces":8242,"Ġparalogisms":8243,"Ġdestructive":8244,"Ġmagnanim":8245,"Ġmagnificent":8246,"Ġwarnings":8247,"anticipation":8248,"copyright":8249,"smallest":8250,"words":8251,"Ġanthropology":8252,"Ġanthropomorph":8253,"Ġcredential":8254,"Ġinherent":8255,"Ġinstitute":8256,"Ġinstituted":8257,"Ġthreaten":8258,"Ġmutual":8259,"Ġfooting":8260,"Ġsusceptibility":8261,"Ġunbroken":8262,"Ġhearing":8263,"ĠApplication":8264,"ĠAppearance":8265,"Ġimperfection":8266,"ĠProblem":8267,"ĠProblems":8268,"Ġobstinate":8269,"Ġobstinately":8270,"Ġhypostatizing":8271,"CLUDING":8272,"syllogisms":8273,"Ġselfishness":8274,"Ġmiddle":8275,"Ġbeautiful":8276,"Ġroyalty":8277,"Ġroyalties":8278,"Ġvisit":8279,"Ġsharp":8280,"ĠPossible":8281,"Ġgrowth":8282,"Ġenumeration":8283,"Ġinfallible":8284,"Ġcompensate":8285,"Ġguaranteed":8286,"Ġomnipotence":8287,"intuite":8288,"assumed":8289,"circle":8290,"ĠSTART":8291,"Ġpoison":8292,"Ġcourage":8293,"Ġlurks":8294,"Ġsuitably":8295,"Ġunfair":8296,"Ġvacant":8297,"Ġinvalidity":8298,"Ġelaboration":8299,"Ġcoincide":8300,"Ġharmless":8301,"Ġconjoining":8302,"Ġcombatants":8303,"ĠANALYTIC":8304,"Ġcalculated":8305,"ĠMathematical":8306,"ĠMathematics":8307,"annihilated":8308,"inevitable":8309,"ocrisy":8310,"Ġhesitate":8311,"Ġfairly":8312,"Ġlaborious":8313,"Ġdeceitful":8314,"Ġparticipation":8315,"ĠDISTRIBUT":8316,"Ġimpediments":8317,"ĠConclusions":8318,"Ġdeliberate":8319,"Ġindubitable":8320,"Ġridiculous":8321,"speaking":8322,"specification":8323,"Nothing":8324,"heteronomy":8325,"assigned":8326,"accurate":8327,"accompanied":8328,"Archive":8329,"spontaneity":8330,"reckoned":8331,"Produced":8332,"declaring":8333,"efforts":8334,"referred":8335,"Ġfiles":8336,"Ġrestrain":8337,"Ġboni":8338,"Ġpragmatical":8339,"Ġexaggerated":8340,"ĠIllusory":8341,"Ġvictory":8342,"Ġvague":8343,"Ġsynonymous":8344,"Ġstepping":8345,"Ġmaster":8346,"ĠIntroductory":8347,"ĠGround":8348,"Ġsurprising":8349,"Ġfigurative":8350,"Ġastonishment":8351,"Ġdenominate":8352,"ĠAGREE":8353,"appeared":8354,"Principle":8355,"Ġostensive":8356,"ducive":8357,"Ġstructure":8358,"Empirical":8359,"spring":8360,"sletter":8361,"intrinsic":8362,"atirae":8363,"prudence":8364,"Ġissue":8365,"Ġanxiety":8366,"ĠIDEAS":8367,"Ġprohibition":8368,"Ġappellation":8369,"ĠPsychology":8370,"ĠRelation":8371,"ĠRoyalty":8372,"ĠMonad":8373,"Ġomniscient":8374,"Ġcatalogue":8375,"ĠHAVE":8376,"Ġancestors":8377,"help":8378,"ĠUNDER":8379,"Happiness":8380,"OBSERVATIONS":8381,"better":8382,"future":8383,"ĠFUNDAMENTAL":8384,"Ġsafety":8385,"Ġfederal":8386,"Ġreverence":8387,"Ġalgebra":8388,"Ġunlawful":8389,"Ġcompositum":8390,"ĠBelief":8391,"ĠFULL":8392,"Ġcharacters":8393,"Ġenabling":8394,"ĠLICENSE":8395,"Ġbranches":8396,"Ġinscrutable":8397,"ĠANTINOMY":8398,"Ġextraordinary":8399,"ĠCONFLICT":8400,"Ġmagnanimous":8401,"ann":8402,"Ġally":8403,"Ġality":8404,"ÄłÄłÄłÄłÄłÄłÄłÄłÄłÄłÄłÄłÄłÄłÄłÄł":8405,"Ġect":8406,"threat":8407,"Äłbe":8408,"myst":8409,"NT":8410,"asc":8411,"Ġalt":8412,"Äład":8413,"Äłsh":8414,"pirit":8415,"Ġard":8416,"ribe":8417,"manifest":8418,"BILITY":8419,"ucid":8420,"Ġsem":8421,"Ġative":8422,"ÄłN":8423,"ÄłW":8424,"Äłsp":8425,"ignific":8426,"eg":8427,"Ġlat":8428,"embarrass":8429,"Äłpro":8430,"ĠUT":8431,"cret":8432,"Concl":8433,"transgress":8434,"568":8435,"OP":8436,"xt":8437,"onom":8438,"Ġct":8439,"esis":8440,"Ġbar":8441,"ÄłH":8442,"ÄłI":8443,"ÄłT":8444,"cast":8445,"princip":8446,"invent":8447,"architect":8448,"20":8449,"622":8450,"Ch":8451,"Cont":8452,"bre":8453,"cur":8454,"carr":8455,"fail":8456,"ho":8457,"lab":8458,"tes":8459,"uously":8460,"het":8461,"alter":8462,"Ġish":8463,"llous":8464,"thetic":8465,"impl":8466,"thy":8467,"emin":8468,"chimer":8469,"endi":8470,"hentic":8471,"depr":8472,"Äłimp":8473,"prot":8474,"pros":8475,"suggest":8476,"ungl":8477,"Ġlear":8478,"prohib":8479,"weight":8480,"sensual":8481,"ocal":8482,"hapsod":8483,"commerci":8484,"attack":8485,"veloped":8486,"55":8487,"75":8488,"AIM":8489,"DENTAL":8490,"DED":8491,"Epic":8492,"IX":8493,"IVE":8494,"LE":8495,"Mor":8496,"Sto":8497,"URE":8498,"az":8499,"cal":8500,"dest":8501,"eas":8502,"elev":8503,"fa":8504,"fam":8505,"hum":8506,"join":8507,"kal":8508,"lo":8509,"mer":8510,"nic":8511,"oh":8512,"put":8513,"penetr":8514,"sid":8515,"touch":8516,"vi":8517,"wis":8518,"wart":8519,"warrant":8520,"Ġ#":8521,"Ġ$":8522,"Ġ80":8523,"ino":8524,"instruct":8525,"enumer":8526,"Ġthrow":8527,"anch":8528,"animal":8529,"ascertain":8530,"ivae":8531,"osity":8532,"Ġland":8533,"essor":8534,"ithmet":8535,"ider":8536,"Ġproc":8537,"conject":8538,"confin":8539,"conven":8540,"ilia":8541,"hensibility":8542,"plan":8543,"ighed":8544,"Ġcoming":8545,"estic":8546,"prim":8547,"ometer":8548,"specul":8549,"bell":8550,"Ġending":8551,"propri":8552,"service":8553,"Ġinterested":8554,"controvert":8555,"ERAL":8556,"undoubted":8557,"Ġ16":8558,"contempt":8559,"obvious":8560,"grant":8561,"indefinite":8562,"ilarly":8563,"product":8564,"iberum":8565,"criter":8566,"opernic":8567,"PLEAS":8568,"seek":8569,"SIBILITY":8570,"ancendent":8571,"inevit":8572,"schol":8573,"hensions":8574,"PENDIX":8575,"banks":8576,"circumst":8577,"Ġaltered":8578,"62215":8579,"10":8580,"45":8581,"Among":8582,"First":8583,"Fourth":8584,"GENCE":8585,"NES":8586,"POSE":8587,"SS":8588,"WARRAN":8589,"Wolf":8590,"custom":8591,"dden":8592,"fast":8593,"firm":8594,"fault":8595,"gust":8596,"hort":8597,"high":8598,"hip":8599,"mother":8600,"nify":8601,"pus":8602,"sure":8603,"sipp":8604,"Ġ'":8605,"Ġ+":8606,"heit":8607,"Ġadequ":8608,"Ġos":8609,"rew":8610,"atch":8611,"erke":8612,"Ġwarrant":8613,"Ġcame":8614,"estr":8615,"Ġbow":8616,"Ġmer":8617,"Ġfund":8618,"otyp":8619,"aralogism":8620,"asm":8621,"imid":8622,"image":8623,"urbed":8624,"ĠIX":8625,"sibilities":8626,"constant":8627,"amount":8628,"abilis":8629,"igious":8630,"iest":8631,"trace":8632,"ousand":8633,"adem":8634,"adapt":8635,"Ġsyllogistic":8636,"phold":8637,"acent":8638,"mental":8639,"teen":8640,"Ġary":8641,"spread":8642,"sissipp":8643,"prefer":8644,"aging":8645,"intuit":8646,"meant":8647,"ĠCHA":8648,"Ġhappily":8649,"lessed":8650,"uteness":8651,"Ġcorrupt":8652,"ERCHA":8653,"Ġresist":8654,"structive":8655,"ENTI":8656,"arrangement":8657,"ALITY":8658,"Ġ22":8659,"iae":8660,"aska":8661,"iumph":8662,"Ġagreeable":8663,"Ġagreeableness":8664,"Ġpositions":8665,"consequentia":8666,"superfluous":8667,"junct":8668,"SEQU":8669,"equal":8670,"iliary":8671,"CTRIN":8672,"colour":8673,"Ġidle":8674,"Ġinstructed":8675,"CLAIM":8676,"reptitious":8677,"guarded":8678,"false":8679,"ERCHANT":8680,"!)":8681,"\".":8682,"*]":8683,".:":8684,".;":8685,"11":8686,"39":8687,"57":8688,"79":8689,"After":8690,"Books":8691,"EBook":8692,"Further":8693,"FIRST":8694,"FORE":8695,"IED":8696,"IRECT":8697,"Literary":8698,"License":8699,"Language":8700,"LIMITED":8701,"Most":8702,"Moreover":8703,"PPENDIX":8704,"Right":8705,"Rational":8706,"Remark":8707,"RICT":8708,"RPOSE":8709,"Title":8710,"Very":8711,"aple":8712,"apart":8713,"aired":8714,"acies":8715,"bly":8716,"ches":8717,"culture":8718,"cartes":8719,"dash":8720,"dignity":8721,"efficient":8722,"ease":8723,"eBook":8724,"eBooks":8725,"failed":8726,"iological":8727,"ipses":8728,"iosity":8729,"land":8730,"mas":8731,"mise":8732,"mber":8733,"mdash":8734,"oke":8735,"opposed":8736,"pire":8737,"putation":8738,"ror":8739,"rought":8740,"ried":8741,"sakes":8742,"taking":8743,"txt":8744,"uation":8745,"uated":8746,"vity":8747,"vive":8748,"vain":8749,"verest":8750,"wishes":8751,"yle":8752,"zip":8753,"Ġtant":8754,"Ġtear":8755,"Ġtempt":8756,"Ġain":8757,"Ġaux":8758,"iny":8759,"inference":8760,"information":8761,"instruction":8762,"ineness":8763,"Ġopposing":8764,"Ġopposites":8765,"Ġtheolog":8766,"rendered":8767,"recognized":8768,"reverse":8769,"reproductive":8770,"itatis":8771,"iteness":8772,"Ġoffered":8773,"aton":8774,"atible":8775,"atically":8776,"erce":8777,"ervice":8778,"Ġwont":8779,"Ġwander":8780,"Ġcand":8781,"Ġcold":8782,"Ġcurs":8783,"Ġcush":8784,"Ġcitiz":8785,"Ġsit":8786,"Ġsag":8787,"Ġsending":8788,"Ġsorrow":8789,"Ġsmell":8790,"Ġpoverty":8791,"along":8792,"alogical":8793,"icited":8794,"Ġincompre":8795,"Ġincorrect":8796,"Ġinjustice":8797,"Ġindiscern":8798,"Ġinsecure":8799,"Ġinstrum":8800,"Ġinaccurate":8801,"Ġincontrovert":8802,"esthetic":8803,"Ġbro":8804,"Ġbinary":8805,"Ġborne":8806,"Ġthir":8807,"Ġthread":8808,"Ġthwart":8809,"orous":8810,"Ġming":8811,"Ġmove":8812,"Ġmock":8813,"Ġmillion":8814,"cease":8815,"cember":8816,"Ġfing":8817,"Ġfam":8818,"Ġfant":8819,"Ġfaint":8820,"Ġfavoured":8821,"Ġfresh":8822,"analogy":8823,"edifice":8824,"edient":8825,"editions":8826,"Ġnom":8827,"Ġnought":8828,"Ġnames":8829,"Ġnaught":8830,"Ġecl":8831,"Ġeleg":8832,"Ġearn":8833,"Ġepo":8834,"outh":8835,"ley":8836,"leology":8837,"leave":8838,"Ġrever":8839,"Ġrecognition":8840,"Ġrepress":8841,"Ġreaches":8842,"Ġremind":8843,"Ġresearch":8844,"Ġresemble":8845,"Ġdouble":8846,"Ġbeha":8847,"stition":8848,"sthetical":8849,"omaton":8850,"entions":8851,"Ġwhit":8852,"otes":8853,"utor":8854,"utum":8855,"utious":8856,"Ġhour":8857,"Ġhint":8858,"Ġhiatus":8859,"Ġprince":8860,"Ġasks":8861,"Ġascribing":8862,"thew":8863,"theory":8864,"theologia":8865,"ivocal":8866,"imony":8867,"imilarly":8868,"Ġexhausted":8869,"Ġliqu":8870,"Ġlangu":8871,"Ġlament":8872,"Ġlikes":8873,"Ġliking":8874,"Ġwear":8875,"idge":8876,"idently":8877,"Ġsuppos":8878,"Ġsuits":8879,"Ġsudden":8880,"irus":8881,"Ġgene":8882,"urance":8883,"quid":8884,"ivered":8885,"resistance":8886,"isturbed":8887,"emarks":8888,"embered":8889,"emnify":8890,"Ġproject":8891,"Ġreasoners":8892,"ĠTRAN":8893,"Ġobjected":8894,"vellous":8895,"connexion":8896,"choice":8897,"endeavoured":8898,"Ġdear":8899,"Ġdeist":8900,"Ġdeposit":8901,"Ġdeceptive":8902,"Ġintentions":8903,"iliar":8904,"Ġalkal":8905,"pleases":8906,"therwise":8907,"acts":8908,"actly":8909,"usio":8910,"illusory":8911,"aware":8912,"aming":8913,"Ġunsol":8914,"Ġunquestion":8915,"Ġunconnected":8916,"Ġunimportant":8917,"Ġunanim":8918,"Ġunsatisfactory":8919,"âĢĶ(":8920,"olunteers":8921,"ĠĠĠĠĠĠĠĠĠĠ":8922,"Ġthereupon":8923,"Ġlawless":8924,"tries":8925,"tricable":8926,"Ġspent":8927,"Ġspheres":8928,"Ġsprun":8929,"Ġcomfort":8930,"ofessor":8931,"Ġpossibilities":8932,"Ġrap":8933,"ested":8934,"Ġempiric":8935,"Ġembell":8936,"Ġsoar":8937,"ideality":8938,"Ġtrave":8939,"Ġtraining":8940,"Ġtrades":8941,"Ġtriumph":8942,"ÄłG":8943,"ÄłL":8944,"ÄłO":8945,"Äło":8946,"Äłar":8947,"Ġvulg":8948,"Ġvicious":8949,"Ġvocation":8950,"Ġvirus":8951,"Ġwilled":8952,"ĠTheology":8953,"ĠTheoretical":8954,"odes":8955,"odality":8956,"ĠBec":8957,"ĠBonum":8958,"ĠBetween":8959,"Ġimposing":8960,"Ġimmedi":8961,"Ġimmutable":8962,"Ġhearer":8963,"ounds":8964,"Ġpertaining":8965,"Ġably":8966,"Ġabut":8967,"Ġabode":8968,"allowed":8969,"Ġnovel":8970,"Ġnobody":8971,"supposes":8972,"Ġregulating":8973,"Ġusage":8974,"antity":8975,"Ġshalt":8976,"ĠFac":8977,"ĠFRO":8978,"ĠFIT":8979,"ĠFOU":8980,"phaenomenon":8981,"Ġsearched":8982,"Ġcognizes":8983,"Ġstay":8984,"Ġstaff":8985,"Ġstream":8986,"Ġstumbling":8987,"Ġstyle":8988,"Ġquick":8989,"Ġreligious":8990,"presenting":8991,"why":8992,"whom":8993,"Ġconscience":8994,"nowhere":8995,"ĠAd":8996,"ĠAutonomy":8997,"ĠAug":8998,"ĠAxioms":8999,"ĠAesthetic":9000,"Ġjuris":9001,"Ġaccus":9002,"Ġappend":9003,"union":9004,"unattainable":9005,"forces":9006,"ĠForm":9007,"ĠPre":9008,"ĠPref":9009,"ĠPART":9010,"ĠParalogism":9011,"Ġdisk":9012,"Ġdiss":9013,"Ġdispar":9014,"Ġdisposed":9015,"Ġdispleasure":9016,"Ġdissect":9017,"Ġdissection":9018,"Ġdisinterested":9019,"Ġdisappoint":9020,"Ġdisgust":9021,"etc":9022,"etic":9023,"etition":9024,"eties":9025,"etext":9026,"ĠThose":9027,"ĠThrough":9028,"teleological":9029,"Ġpartially":9030,"Ġchapt":9031,"Ġchallen":9032,"Ġsomeone":9033,"Ġmoralists":9034,"Ġargue":9035,"ĠĠĠĠĠĠĠĠĠĠĠĠĠĠĠĠĠĠĠĠĠĠĠĠĠĠĠĠĠĠĠĠĠĠĠ":9036,"ternational":9037,"ĠSh":9038,"ĠSoul":9039,"ĠSUC":9040,"ĠSpecial":9041,"ĠSecondly":9042,"ĠSummum":9043,"ĠSatirae":9044,"ĠService":9045,"ĠSouth":9046,"Ġphantom":9047,"solve":9048,"eless":9049,"Ġwhoever":9050,"ensed":9051,"ĠNecessity":9052,"ĠNEG":9053,"opinions":9054,"Ġsubmission":9055,"Ġsubspecies":9056,"Ġsubordination":9057,"ĠOTHER":9058,"intended":9059,"intensive":9060,"Ġthank":9061,"imitation":9062,"Ġfreed":9063,"Ġnearest":9064,"Ġneighbour":9065,"ĠInte":9066,"ĠInfinite":9067,"ĠInasmuch":9068,"Ġplans":9069,"Ġcausa":9070,"orted":9071,"Ġcontents":9072,"ĠGre":9073,"ĠGIVE":9074,"ĠWis":9075,"ĠWest":9076,"ĠWhence":9077,"ĠWHAT":9078,"reating":9079,"Ġgrown":9080,"Ġgravity":9081,"They":9082,"ĠCl":9083,"ĠCause":9084,"ĠCopyright":9085,"ĠCreator":9086,"ĠCopernic":9087,"Ġassures":9088,"Ġassuring":9089,"Ġassurance":9090,"Ġobl":9091,"Ġpositing":9092,"comes":9093,"Ġfounds":9094,"Ġcommitted":9095,"projected":9096,"Ġremoval":9097,"Ġdiscret":9098,"Ġsystematically":9099,"ĠHist":9100,"ĠHypothe":9101,"Ġactuality":9102,"weapons":9103,"Ġextinct":9104,"Ġagents":9105,"Ġenv":9106,"Ġenig":9107,"Ġenounced":9108,"Ġenclose":9109,"Ġenjoined":9110,"stitution":9111,"ĠRemark":9112,"ĠRemarks":9113,"Ġeffecting":9114,"Ġeffective":9115,"ĠEv":9116,"ĠEIN":9117,"ĠEBook":9118,"ĠEthics":9119,"ĠElements":9120,"Ġthinkable":9121,"Ġoutline":9122,"Ġoutlines":9123,"Ġtert":9124,"Ġsensibilis":9125,"reasoning":9126,"early":9127,"physiology":9128,"ĠDr":9129,"Ġgreatness":9130,"Ġenters":9131,"Ġentium":9132,"Ġentrust":9133,"Ġbasing":9134,"Ġfacta":9135,"Ġfacto":9136,"Ġfacts":9137,"Ġsecures":9138,"angled":9139,"Ġinclined":9140,"Ġimpot":9141,"Ġimputation":9142,"Ġimpenetrability":9143,"Ġshallow":9144,"Ġoriginator":9145,"Ġcorrection":9146,"Ġcorruption":9147,"Thou":9148,"Those":9149,"Thirdly":9150,"Ġinvention":9151,"Ġinflex":9152,"Ġexplore":9153,"Ġpowerless":9154,"Ġintelligibility":9155,"experienced":9156,"ĠReality":9157,"ĠReplace":9158,"ĠRepresentation":9159,"ĠRefund":9160,"ĠMay":9161,"ĠMany":9162,"ĠMotion":9163,"ĠMERCHANT":9164,"Ġapper":9165,"discipline":9166,"Ġwherefore":9167,"Ġcharacterized":9168,"Ġcharacterizes":9169,"Ġrested":9170,"Ġanalyst":9171,"raid":9172,"raise":9173,"raising":9174,"Ġrefuses":9175,"Ġsummon":9176,"Ġcompounded":9177,"Ġadvice":9178,"ĠLat":9179,"Ġconclusive":9180,"Ġconceives":9181,"Ġresides":9182,"Ġsincere":9183,"Ġdecre":9184,"Ġ17":9185,"Ġ18":9186,"Ġmetal":9187,"ĠUnder":9188,"ĠUpon":9189,"learned":9190,"Ġsupplement":9191,"Ġconsistently":9192,"Ġillum":9193,"Ġaimed":9194,"represents":9195,"representing":9196,"Information":9197,"Instead":9198,"International":9199,"Ġ[*]":9200,"ĠOne":9201,"ĠOnt":9202,"ĠConsciousness":9203,"related":9204,"religion":9205,"Ġdegr":9206,"naturally":9207,"natura":9208,"Ġindulgence":9209,"Ġindestr":9210,"Ġindemnify":9211,"Ġsuccessfully":9212,"Ġdefining":9213,"subtle":9214,"substratum":9215,"Ġworthlessness":9216,"Ġplea":9217,"Ġpleasing":9218,"redit":9219,"Ġupwards":9220,"Ġarranging":9221,"ENERAL":9222,"Ġoccasions":9223,"TICE":9224,"Ġobserver":9225,"Ġobserves":9226,"Ġobservers":9227,"Ġelimin":9228,"Ġacuteness":9229,"Ġlegitim":9230,"monition":9231,"Ġconsequentia":9232,"Ġneedful":9233,"Ġmodus":9234,"Ġmodified":9235,"Ġmodesty":9236,"Ġresulted":9237,"Ġguilty":9238,"ĠĠĠĠĠĠĠĠĠĠĠĠĠĠĠĠĠĠĠĠĠĠĠĠĠĠĠĠ":9239,"Ġscatt":9240,"Ġcopied":9241,"Ġcopula":9242,"Ġnegations":9243,"subjects":9244,"Ġnewsletter":9245,"Ġmaintenance":9246,"Ġbodily":9247,"Ġmethodology":9248,"Ġreading":9249,"Ġeasier":9250,"arrive":9251,"ovember":9252,"Ġdogmas":9253,"Ġovercome":9254,"Ġnonsense":9255,"Ġdemonstrates":9256,"synthetic":9257,"Ġanswering":9258,"Ġcoherence":9259,"Ġposterity":9260,"Ġpostpone":9261,"Ġexcepted":9262,"obedience":9263,"Ġmemory":9264,"Ġcontinual":9265,"Ġinquires":9266,"Ġidentify":9267,"Ġprovision":9268,"Ġprovides":9269,"Ġprovisions":9270,"Ġinstant":9271,"Ġexpects":9272,"Ġhoping":9273,"Ġhoped":9274,"Ġhopeless":9275,"Ġmislead":9276,"Ġmiserable":9277,"Ġdenote":9278,"Ġappreciation":9279,"Ġaffecting":9280,"Ġaffections":9281,"Ġprogressing":9282,"Ġgenerality":9283,"Ġgenerations":9284,"Ġobliges":9285,"Ġremarkably":9286,"Ġvariable":9287,"Ġsuperstition":9288,"extended":9289,"Ġaids":9290,"ocent":9291,"Ġdraws":9292,"Ġaffirms":9293,"differences":9294,"simony":9295,"connects":9296,"blance":9297,"Ġharmonizes":9298,"Ġyourselves":9299,"sometimes":9300,"Ġbrief":9301,"Ġundisturbed":9302,"ĠYes":9303,"Ġceaseless":9304,"Ġvolume":9305,"Ġjudicial":9306,"Ġfutility":9307,"Ġdistinctive":9308,"Ġoperate":9309,"Ġintrinsically":9310,"ĠAny":9311,"Ġcorrective":9312,"Ġpretence":9313,"Ġlieu":9314,"Ġabsor":9315,"limitations":9316,"presence":9317,"Ġintuites":9318,"Ġleaden":9319,"Ġcontinuance":9320,"Ġdynamically":9321,"ĠUniverse":9322,"legal":9323,"intelligent":9324,"intelligibility":9325,"Ġsupports":9326,"Ġsupporting":9327,"justification":9328,"Ġexhibition":9329,"Ġtransfers":9330,"ĠExt":9331,"ordinate":9332,"Ġrecognises":9333,"Ġrecognised":9334,"Ġcombines":9335,"Ġinsignific":9336,"Ġdesignated":9337,"Ġabstracting":9338,"impression":9339,"Ġdonation":9340,"Ġdonors":9341,"Ġsurr":9342,"Ġsurpass":9343,"Ġsurrender":9344,"Ġsurveyed":9345,"Ġsurreptitious":9346,"Ġsurvive":9347,"Ġoccupying":9348,"Ġkept":9349,"Ġdelight":9350,"Ġapprove":9351,"Ġreferring":9352,"Ġcircumference":9353,"compare":9354,"Ġorganism":9355,"Ġsignifications":9356,"created":9357,"Ġearlies":9358,"considering":9359,"considerable":9360,"placed":9361,"ĠJuly":9362,"quantitas":9363,"Ġfurnishing":9364,"people":9365,"distinguishing":9366,"ĠKIND":9367,"ĠKey":9368,"Ġseparately":9369,"Ġtested":9370,"Ġtestimony":9371,"confusion":9372,"confirmed":9373,"ĠREAD":9374,"worthiness":9375,"divided":9376,"Ġdisputing":9377,"Ġdisputation":9378,"Ġcarries":9379,"Ġcarried":9380,"Ġcarrying":9381,"Ġaccepts":9382,"Ġacceptation":9383,"Ġspeaks":9384,"Ġcreate":9385,"Ġcreations":9386,"value":9387,"atae":9388,"Ġgains":9389,"Ġgaining":9390,"Ġsimilarly":9391,"Ġcosmology":9392,"ĠState":9393,"ĠStaple":9394,"originally":9395,"originates":9396,"Ġinterfere":9397,"Ġintermediate":9398,"Ġintervention":9399,"Ġinterpreted":9400,"conformability":9401,"Ġconversation":9402,"realitas":9403,"Ġwisely":9404,"demonstrate":9405,"Ġcollective":9406,"ĠANTITHESIS":9407,"judged":9408,"mortal":9409,"Ġtranscending":9410,"Ġtranscription":9411,"Ġtranscribe":9412,"Ġheterogeneity":9413,"providing":9414,"Ġarts":9415,"concealed":9416,"explained":9417,"Release":9418,"greatness":9419,"antecede":9420,"discovering":9421,"Ġ95":9422,"Ġ99":9423,"Ġreciprocity":9424,"Ġprivativum":9425,"Ġprivilege":9426,"Ġequals":9427,"Ġcomprehending":9428,"denial":9429,"Ġfailing":9430,"Ġsophistries":9431,"Ġanalogon":9432,"Ġbackwards":9433,"ĠImper":9434,"Ġdetect":9435,"Ġdetail":9436,"continually":9437,"Ġpracticability":9438,"Ġhumility":9439,"Ġhumble":9440,"airbanks":9441,"Ġinduces":9442,"Ġprocessing":9443,"Ġventures":9444,"Ġventured":9445,"posted":9446,"postulate":9447,"uitous":9448,"Ġturns":9449,"Ġelevates":9450,"Ġweighty":9451,"Ġstudies":9452,"Ġcontributing":9453,"Ġdiscerning":9454,"Ġantecedentia":9455,"looked":9456,"nexus":9457,"Ġmistrust":9458,"EDIES":9459,"Ġpunished":9460,"Ġpunishments":9461,"Ġdestined":9462,"Ġdestitute":9463,"Ġpreserved":9464,"ĠDefect":9465,"ĠDependence":9466,"ĠDecember":9467,"Ġ2000":9468,"Ġ2004":9469,"contingency":9470,"attempted":9471,"Ġglance":9472,"Ġglass":9473,"Ġglorious":9474,"Ġcapability":9475,"negation":9476,"Ġintentionally":9477,"indicating":9478,"Ġqualification":9479,"Ġmarket":9480,"Ġnecessitates":9481,"expresses":9482,"expressed":9483,"expressions":9484,"Ġcrown":9485,"Ġproportionate":9486,"ĠPUNI":9487,"ĠPURPOSE":9488,"Ġprofession":9489,"Ġprofesses":9490,"legislating":9491,"START":9492,"steps":9493,"operations":9494,"Ġguards":9495,"Ġguarding":9496,"Ġincreasing":9497,"Ġexcites":9498,"Ġshortest":9499,"ĠÃ¦sthetical":9500,"porated":9501,"bidden":9502,"Ġ64":9503,"Ġboldly":9504,"Ġprosyllogism":9505,"Ġextricate":9506,"Ġdevi":9507,"Ġdevote":9508,"ĠChange":9509,"ĠDoes":9510,"Ġstronger":9511,"Ġoccurred":9512,"Ġoccurrence":9513,"Ġblindly":9514,"Ġgenuineness":9515,"concerns":9516,"concerning":9517,"passages":9518,"Ġprimacy":9519,"Ġtaxes":9520,"PLIED":9521,"equality":9522,"concilable":9523,"observations":9524,"additional":9525,"finds":9526,"signifies":9527,"ĠNOTICE":9528,"Ġlisten":9529,"ĠĠĠĠĠĠĠĠĠĠĠĠĠĠ":9530,"Ġheads":9531,"ĠEverything":9532,"Ġillustrating":9533,"Ġconfessed":9534,"intermediate":9535,"EMNITY":9536,"deductible":9537,"Ġ1500":9538,"Ġprototyp":9539,"Ġmeasured":9540,"Ġmeasurement":9541,"ĠWhy":9542,"Ġsubstantia":9543,"ĠDisc":9544,"Ġanticipations":9545,"Ġroots":9546,"Ġcontemplates":9547,"Ġordered":9548,"attributes":9549,"attributed":9550,"imperatives":9551,"directly":9552,"single":9553,"restricting":9554,"approach":9555,"approbation":9556,"importance":9557,"doubtful":9558,"falls":9559,"fallacies":9560,"transcendentally":9561,"PRESS":9562,"Ġtreasure":9563,"Ġrejecting":9564,"Ġrejected":9565,"Ġhypocrisy":9566,"Ġattract":9567,"Ġevidences":9568,"ĠPhenomenal":9569,"Ġprejudices":9570,"ĠCONTRA":9571,"ĠCONCEPTION":9572,"ĠCONSEQU":9573,"Ġdescent":9574,"Ġdescend":9575,"Ġdescription":9576,"Ġcommenced":9577,"Ġcommunication":9578,"ĠREMEDIES":9579,"Ġadmirable":9580,"Experience":9581,"ĠINTRODUCTION":9582,"ĠINCLUDING":9583,"decided":9584,"bodies":9585,"conclusion":9586,"conclusions":9587,"pleasantness":9588,"Ġcultivate":9589,"Ġcounterpo":9590,"Ġtypes":9591,"Ġcurved":9592,"Ġisolate":9593,"Ġlocations":9594,"Ġpremiss":9595,"ĠNeg":9596,"ĠMatthew":9597,"ĠMetaphysics":9598,"Ġapproximation":9599,"affirmative":9600,"progression":9601,"occupy":9602,"clearly":9603,"sources":9604,"Ġclearest":9605,"Ġdriven":9606,"Ġdimension":9607,"ĠEBOOKS":9608,"Ġapprehended":9609,"Ġhonourable":9610,"enlargement":9611,"enlarged":9612,"modes":9613,"prominently":9614,"arbitrarily":9615,"arbitrium":9616,"resulting":9617,"variety":9618,"Ġannouncement":9619,"Ġcentre":9620,"Ġdamage":9621,"Ġdamaged":9622,"ĠOrigin":9623,"Ġindefinitely":9624,"ĠHimself":9625,"ĠANYTHING":9626,"anticipate":9627,"gradually":9628,"agreeableness":9629,"moving":9630,"demands":9631,"Ġincite":9632,"conducted":9633,"ABLE":9634,"CIDENTAL":9635,"searchable":9636,"problematically":9637,"Ġmundo":9638,"Ġerecting":9639,"Ġerected":9640,"Ġrepeat":9641,"Ġuniformity":9642,"Ġviolence":9643,"Ġviolates":9644,"ĠAntithetic":9645,"Ġsubmits":9646,"Ġattacking":9647,"Ġconcealed":9648,"Ġsuperiority":9649,"Ġhumiliating":9650,"ĠPhysical":9651,"ĠPhysico":9652,"ĠIntuitions":9653,"Ġafraid":9654,"continuation":9655,"Ġmidst":9656,"Ġflattering":9657,"ĠBefore":9658,"ĠBeyond":9659,"Ġsharing":9660,"Ġcharm":9661,"Ġcharges":9662,"ĠWARRANTIES":9663,"Ġdespise":9664,"Ġenumerate":9665,"ĠEXPRESS":9666,"Ġcomputers":9667,"Ġcompensation":9668,"Ġguarantee":9669,"Ġwitnesses":9670,"Ġirreconcilable":9671,"dogmatism":9672,"Ġzeal":9673,"practised":9674,"LIGENCE":9675,"intuited":9676,"assuming":9677,"idealism":9678,"wanting":9679,"ĠSTRICT":9680,"accidental":9681,"accidentally":9682,"furnish":9683,"furnishes":9684,"mistake":9685,"Ġpresses":9686,"uctible":9687,"bounds":9688,"boundaries":9689,"formulae":9690,"Ġconvenient":9691,"communicated":9692,"Ġpaperwork":9693,"Ġtouching":9694,"Ġtouchstone":9695,"Ġlicensed":9696,"Ġlurking":9697,"Ġdetriment":9698,"Ġdetrimental":9699,"Ġspoil":9700,"Ġspoken":9701,"Ġvacuum":9702,"ĠSometimes":9703,"ĠNorth":9704,"Ġsubstituted":9705,"Ġphilosophize":9706,"Ġentertained":9707,"Ġcoincides":9708,"ĠANALOGY":9709,"Ġaccompanying":9710,"qualities":9711,"involves":9712,"involved":9713,"deserving":9714,"annihilation":9715,"excluding":9716,"classification":9717,"deviate":9718,"Space":9719,"Speculative":9720,"defective":9721,"Ġruin":9722,"Ġsteadily":9723,"Ġsteadfast":9724,"previously":9725,"Ġoffering":9726,"Ġsilence":9727,"Ġinextricable":9728,"Ġperplexity":9729,"ĠAbb":9730,"ĠParticular":9731,"Ġdissimilarity":9732,"Ġparticipating":9733,"ĠDISCLAIM":9734,"Ġawakening":9735,"Ġawakened":9736,"Ġdeliberation":9737,"Ġindubitably":9738,"Ġembraced":9739,"transcend":9740,"probability":9741,"seems":9742,"geometry":9743,"geometrical":9744,"Granted":9745,"¢Ä¢Ä":9746,"supported":9747,"proportioned":9748,"ipped":9749,"thoroughly":9750,"endeavours":9751,"Defects":9752,"cosmical":9753,"increasing":9754,"introduced":9755,"exhibited":9756,"meritorious":9757,"peculiarity":9758,"sighted":9759,"Ġcasts":9760,"Ġinnocent":9761,"Ġdarkness":9762,"Ġcomprises":9763,"Ġvital":9764,"Ġperceives":9765,"Ġperceiving":9766,"Ġdisguise":9767,"Ġdisguised":9768,"Ġnearly":9769,"ĠGerman":9770,"ĠDespite":9771,"ĠDescartes":9772,"ĠMississipp":9773,"Ġ1787":9774,"Ġfriend":9775,"Ġfriends":9776,"Ġcounsels":9777,"Ġdeficient":9778,"Ġescaping":9779,"Ġescaped":9780,"estimation":9781,"descending":9782,"professing":9783,"Ġellipse":9784,"removed":9785,"confirms":9786,"OSSIBILITY":9787,"accordant":9788,"anthropomorphism":9789,"magnitude":9790,"yielding":9791,"PROJECT":9792,"Ġauthentic":9793,"ĠINDIRECT":9794,"Ġriches":9795,"Ġastronom":9796,"Ġtheorem":9797,"Ġwarns":9798,"Ġcensure":9799,"Ġinspire":9800,"Ġincorporated":9801,"Ġrefined":9802,"Ġrevelation":9803,"Ġlowest":9804,"Ġspeculations":9805,"Ġrigorous":9806,"Ġrarely":9807,"Ġvessel":9808,"Ġperpetually":9809,"Ġreluctant":9810,"Ġpreparation":9811,"Ġcommercial":9812,"Ġinfringement":9813,"Ġappropriated":9814,"Ġchemical":9815,"Ġfacilitate":9816,"Ġtautology":9817,"Ġdownloading":9818,"Ġbeneficent":9819,"Ġrecommendation":9820,"Ġachieve":9821,"Ġromance":9822,"Ġtedious":9823,"acquire":9824,"ĠIMPLIED":9825,"Ġpetty":9826,"Although":9827,"Mathematics":9828,"Synthetical":9829,"members":9830,"written":9831,"Ġsociety":9832,"Ġipso":9833,"significance":9834,"Against":9835,"VIDED":9836,"dangerous":9837,"smelling":9838,"Ġbeside":9839,"towards":9840,"Ġtemperament":9841,"Ġincontestably":9842,"Ġeconom":9843,"Ġlofty":9844,"Ġuninterrupted":9845,"Ġunanswerable":9846,"Ġtroubling":9847,"Ġimpracticable":9848,"Ġstopped":9849,"ĠPerson":9850,"ĠSensuous":9851,"ĠOpinion":9852,"ĠGospel":9853,"Ġgratefully":9854,"Ġremedy":9855,"ĠEnglish":9856,"Ġamidst":9857,"ĠDOCTRIN":9858,"Ġinviolable":9859,"Ġaffairs":9860,"Ġindulge":9861,"Ġantiquity":9862,"Ġassertorically":9863,"Ġcoalition":9864,"Ġundeniable":9865,"Ġvoluntary":9866,"ĠArguments":9867,"Ġfancied":9868,"Ġextravagant":9869,"Ġcomplaints":9870,"Ġanthropomorphic":9871,"ĠMonadists":9872,"Ġsemblance":9873,"principium":9874,"commercium":9875,"viour":9876,"criterion":9877,"inevitably":9878,"Fourthly":9879,"NESS":9880,"WARRANTIES":9881,"Ġmerits":9882,"intuitus":9883,"ĠCHAPTER":9884,"ENTIAL":9885,"Ġtantamount":9886,"Ġauxiliary":9887,"Ġcursory":9888,"Ġcushion":9889,"Ġfingers":9890,"Ġelegance":9891,"Ġearnest":9892,"Ġepoch":9893,"Ġbehaviour":9894,"Ġgenealogical":9895,"ĠTRANSITION":9896,"Ġunanimously":9897,"Ġsprung":9898,"Ġrapid":9899,"Ġtravel":9900,"Ġvulgar":9901,"ĠFROM":9902,"ĠFITNESS":9903,"ĠAugust":9904,"ĠPreface":9905,"Ġchapters":9906,"ĠSUCH":9907,"ĠNEGLIGENCE":9908,"ĠReplacement":9909,"ĠMERCHANTABILITY":9910,"Ġindestructible":9911,"Ġlegitimacy":9912,"Ġscattered":9913,"Ġinsignificant":9914,"Ġearliest":9915,"ĠStapleton":9916,"ĠPUNITIVE":9917,"Ġprototype":9918,"ĠCONTRACT":9919,"ĠCONCEPTIONS":9920,"ĠCONSEQUENTIAL":9921,"Ġcounterpoise":9922,"ĠDISCLAIMER":9923,"ĠMississippi":9924,"ĠDOCTRINE":9925,"Äłab":9926,"Ġages":9927,"Ġay":9928,"Ġound":9929,"Ġward":9930,"Äłcom":9931,"Äłmis":9932,"illustr":9933,"Ġou":9934,"ÄłB":9935,"Äłan":9936,"Äłth":9937,"obst":9938,"19":9939,"ew":9940,"attr":9941,"Ġud":9942,"off":9943,"Äłhe":9944,"Äłal":9945,"ĠED":9946,"contrib":9947,"belie":9948,"178":9949,"Ġot":9950,"Ġced":9951,"Ġret":9952,"omni":9953,"Äłdes":9954,"accept":9955,"weak":9956,"preser":9957,"Ġvel":9958,"Ġoun":9959,"Ġise":9960,"Ġition":9961,"Ġger":9962,"ĠIR":9963,"erect":9964,"Äłse":9965,"Äłthe":9966,"Äłind":9967,"Äłfor":9968,"care":9969,"ĠPH":9970,"Ġowed":9971,"overn":9972,"redistrib":9973,"accompl":9974,"12":9975,"MENT":9976,"aut":9977,"ros":9978,"vered":9979,"Ġapt":9980,"Ġoc":9981,"isol":9982,"Ġpon":9983,"asur":9984,"lled":9985,"empiric":9986,"ÄłR":9987,"Äłcomp":9988,"Ġved":9989,"phil":9990,"acknowled":9991,"strong":9992,"Ġarm":9993,"sensib":9994,"fulfil":9995,"strugg":9996,"Introdu":9997,"ICAL":9998,"apprehend":9999,"contempor":10000,"Che":10001,"LAR":10002,"NO":10003,"USI":10004,"ah":10005,"gn":10006,"port":10007,"ugg":10008,"ĠQU":10009,"isse":10010,"enn":10011,"esca":10012,"Ġble":10013,"Ġrect":10014,"Ġduc":10015,"Ġalle":10016,"amorph":10017,"antagon":10018,"Ġstone":10019,"ĠAS":10020,"overably":10021,"ĠRI":10022,"luct":10023,"blind":10024,"commend":10025,"imagin":10026,"Äłdec":10027,"Ġversion":10028,"admir":10029,"obstac":10030,"AT":10031,"Com":10032,"Im":10033,"aud":10034,"astr":10035,"adequ":10036,"bat":10037,"bungl":10038,"cher":10039,"cert":10040,"cob":10041,"citiz":10042,"dur":10043,"dam":10044,"dile":10045,"dimin":10046,"fanci":10047,"gen":10048,"gest":10049,"govern":10050,"hic":10051,"hist":10052,"hyp":10053,"iog":10054,"loc":10055,"moun":10056,"mock":10057,"night":10058,"null":10059,"pict":10060,"rhapsod":10061,"sa":10062,"spl":10063,"tre":10064,"temper":10065,"upright":10066,"vous":10067,"voc":10068,"wond":10069,"zer":10070,"zism":10071,"Ġute":10072,"Ġied":10073,"Ġible":10074,"Ġ*****":10075,"inj":10076,"incomp":10077,"reve":10078,"redu":10079,"isc":10080,"ister":10081,"isyllogism":10082,"enesis":10083,"erv":10084,"erum":10085,"Ġpus":10086,"ican":10087,"icros":10088,"orment":10089,"sever":10090,"oure":10091,"arond":10092,"ectyp":10093,"lling":10094,"iveness":10095,"imm":10096,"osoph":10097,"Ġlucid":10098,"urp":10099,"ulog":10100,"empl":10101,"consol":10102,"condem":10103,"ampl":10104,"depre":10105,"depart":10106,"olens":10107,"tranqu":10108,"Ġexistent":10109,"Ġtries":10110,"Äłqu":10111,"ctions":10112,"pron":10113,"succeed":10114,"exec":10115,"exto":10116,"Ġevol":10117,"unfortun":10118,"eneration":10119,"ievous":10120,"prepar":10121,"preponder":10122,"pregn":10123,"Ġplays":10124,"measur":10125,"compl":10126,"session":10127,"overlook":10128,"paradox":10129,"sert":10130,"servation":10131,"Ġentities":10132,"eciproc":10133,"ysms":10134,"ginia":10135,"ĠLI":10136,"ĠUS":10137,"subsum":10138,"Ġrighteous":10139,"Ġinfluenced":10140,"ontal":10141,"correction":10142,"short":10143,"apper":10144,"comput":10145,"ometry":10146,"icipations":10147,"ruin":10148,"iana":10149,"Subst":10150,"superior":10151,"JECTIVE":10152,"STEM":10153,"cheson":10154,"ILOS":10155,"culation":10156,"Quod":10157,"oppon":10158,"figur":10159,"capit":10160,"Ġology":10161,"symbol":10162,"school":10163,"indubit":10164,"forceability":10165,"ibrium":10166,"omnipot":10167,"NOW":10168,"USION":10169,"isseurs":10170,"ILOSO":10171,"25":10172,"AF":10173,"ARA":10174,"Arist":10175,"BC":10176,"Certain":10177,"Categor":10178,"Crit":10179,"DEM":10180,"DAMAG":10181,"EI":10182,"GRA":10183,"Ju":10184,"Logical":10185,"LEMENT":10186,"Me":10187,"MAL":10188,"NER":10189,"ORO":10190,"Ple":10191,"Possib":10192,"Part":10193,"Reven":10194,"STHE":10195,"Thing":10196,"UB":10197,"US":10198,"Unt":10199,"VII":10200,"bi":10201,"bes":10202,"bus":10203,"back":10204,"bnew":10205,"cence":10206,"civil":10207,"doll":10208,"drop":10209,"ein":10210,"ebr":10211,"fan":10212,"fict":10213,"flection":10214,"fru":10215,"gy":10216,"hn":10217,"hind":10218,"hop":10219,"hio":10220,"kingdom":10221,"mark":10222,"mund":10223,"mov":10224,"oqu":10225,"oca":10226,"pob":10227,"ral":10228,"ront":10229,"sies":10230,"sound":10231,"tw":10232,"uphold":10233,"vict":10234,"welf":10235,"Ġ&":10236,"Ġq":10237,"Ġics":10238,"Ġically":10239,"Ġtur":10240,"Ġaver":10241,"Ġaequ":10242,"inated":10243,"inward":10244,"Ġopt":10245,"Ġther":10246,"reject":10247,"reption":10248,"repe":10249,"resem":10250,"itating":10251,"encour":10252,"aten":10253,"ature":10254,"Ġcert":10255,"alar":10256,"altern":10257,"alleg":10258,"iced":10259,"Ġinstructive":10260,"Ġban":10261,"Ġmus":10262,"Ġmill":10263,"Ġnis":10264,"Ġnet":10265,"secret":10266,"Ġities":10267,"Ġcond":10268,"Ġconqu":10269,"Ġdiction":10270,"start":10271,"starr":10272,"omp":10273,"omnit":10274,"otot":10275,"arol":10276,"Ġhole":10277,"theore":10278,"ival":10279,"improv":10280,"Ġlib":10281,"ptuously":10282,"jective":10283,"ithful":10284,"Ġsuited":10285,"ibib":10286,"ibles":10287,"ldarond":10288,"qui":10289,"aindrop":10290,"persist":10291,"perpet":10292,"perplex":10293,"veil":10294,"conjunct":10295,"endour":10296,"endels":10297,"amps":10298,"abol":10299,"abilities":10300,"selfish":10301,"detr":10302,"igence":10303,"igour":10304,"Ġcaution":10305,"ansas":10306,"minor":10307,"iestle":10308,"offer":10309,"Äłacc":10310,"useful":10311,"prag":10312,"Ġpertains":10313,"suppos":10314,"exert":10315,"excell":10316,"anced":10317,"acid":10318,"ultimate":10319,"unceasing":10320,"uniform":10321,"ĠPO":10322,"ĠPER":10323,"enerally":10324,"oyed":10325,"beho":10326,"Theoretical":10327,"meet":10328,"commen":10329,"Ġcommencing":10330,"icium":10331,"ishable":10332,"Ġrespective":10333,"web":10334,"weaken":10335,"overstep":10336,"overthrow":10337,"paralogism":10338,"aven":10339,"Thought":10340,"canon":10341,"display":10342,"contrast":10343,"arrogant":10344,"extreme":10345,"Ġawa":10346,"causal":10347,"Ġ55":10348,"Ġconverted":10349,"ĠAND":10350,"retched":10351,"Ġpractised":10352,"Protot":10353,"Äłsur":10354,"Ġguarded":10355,"Ġ75":10356,"iliates":10357,"versed":10358,"Ġpleasantness":10359,"collect":10360,"ULAR":10361,"Ġmovable":10362,"speak":10363,"major":10364,"detect":10365,"TRADEM":10366,"obscure":10367,"skill":10368,"LARY":10369,"cobweb":10370,"splendour":10371,"condemn":10372,"\"),":10373,"($":10374,")-":10375,")?":10376,"*(":10377,".]":10378,".),":10379,"02":10380,"04":10381,"14":10382,"21":10383,"23":10384,"24":10385,"26":10386,"27":10387,"28":10388,"29":10389,"30":10390,"31":10391,"32":10392,"33":10393,"34":10394,"35":10395,"36":10396,"37":10397,"38":10398,"42":10399,"43":10400,"44":10401,"46":10402,"47":10403,"48":10404,"49":10405,"4280":10406,"51":10407,"52":10408,"53":10409,"54":10410,"56":10411,"58":10412,"59":10413,"60":10414,"61":10415,"62":10416,"63":10417,"64":10418,"65":10419,"66":10420,"67":10421,"69":10422,"70":10423,"72":10424,"73":10425,"74":10426,"76":10427,"77":10428,"81":10429,"87":10430,"96":10431,";[":10432,"AY":10433,"AIN":10434,"Apperception":10435,"APPENDIX":10436,"Between":10437,"Cosmological":10438,"Critical":10439,"Creating":10440,"DIC":10441,"Dialectic":10442,"Different":10443,"DURE":10444,"End":10445,"FUND":10446,"GEMENT":10447,"GENERAL":10448,"His":10449,"Human":10450,"Have":10451,"ITH":10452,"Last":10453,"Love":10454,"Logic":10455,"Locke":10456,"LAF":10457,"LLARY":10458,"Michael":10459,"Non":10460,"Or":10461,"Plato":10462,"RTH":10463,"Two":10464,"Upon":10465,"UAL":10466,"Updated":10467,"Volunteers":10468,"WNER":10469,"Yes":10470,"YSTEM":10471,"].":10472,"_[":10473,"augment":10474,"ball":10475,"besides":10476,"bservation":10477,"cs":10478,"cible":10479,"crowd":10480,"casus":10481,"coverably":10482,"data":10483,"eper":10484,"egr":10485,"eveloped":10486,"eometry":10487,"fence":10488,"full":10489,"fix":10490,"faces":10491,"filled":10492,"fancy":10493,"gone":10494,"gained":10495,"hart":10496,"hold":10497,"hitherto":10498,"holiness":10499,"homogeneity":10500,"iary":10501,"iently":10502,"jacent":10503,"lose":10504,"link":10505,"llect":10506,"laid":10507,"lcome":10508,"lio":10509,"lix":10510,"lurality":10511,"liability":10512,"mn":10513,"mal":10514,"mill":10515,"munity":10516,"macy":10517,"moments":10518,"nicious":10519,"ober":10520,"oved":10521,"past":10522,"putes":10523,"putable":10524,"piece":10525,"rd":10526,"rum":10527,"rible":10528,"rances":10529,"rash":10530,"sin":10531,"sought":10532,"sake":10533,"sided":10534,"scribed":10535,"sciences":10536,"tact":10537,"table":10538,"task":10539,"tlest":10540,"useless":10541,"vocation":10542,"wished":10543,"water":10544,"wrong":10545,"wants":10546,"ypon":10547,"yers":10548,"Ġight":10549,"Ġtib":10550,"Ġtem":10551,"Ġtrem":10552,"Ġtends":10553,"Ġtutor":10554,"Ġtorment":10555,"heart":10556,"Ġathe":10557,"Ġawe":10558,"Ġaversion":10559,"ina":10560,"inent":10561,"inning":10562,"inability":10563,"internally":10564,"inery":10565,"inheres":10566,"inconceivable":10567,"Ġod":10568,"Ġomission":10569,"Ġthee":10570,"Ġtheist":10571,"reach":10572,"received":10573,"rehension":10574,"recognize":10575,"repute":10576,"reputation":10577,"reluct":10578,"recommend":10579,"ital":10580,"itial":10581,"itudes":10582,"ititious":10583,"enforceability":10584,"ats":10585,"atical":10586,"aturn":10587,"eron":10588,"eration":10589,"erate":10590,"erring":10591,"Ġwal":10592,"Ġwent":10593,"Ġwound":10594,"Ġwarr":10595,"Ġwild":10596,"Ġwrest":10597,"Ġwatch":10598,"Ġwrought":10599,"Ġwretched":10600,"Ġcou":10601,"Ġcun":10602,"Ġcath":10603,"Ġcount":10604,"Ġction":10605,"Ġcub":10606,"Ġcrowd":10607,"Ġcasus":10608,"Ġcodes":10609,"Ġsi":10610,"Ġsis":10611,"Ġsal":10612,"Ġsend":10613,"Ġsink":10614,"Ġsap":10615,"Ġsites":10616,"Ġsadly":10617,"Ġpu":10618,"Ġpal":10619,"Ġpill":10620,"Ġpause":10621,"Ġpoly":10622,"Ġpush":10623,"Ġpomp":10624,"icing":10625,"Ġine":10626,"Ġinan":10627,"Ġinform":10628,"Ġinane":10629,"Ġinexpl":10630,"Ġincompar":10631,"Ġinestim":10632,"Ġinconceivable":10633,"Ġinhabit":10634,"Ġinequality":10635,"Ġinsensib":10636,"esult":10637,"Ġbare":10638,"Ġblessed":10639,"Ġthine":10640,"Ġthresh":10641,"Ġthousand":10642,"orter":10643,"orably":10644,"orned":10645,"origination":10646,"Ġtold":10647,"Ġmir":10648,"Ġmover":10649,"celebrated":10650,"ctober":10651,"Ġfain":10652,"Ġfif":10653,"Ġfame":10654,"Ġfight":10655,"Ġfra":10656,"Ġfatum":10657,"Ġflight":10658,"Ġfier":10659,"analytic":10660,"animity":10661,"Ġnes":10662,"Ġnations":10663,"Ġeb":10664,"Ġere":10665,"Ġeff":10666,"Ġelect":10667,"Ġered":10668,"Ġeulog":10669,"severest":10670,"oup":10671,"lying":10672,"left":10673,"Ġrely":10674,"Ġreign":10675,"Ġreward":10676,"Ġrecall":10677,"Ġreap":10678,"Ġrenew":10679,"Ġreproduction":10680,"Ġretrace":10681,"Ġrecapit":10682,"Ġrerum":10683,"Ġited":10684,"Ġcone":10685,"Ġconced":10686,"Ġcondem":10687,"Ġconvey":10688,"Ġconveyed":10689,"Ġconducive":10690,"Ġdil":10691,"Ġdie":10692,"Ġdress":10693,"Ġdial":10694,"Ġdates":10695,"Ġdull":10696,"Ġdumb":10697,"Ġdrew":10698,"Ġbead":10699,"Ġbeque":10700,"Ġbefits":10701,"ste":10702,"stain":10703,"states":10704,"stability":10705,"status":10706,"stones":10707,"omas":10708,"omain":10709,"omaly":10710,"entities":10711,"Ġwhol":10712,"aring":10713,"arities":10714,"asp":10715,"ascribed":10716,"asibility":10717,"utmost":10718,"utcheson":10719,"ections":10720,"Ġhide":10721,"Ġhost":10722,"Ġhover":10723,"Ġprize":10724,"Ġprae":10725,"Ġproud":10726,"Ġprogram":10727,"Ġaspir":10728,"thening":10729,"ivial":10730,"ivisible":10731,"ivoca":10732,"impose":10733,"imposes":10734,"immortality":10735,"immaterial":10736,"ossession":10737,"Ġanxious":10738,"Ġanterior":10739,"Ġanomaly":10740,"Ġexceed":10741,"Ġexchange":10742,"Ġexcess":10743,"Ġexerted":10744,"Ġexhort":10745,"Ġexempl":10746,"Ġlend":10747,"Ġlust":10748,"Ġloth":10749,"Ġlack":10750,"Ġliable":10751,"Ġlau":10752,"Ġlux":10753,"Ġlibr":10754,"Ġliberum":10755,"Ġnotifies":10756,"Ġweari":10757,"Ġweighed":10758,"Ġwelcome":10759,"Ġfort":10760,"Ġforbe":10761,"Ġforcing":10762,"Ġforfe":10763,"Ġforsakes":10764,"idity":10765,"idens":10766,"idger":10767,"idnight":10768,"Ġsupre":10769,"Ġsuspect":10770,"Ġsunt":10771,"ceptical":10772,"ceptible":10773,"teronomy":10774,"ureans":10775,"irginia":10776,"Ġgout":10777,"Ġgaps":10778,"Ġgbnew":10779,"Ġwithstand":10780,"urred":10781,"ciate":10782,"versely":10783,"ĠId":10784,"querable":10785,"ogue":10786,"resides":10787,"istences":10788,"Ġorator":10789,"Ġorbits":10790,"erer":10791,"Ġcanst":10792,"ecum":10793,"ecutive":10794,"ecundity":10795,"ifling":10796,"andi":10797,"ando":10798,"andal":10799,"anded":10800,"andom":10801,"sels":10802,"permit":10803,"perceived":10804,"permission":10805,"persuasion":10806,"Ġallot":10807,"Ġallure":10808,"Ġallied":10809,"romise":10810,"ulzer":10811,"emy":10812,"Ġprolix":10813,"Ġreasonably":10814,"ateful":10815,"conveyed":10816,"converted":10817,"conducive":10818,"conversely":10819,"conquerable":10820,"charge":10821,"chasm":10822,"chievous":10823,"charities":10824,"Ġdeter":10825,"Ġdefe":10826,"Ġdearest":10827,"Ġdelet":10828,"Ġdepict":10829,"Ġdeeper":10830,"ored":10831,"Ġintact":10832,"Ġintimate":10833,"Ġintimid":10834,"Ġintegr":10835,"ilation":10836,"ilanthrop":10837,"ilibrium":10838,"Ġalarm":10839,"activity":10840,"usable":10841,"usiveness":10842,"Ġhaph":10843,"illain":10844,"amination":10845,"plies":10846,"plays":10847,"planation":10848,"places":10849,"placing":10850,"pliance":10851,"plausible":10852,"abile":10853,"abiding":10854,"abyss":10855,"Ġunw":10856,"Ġunre":10857,"Ġuntr":10858,"Ġunsh":10859,"Ġunjust":10860,"Ġunreal":10861,"Ġunnecessarily":10862,"Ġunqual":10863,"Ġunbelief":10864,"Ġunexception":10865,"Ġunsatisfied":10866,"Ġunsett":10867,"Ġunchanged":10868,"Ġunusual":10869,"Ġuninfluenced":10870,"Ġunrestricted":10871,"Ġunalter":10872,"Ġunguarded":10873,"Ġunbidden":10874,"Ġunyielding":10875,"Ġunlink":10876,"Ġunerring":10877,"Ġunconquerable":10878,"ditions":10879,"ditional":10880,"deceived":10881,"deistic":10882,"defence":10883,"olence":10884,"ollection":10885,"Ġcael":10886,"Ġcautious":10887,"Ġ(\"":10888,"Ġ(*":10889,"trod":10890,"tried":10891,"track":10892,"Ġspur":10893,"Ġspher":10894,"Ġsport":10895,"Ġcomets":10896,"Ġrot":10897,"Ġrich":10898,"Ġrose":10899,"Ġrude":10900,"Ġraces":10901,"Ġriver":10902,"Ġrhet":10903,"Ġraindrop":10904,"esting":10905,"Ġempire":10906,"Ġworse":10907,"Ġexistential":10908,"Ġmel":10909,"Ġmelt":10910,"herself":10911,"Ġtrial":10912,"Ġtraces":10913,"Ġtriang":10914,"Ġtranqu":10915,"Ġtrivial":10916,"Ġtrifling":10917,"Äłint":10918,"Äłinf":10919,"Ġva":10920,"Ġvast":10921,"Ġvigour":10922,"Ġwillingly":10923,"foreign":10924,"foreseen":10925,"ĠBerke":10926,"usement":10927,"aked":10928,"Ġimmaterial":10929,"Ġimproved":10930,"Ġimmortal":10931,"Ġimpregn":10932,"Ġperish":10933,"Ġperman":10934,"Ġpervert":10935,"Ġpernicious":10936,"orially":10937,"Ġformarum":10938,"Ġabsol":10939,"Ġabund":10940,"Ġnative":10941,"Ġnatura":10942,"Ġnobl":10943,"ameter":10944,"supposed":10945,"supposing":10946,"suitable":10947,"posits":10948,"positio":10949,"Ġkat":10950,"Ġknew":10951,"Ġregions":10952,"Ġregret":10953,"Ġregulated":10954,"indifference":10955,"indulgence":10956,"Ġusurp":10957,"Ġshame":10958,"Ġshake":10959,"Ġshine":10960,"Ġshaken":10961,"Ġshield":10962,"Ġshared":10963,"Ġshorter":10964,"ĠFunction":10965,"ĠFull":10966,"ĠFAC":10967,"ĠFairbanks":10968,"ĠFebr":10969,"phrase":10970,"externally":10971,"exhausted":10972,"exterior":10973,"exactly":10974,"outside":10975,"outset":10976,"Ġsea":10977,"Ġseyn":10978,"Ġcognise":10979,"Ġcogniz":10980,"Ġcognitio":10981,"Ġcognisable":10982,"udo":10983,"Ġstat":10984,"Ġstory":10985,"Ġstars":10986,"Ġstored":10987,"Ġquib":10988,"Ġideally":10989,"Ġreliable":10990,"Ġevade":10991,"wholly":10992,"ĠAK":10993,"ĠAre":10994,"ĠAff":10995,"ĠACT":10996,"ĠAldarond":10997,"oury":10998,"ource":10999,"Ġjugg":11000,"Ġjesting":11001,"Ġaccum":11002,"Ġaccused":11003,"Ġaccru":11004,"Ġaccredit":11005,"Ġmanhood":11006,"ultaneity":11007,"Ġunderstandings":11008,"unite":11009,"unted":11010,"units":11011,"uncertain":11012,"unnecessary":11013,"unities":11014,"unlimited":11015,"uncertainty":11016,"uniting":11017,"until":11018,"unchangeable":11019,"untrue":11020,"unciated":11021,"unsearchable":11022,"sequence":11023,"Ġadjust":11024,"Ġadjective":11025,"Ġadjacent":11026,"forward":11027,"ĠPublic":11028,"ĠPlease":11029,"ĠPolem":11030,"ĠPOSSIBILITY":11031,"ĠPARA":11032,"ĠPlurality":11033,"Ġdismis":11034,"Ġdisappro":11035,"Ġdisadvantage":11036,"Ġdisposing":11037,"Ġdiscontinu":11038,"Ġdiscontinue":11039,"Ġdisappeared":11040,"Ġdispleases":11041,"Ġdisrepute":11042,"positions":11043,"Ġyaw":11044,"Ġyoke":11045,"),[":11046,"sohn":11047,"etus":11048,"etting":11049,"etched":11050,"Ġknowable":11051,"Ġprecl":11052,"Ġpreference":11053,"Ġprefers":11054,"Ġpreponder":11055,"Ġpreposited":11056,"Ġprecaution":11057,"Ġpremise":11058,"Ġpremonition":11059,"strings":11060,"striking":11061,"ĠThough":11062,"ĠThirdly":11063,"ĠThomas":11064,"Ġchamp":11065,"Ġrepresentative":11066,"Ġsomewhere":11067,"Ġarouse":11068,"spaces":11069,"Ġeveryday":11070,"Ġsyntheses":11071,"ĠSing":11072,"ĠSense":11073,"ĠSEND":11074,"ĠSalt":11075,"ĠSecond":11076,"ĠSenses":11077,"ĠSciences":11078,"ĠSpirit":11079,"ĠSimilarly":11080,"ĠSMAL":11081,"ĠSUB":11082,"ĠSaturn":11083,"ĠSceptical":11084,"Ġphilanthrop":11085,"solved":11086,"ensity":11087,"ensome":11088,"predetermined":11089,"prehensible":11090,"prepared":11091,"ĠName":11092,"ĠNoumen":11093,"ĠNihil":11094,"ĠNearly":11095,"ĠNovember":11096,"oying":11097,"nesses":11098,"Ġsubdu":11099,"Ġsubsid":11100,"ĠOtherwise":11101,"ĠOWNER":11102,"ĠOctober":11103,"possibilities":11104,"imitable":11105,"Ġfrees":11106,"conditional":11107,"ĠIncl":11108,"Ġcertainties":11109,"Ġplun":11110,"Ġcompleting":11111,"orting":11112,"ortunities":11113,"Ġenduring":11114,"Ġcontending":11115,"ĠGover":11116,"ĠGenerally":11117,"ĠWould":11118,"ĠWell":11119,"ĠWOR":11120,"ĠWIL":11121,"ĠWITH":11122,"ĠWidger":11123,"Ġwhenever":11124,"ployment":11125,"Ġgroup":11126,"Ġgrasp":11127,"gory":11128,"Ġcontrari":11129,"Ġgold":11130,"Theological":11131,"ĠCity":11132,"ĠCAN":11133,"ĠCOM":11134,"ĠCartes":11135,"ĠCORO":11136,"ĠCarol":11137,"astically":11138,"Ġowe":11139,"forming":11140,"Ġconnections":11141,"Ġobno":11142,"Ġobsole":11143,"Ġdesist":11144,"Ġdescribes":11145,"Ġdespot":11146,"Ġfounding":11147,"Ġcommend":11148,"Ġcommences":11149,"Ġcommerce":11150,"Ġdistrust":11151,"oldest":11152,"arius":11153,"proves":11154,"proposed":11155,"Ġfollowers":11156,"Ġemployee":11157,"Ġwashed":11158,"Ġrationalist":11159,"Ġrationalism":11160,"Ġpurified":11161,"withdrawn":11162,"Ġremember":11163,"Ġremembered":11164,"Ġdiscord":11165,"ĠHas":11166,"ĠHad":11167,"ĠHitherto":11168,"ĠHarmon":11169,"âĢĿ.":11170,"âĢĿ),":11171,"Ġactor":11172,"Ġactuating":11173,"Ġextol":11174,"Ġextingu":11175,"Ġagency":11176,"Ġvaluel":11177,"Ġenunciation":11178,"Ġenlightened":11179,"Ġenemy":11180,"undertaking":11181,"Ġgrounding":11182,"medium":11183,"mediable":11184,"ĠReciproc":11185,"ĠEs":11186,"ĠEqu":11187,"ĠEdition":11188,"ĠElucid":11189,"ĠEmail":11190,"ĠEBC":11191,"ĠELEMENT":11192,"Ġpresume":11193,"Ġpresiding":11194,"Ġoutwe":11195,"Ġoutdated":11196,"Ġterminis":11197,"Ġterrible":11198,"Ġexpend":11199,"Ġexpedient":11200,"Ġexporting":11201,"woven":11202,"existed":11203,"existences":11204,"Ġreale":11205,"Ġrealitates":11206,"served":11207,"Ġamply":11208,"Ġperfections":11209,"ava":11210,"Ġattends":11211,"mankind":11212,"physician":11213,"physiological":11214,"ogito":11215,"ĠDE":11216,"ĠDest":11217,"ĠDirect":11218,"ĠDON":11219,"ĠDOM":11220,"ĠDomain":11221,"Ġentrance":11222,"Ġfacti":11223,"identity":11224,"identical":11225,"hematism":11226,"assion":11227,"assent":11228,"assable":11229,"assistance":11230,"determinable":11231,"Ġimpure":11232,"Ġimpair":11233,"Ġimpelling":11234,"Ġimpenetrable":11235,"Ġimpaired":11236,"Ġimpassable":11237,"cognizing":11238,"ypal":11239,"Ġconstituent":11240,"Ġcorpor":11241,"Ġpurposely":11242,"Ġherein":11243,"necessitate":11244,"Ġinfused":11245,"Ġinfancy":11246,"Ġexplication":11247,"Ġinteresting":11248,"Ġkindness":11249,"ĠMore":11250,"ĠMatter":11251,"ĠModality":11252,"ĠMendels":11253,"ĠMAY":11254,"Ġhandle":11255,"Ġhandles":11256,"disk":11257,"disjunctive":11258,"dissimilar":11259,"disappears":11260,"disinterested":11261,"disputes":11262,"Ġstrive":11263,"Ġstray":11264,"Ġstrain":11265,"Ġstriving":11266,"Ġconcess":11267,"Ġconcur":11268,"Ġdemerit":11269,"Ġappearing":11270,"Ġrestless":11271,"Ġanalyses":11272,"otheology":11273,"raised":11274,"raft":11275,"empty":11276,"Ġrefute":11277,"Ġrefused":11278,"Ġrefusing":11279,"Ġrefrain":11280,"Ġdivides":11281,"Ġsumm":11282,"Ġsums":11283,"Ġcompound":11284,"Ġcompany":11285,"Ġcompulsion":11286,"Ġcompelling":11287,"Ġcompetition":11288,"Ġcompromise":11289,"Ġcompilation":11290,"Ġadvised":11291,"Ġdeductible":11292,"Ġcontradicting":11293,"regulate":11294,"regulated":11295,"Ġassumes":11296,"events":11297,"ĠLest":11298,"ĠLogicians":11299,"Ġtruthfulness":11300,"lude":11301,"undecided":11302,"mediately":11303,"Ġresiding":11304,"Ġdecay":11305,"Ġdecried":11306,"Ġ11":11307,"Ġ14":11308,"Ġmetals":11309,"Ġmighty":11310,"ĠUpdated":11311,"Ġsuppressed":11312,"Ġpredicating":11313,"Ġpredicables":11314,"Ġpredicaments":11315,"Ġexpressing":11316,"Ġexpressly":11317,"Ġworking":11318,"Ġphysician":11319,"Ġphysica":11320,"Ġconfer":11321,"Ġconfident":11322,"Ġconfusions":11323,"Ġconfusing":11324,"Ġconfidently":11325,"Ġdiscoveries":11326,"accustomed":11327,"Inasmuch":11328,"Introd":11329,"Ġclock":11330,"Ġcloud":11331,"ĠConcept":11332,"ĠContrib":11333,"ĠConjunction":11334,"ĠContent":11335,"ĠContact":11336,"ĠConditions":11337,"knowing":11338,"Ġdegrade":11339,"Ġindivisible":11340,"Ġindolence":11341,"Ġdefiniteness":11342,"subscribe":11343,"substitution":11344,"subordinate":11345,"Ġclearing":11346,"Ġarrog":11347,"Ġarranges":11348,"Ġimperilled":11349,"Ġregression":11350,"Ġregressively":11351,"Ġeloqu":11352,"Ġacknowled":11353,"monads":11354,"Ġsolemn":11355,"Ġpersonified":11356,"Ġneeding":11357,"contend":11358,"contact":11359,"Ġwanted":11360,"Ġcontingencies":11361,"Ġfinishing":11362,"Ġfinanci":11363,"misconception":11364,"misapprehension":11365,"Ġscale":11366,"Ġscandal":11367,"Ġio":11368,"Ġiii":11369,"aimed":11370,"contradicts":11371,"contradictorily":11372,"Ġelemental":11373,"parte":11374,"parted":11375,"Ġmethodical":11376,"Ġassertorial":11377,"Ġassertorially":11378,"Ġcommanding":11379,"Ġmeanest":11380,"array":11381,"arrived":11382,"overer":11383,"ĠTHOSE":11384,"transcendentalism":11385,"goals":11386,"Ġdogma":11387,"Ġoverthrow":11388,"Ġovercoming":11389,"Ġnonentity":11390,"Ġnonpropri":11391,"Ġlesson":11392,"Ġlesser":11393,"Ġlessened":11394,"Ġdemonstrable":11395,"Ġsolving":11396,"Ġrelationship":11397,"Ġequipped":11398,"Ġequilibrium":11399,"Ġidealistic":11400,"Ġidealizing":11401,"bitious":11402,"Ġcoin":11403,"Ġcoat":11404,"Ġcoar":11405,"Ġcool":11406,"Ġcoins":11407,"Ġcoerc":11408,"ĠPrimal":11409,"ĠPriestle":11410,"ĠSub":11411,"ĠSupposing":11412,"ĠSubst":11413,"Ġboundless":11414,"Ġconducting":11415,"mense":11416,"ailing":11417,"Ġidentification":11418,"Ġexpecting":11419,"grace":11420,"Ġharsh":11421,"Ġpassion":11422,"Ġpassions":11423,"Ġargumentative":11424,"Ġ21":11425,"Ġ23":11426,"Ġmisuse":11427,"Ġmisology":11428,"Ġmisrepresentation":11429,"Ġmisinter":11430,"Ġmisapplied":11431,"Ġmissed":11432,"Ġmisleads":11433,"Ġmisfortune":11434,"Ġmischief":11435,"Ġmiserably":11436,"Ġdenying":11437,"Ġdenotes":11438,"Ġappreciated":11439,"Ġapprehensions":11440,"Ġopens":11441,"Ġgenerates":11442,"Ġgeneratio":11443,"Ġobligatory":11444,"Ġremarking":11445,"Ġpromising":11446,"Ġprominent":11447,"Ġsuperficial":11448,"extends":11449,"Ġconsciously":11450,"ĠBeings":11451,"ocate":11452,"ocks":11453,"Ġawakes":11454,"Ġpeculiarities":11455,"Ġlegislator":11456,"Ġmaintainer":11457,"Ġaffirming":11458,"differ":11459,"simplicity":11460,"simultaneous":11461,"Ġunderstands":11462,"connecting":11463,"blunder":11464,"blances":11465,"Ġediting":11466,"Ġedifices":11467,"nearer":11468,"aveolens":11469,"Ġcircuit":11470,"Ġspeech":11471,"somewhat":11472,"Ġbrutes":11473,"Ġbranch":11474,"Ġbrutum":11475,"Ġbridge":11476,"Ġundone":11477,"Ġundecided":11478,"Ġundisc":11479,"Ġundeveloped":11480,"Ġcept":11481,"Ġceased":11482,"corporeal":11483,"happily":11484,"happened":11485,"righteous":11486,"Ġintellectualized":11487,"categorically":11488,"Ġfutile":11489,"Ġdistinctly":11490,"Ġdistinctness":11491,"Ġclaiming":11492,"Ġteleology":11493,"Ġoperative":11494,"Ġoperates":11495,"ĠAnalog":11496,"Ġendeavouring":11497,"ynics":11498,"Ġconvict":11499,"Ġconvictions":11500,"Ġcorrecting":11501,"Ġthreefold":11502,"describe":11503,"desired":11504,"Ġpretext":11505,"ship":11506,"Ġdistributive":11507,"Ġanalogical":11508,"brain":11509,"fering":11510,"sensuously":11511,"Ġparsimony":11512,"Ġparabol":11513,"Ġinvolunt":11514,"prescribed":11515,"examine":11516,"examined":11517,"examining":11518,"noble":11519,"noisseurs":11520,"apse":11521,"Ġmeditation":11522,"request":11523,"requiring":11524,"Ġdynamics":11525,"ĠUnphilosophical":11526,"legality":11527,"procure":11528,"Ġasking":11529,"justifies":11530,"Ġtranslated":11531,"ĠExternal":11532,"ĠExtent":11533,"ĠExamples":11534,"ĠExistences":11535,"ĠExecutive":11536,"ĠExamination":11537,"remove":11538,"remote":11539,"remarks":11540,"remained":11541,"fees":11542,"Ġprofundity":11543,"Ġpains":11544,"Ġpainful":11545,"Ġexcluding":11546,"Ġexclusive":11547,"Ġvainly":11548,"caused":11549,"Ġfrustr":11550,"Ġfrank":11551,"Ġframes":11552,"Ġdesigned":11553,"Ġdesignates":11554,"Ġdesignating":11555,"Ġsuccessively":11556,"attached":11557,"attacks":11558,"impenetrable":11559,"asked":11560,"inclined":11561,"includes":11562,"Ġthirdly":11563,"ĠArchitect":11564,"Ġmeanings":11565,"Ġmeaningless":11566,"applies":11567,"respects":11568,"respecting":11569,"respective":11570,"Ġblow":11571,"ftp":11572,"Ġdelivers":11573,"Ġdeline":11574,"Ġdelusions":11575,"Ġdelicate":11576,"Ġdelivered":11577,"ificate":11578,"orizontal":11579,"Ġ596":11580,"Ġapproved":11581,"Ġapproval":11582,"Ġapprobation":11583,"Ġraises":11584,"Ġreferable":11585,"INCIDENTAL":11586,"Ġ*(":11587,"Ġcheer":11588,"Ġchemist":11589,"thoughts":11590,"consisting":11591,"ĠSphere":11592,"Ġdeclined":11593,"ĠVery":11594,"compound":11595,"compressed":11596,"Ġletters":11597,"Ġagreeably":11598,"Ġorganic":11599,"Ġarbitrium":11600,"Ġsignificancy":11601,"universally":11602,"ĠJUD":11603,"thened":11604,"quanta":11605,"ĠKings":11606,"ĠKNOW":11607,"iterated":11608,"Ġseparates":11609,"Ġseparating":11610,"constituted":11611,"constituent":11612,"Ġcarelessness":11613,"mathematician":11614,"confounded":11615,"confutation":11616,"metaphysicians":11617,"ĠREPL":11618,"ĠREFUND":11619,"worthless":11620,"Ġgeometer":11621,"divisible":11622,"Ġoffence":11623,"Ġ4000":11624,"Ġ4280":11625,"insip":11626,"Ġensure":11627,"Ġensures":11628,"Ġensuring":11629,"ipate":11630,"Ġsceptic":11631,"Ġfaulty":11632,"Ġwiser":11633,"Ġwisest":11634,"possessions":11635,"Ġacceptance":11636,"cogitable":11637,"cogitating":11638,"ursively":11639,"Ġcreative":11640,"CEDURE":11641,"Ġgenius":11642,"venal":11643,"specific":11644,"changeably":11645,"Ġfavourite":11646,"thinker":11647,"thinkers":11648,"satisfy":11649,"Ġpropension":11650,"Ġpropounded":11651,"Ġsurely":11652,"Ġoccasioning":11653,"Ġoccasioned":11654,"Ġoccasionally":11655,"Ġdogmata":11656,"Ġdogmatists":11657,"Ġhighway":11658,"Ġgeometricians":11659,"Ġgeometrician":11660,"guides":11661,"analysed":11662,"originated":11663,"originator":11664,"originarium":11665,"Ġinterference":11666,"Ġinterior":11667,"Ġinterrog":11668,"Ġinterpretation":11669,"Ġinterwoven":11670,"Ġinterfering":11671,"Ġconverting":11672,"predicated":11673,"predicaments":11674,"sensatio":11675,"realized":11676,"realissimum":11677,"demonstrations":11678,"demonstratively":11679,"Ġcountenance":11680,"Ġcountries":11681,"Ġcollect":11682,"Ġmechanically":11683,"judges":11684,"judging":11685,"judicium":11686,"iminished":11687,"Ġreducing":11688,"Ġexperiments":11689,"Ġexperimental":11690,"Ġartifice":11691,"explanations":11692,"matters":11693,"advances":11694,"Ġaccessed":11695,"Ġaccessible":11696,"Ġindisputable":11697,"Ġcanons":11698,"discovers":11699,"Ġ92":11700,"firstly":11701,"Ġprudential":11702,"Ġloses":11703,"Ġaccidentally":11704,"Ġclassed":11705,"Ġcomprehended":11706,"Ġirrespective":11707,"investigating":11708,"observe":11709,"Ġdiversities":11710,"Ġdefects":11711,"NDATION":11712,"Ġsketched":11713,"ĠImmortality":11714,"Ġdetection":11715,"volunteers":11716,"attaining":11717,"influences":11718,"continual":11719,"Ġpracticable":11720,"Ġrecent":11721,"Ġrecord":11722,"Ġrecollection":11723,"Ġhumour":11724,"Professor":11725,"Ġwriter":11726,"Ġconfining":11727,"Ġascends":11728,"Ġventuring":11729,"Ġenlarges":11730,"Ġenlarging":11731,"adequately":11732,"Ġsentimental":11733,"Ġbenef":11734,"Ġbenefits":11735,"Ġfirmness":11736,"Ġsucceeds":11737,"Ġstudent":11738,"Ġobscured":11739,"maximum":11740,"Ġmistaking":11741,"affinity":11742,"saying":11743,"Ġdestiny":11744,"Ġlowering":11745,"ĠPhalar":11746,"Ġpreserves":11747,"Ġpreservation":11748,"Ġ2003":11749,"psychologia":11750,"drawing":11751,"attempting":11752,"Ġglim":11753,"Ġglory":11754,"Ġcapital":11755,"Ġengraft":11756,"negations":11757,"neglect":11758,"Ġqualified":11759,"Ġreckons":11760,"Ġstrengthening":11761,"Ġauthorizes":11762,"Ġauthorizing":11763,"Ġestimates":11764,"Ġbestowed":11765,"Ġspirituality":11766,"ĠPUBL":11767,"ĠPROBL":11768,"ĠPROCEDURE":11769,"ĠHerein":11770,"Ġreflected":11771,"Ġprofessions":11772,"glorious":11773,"regressive":11774,"regressus":11775,"Conceptions":11776,"operate":11777,"operative":11778,"operating":11779,"Ġguardian":11780,"Ġrepul":11781,"Ġreputation":11782,"Ġreports":11783,"Ġreported":11784,"Ġhabitation":11785,"Ġincreases":11786,"Ġexcuse":11787,"Ġexcited":11788,"Ġexcusable":11789,"Ġ70":11790,"conditio":11791,"Ġrenamed":11792,"Ġrenounces":11793,"Ġrenounced":11794,"imagine":11795,"imagined":11796,"humanity":11797,"Ġsearching":11798,"Ġ65":11799,"Ġmoves":11800,"Ġbehold":11801,"Ġbehalf":11802,"Ġextract":11803,"Ġdeviate":11804,"ĠChief":11805,"Ġenjoying":11806,"ĠEmpiricism":11807,"ĠEmployment":11808,"Ġstrongly":11809,"Ġstrongest":11810,"ĠLeibnitzian":11811,"Ġoccurring":11812,"Ġblindness":11813,"obligatory":11814,"define":11815,"difficult":11816,"depending":11817,"unteer":11818,"pretext":11819,"Ġurges":11820,"infinitely":11821,"Ġtwist":11822,"Ġsuggests":11823,"Ġsuggestion":11824,"Ġsuggestions":11825,"Ġaccordant":11826,"ĠEpicureans":11827,"Ġderivable":11828,"supplied":11829,"equally":11830,"equivalent":11831,"Ġstruck":11832,"degrees":11833,"inquire":11834,"conceptus":11835,"altered":11836,"additions":11837,"secondly":11838,"Ġappeals":11839,"Ġheader":11840,"Ġpermits":11841,"Ġadaptation":11842,"ĠEveryone":11843,"Ġsecrets":11844,"Ġillustrations":11845,"Ġtransgresses":11846,"Ġtransgressing":11847,"instance":11848,"instances":11849,"requirement":11850,"Ġverify":11851,"Ġverbal":11852,"Ġfortunate":11853,"Ġimitate":11854,"Ġimitating":11855,"showing":11856,"Ġvanish":11857,"Ġvanishes":11858,"Ġprepares":11859,"ĠDIRECT":11860,"Ġobeys":11861,"Ġhinders":11862,"Ġadducing":11863,"ĠWhole":11864,"Ġgovernor":11865,"Ġsubstantive":11866,"Ġmoderately":11867,"Ġscholar":11868,"Ġscholars":11869,"Ġscholastically":11870,"Ġrooted":11871,"Ġcontemplate":11872,"attributing":11873,"directs":11874,"directing":11875,"directed":11876,"singular":11877,"begins":11878,"ACEMENT":11879,"labours":11880,"analytically":11881,"advantageous":11882,"Ġinjuring":11883,"Ġinjury":11884,"Ġrejects":11885,"Ġrejection":11886,"Ġsuffers":11887,"Ġsuffices":11888,"Ġattractions":11889,"Ġabandoned":11890,"Ġsympath":11891,"Ġsymbol":11892,"Ġsympat":11893,"Ġstarted":11894,"Ġevidencing":11895,"Ġchaos":11896,"Ġcommunic":11897,"Ġconfusedly":11898,"Ġaccomplishes":11899,"Ġomnipresent":11900,"Ġomnipresence":11901,"Existence":11902,"Examples":11903,"versa":11904,"ĠINTERNAL":11905,"antecedently":11906,"persons":11907,"personal":11908,"personality":11909,"abstracted":11910,"oxysms":11911,"conclusio":11912,"maintains":11913,"aenomena":11914,"Ġspectata":11915,"Ġspectacle":11916,"Ġaltering":11917,"Ġsettlement":11918,"Ġlegitimately":11919,"Ġtypic":11920,"Ġcuriosity":11921,"Ġdictation":11922,"Ġdictated":11923,"Ġlocale":11924,"Ġdeepest":11925,"Ġmeantime":11926,"ĠComposition":11927,"ĠCompliance":11928,"Ġimparted":11929,"Ġimpartiality":11930,"ĠMaterial":11931,"Ġblameless":11932,"correctly":11933,"correctness":11934,"affirming":11935,"affirmations":11936,"progressus":11937,"occupies":11938,"801":11939,"commands":11940,"authors":11941,"generations":11942,"constructions":11943,"comparatively":11944,"Ġlinked":11945,"Ġtender":11946,"Ġtendencies":11947,"Ġtells":11948,"Ġcleared":11949,"security":11950,"Ġresolves":11951,"Ġresolutions":11952,"Ġreplaced":11953,"Ġdrives":11954,"Ġhardness":11955,"Ġdeprives":11956,"Ġundertakes":11957,"Ġstops":11958,"ĠPerception":11959,"ĠPerfect":11960,"ĠPerhaps":11961,"ĠPermitted":11962,"Ġpreferable":11963,"Ġpreferred":11964,"ĠCategory":11965,"ĠCategorical":11966,"Ġambigu":11967,"Ġteachings":11968,"Ġfulfils":11969,"Ġhyperbol":11970,"enlarges":11971,"enlarging":11972,"distribute":11973,"distribution":11974,"needing":11975,"collection":11976,"collected":11977,"modi":11978,"Ġmonogram":11979,"Ġmonads":11980,"promise":11981,"promote":11982,"results":11983,"reciprocity":11984,"incerity":11985,"Ġjoining":11986,"Ġannounces":11987,"Ġannoying":11988,"ĠTranscendent":11989,"ĠTrancendent":11990,"Ġaugmentative":11991,"Ġcentury":11992,"Ġrevealed":11993,"Ġalleging":11994,"Ġenouncement":11995,"Ġimplying":11996,"Ġdecidedly":11997,"Ġerroneously":11998,"Ġcolouring":11999,"affecting":12000,"graduated":12001,"errors":12002,"agreeable":12003,"materialiter":12004,"copy":12005,"copying":12006,"country":12007,"moon":12008,"profitable":12009,"Ġincit":12010,"Ġincumb":12011,"constructs":12012,"constructed":12013,"smaller":12014,"individuals":12015,"pathologically":12016,"Ġvex":12017,"Ġveiled":12018,"Ġvehic":12019,"Ġinstructs":12020,"Ġratione":12021,"Ġ501":12022,"Ġwax":12023,"Ġwait":12024,"Ġwider":12025,"Ġinherence":12026,"Ġthyself":12027,"Ġthreatened":12028,"Ġthreatening":12029,"Ġfootpath":12030,"Ġfootsteps":12031,"Ġnullity":12032,"Ġerects":12033,"Ġconjectures":12034,"Ġhundreds":12035,"Ġpropensions":12036,"Ġprincipally":12037,"Ġviolate":12038,"ĠAlaska":12039,"Ġyouthful":12040,"Ġattacked":12041,"ĠMeanwhile":12042,"Ġconcealment":12043,"Ġroads":12044,"ĠÃĨSTHE":12045,"ĠProofs":12046,"ĠProblematical":12047,"Ġobstinacy":12048,"ĠPhilosophical":12049,"ĠPhysics":12050,"Ġprospects":12051,"Ġhypostatize":12052,"Ġhypostatized":12053,"opportunity":12054,"indispensably":12055,"sophistries":12056,"CLUSION":12057,"ULTY":12058,"apodeictical":12059,"Beyond":12060,"poseless":12061,"Ġ85":12062,"Ġ841":12063,"Ġreconcile":12064,"Ġamounts":12065,"Ġflatters":12066,"Ġsovereignty":12067,"Ġcharitable":12068,"Ġmachines":12069,"Ġmachinery":12070,"Ġdespising":12071,"ĠEXCEP":12072,"ĠEXTERNAL":12073,"Ġirremediable":12074,"ĠSystematic":12075,"Ġstruggles":12076,"Ġstruggling":12077,"ĠNewby":12078,"Ġbreaks":12079,"LIABILITY":12080,"LIABLE":12081,"remaining":12082,"Ġpoor":12083,"Ġpressure":12084,"donation":12085,"inseparable":12086,"Ġcourtes":12087,"experiment":12088,"communio":12089,"Ġascertaining":12090,"Ġalternation":12091,"Ġalternate":12092,"Ġalternatively":12093,"Ġruns":12094,"dispositions":12095,"Ġincompatible":12096,"Ġannexes":12097,"Ġexemption":12098,"Ġexcellence":12099,"Ġlicence":12100,"Ġlicet":12101,"Ġdetract":12102,"ĠPRINT":12103,"Ġsubstitute":12104,"Ġsubstituting":12105,"Ġ1971":12106,"Ġelaborate":12107,"Ġelaborating":12108,"Ġmoderns":12109,"Ġantinomial":12110,"Ġsolicitation":12111,"Ġsolidity":12112,"Ġinstincts":12113,"Ġdenomination":12114,"Ġspiritualism":12115,"Ġcalculation":12116,"ĠDIALECTICAL":12117,"Ġflowing":12118,"pursuit":12119,"pursued":12120,"deserve":12121,"remarking":12122,"Permanence":12123,"Persuasion":12124,"classes":12125,"comprehending":12126,"comprehended":12127,"convincing":12128,"cility":12129,"devised":12130,"Ġhesitation":12131,"admixture":12132,"SECTION":12133,"SECOND":12134,"harmonize":12135,"treatment":12136,"Ġruined":12137,"haustible":12138,"definitely":12139,"expositions":12140,"Ġsilver":12141,"Ġsalts":12142,"Ġinexorably":12143,"Ġinexhaustible":12144,"Ġbinds":12145,"Ġbetrayed":12146,"Ġprimeval":12147,"Ġdeceit":12148,"Ġunfortunate":12149,"Ġtrustworthy":12150,"Ġheights":12151,"Ġperplexing":12152,"ĠAbout":12153,"Ġmysticism":12154,"Ġcompassion":12155,"ĠConclusion":12156,"Ġsuffering":12157,"Ġridicule":12158,"designate":12159,"organon":12160,"transcends":12161,"contemplated":12162,"ancients":12163,"probable":12164,"Ġillegitimate":12165,"specifically":12166,"Grant":12167,"heterogeneous":12168,"excite":12169,"excited":12170,"Deity":12171,"cosmology":12172,"honoured":12173,"honesty":12174,"increase":12175,"introduction":12176,"exhibit":12177,"sympathy":12178,"reckoning":12179,"forthcoming":12180,"Produce":12181,"declarations":12182,"momenta":12183,"tonian":12184,"ĠQuantity":12185,"secting":12186,"Ġrestrained":12187,"Ġchiefly":12188,"Ġgratification":12189,"Ġinnate":12190,"Ġinsisted":12191,"Ġbonus":12192,"Ġpragmatic":12193,"Ġsustain":12194,"Ġsustained":12195,"Ġcomprised":12196,"Ġembarrassments":12197,"Ġhealthy":12198,"ĠIntroduction":12199,"ĠGrant":12200,"ĠGermany":12201,"Ġencourage":12202,"Ġencourages":12203,"Ġcriticize":12204,"ĠMission":12205,"Ġsurprise":12206,"Ġdeficiency":12207,"Ġpunctual":12208,"Ġpunctually":12209,"Ġstrengthens":12210,"Ġtalked":12211,"ĠMethodology":12212,"Ġastonishing":12213,"Ġdenominated":12214,"Ġfatalist":12215,"ĠAGREEMENT":12216,"enjoyment":12217,"descent":12218,"majesty":12219,"professes":12220,"confirmation":12221,"barism":12222,"delusion":12223,"detailed":12224,"agonal":12225,"anthropomorphic":12226,"preventing":12227,"501":12228,"creature":12229,"creatures":12230,"testing":12231,"Ġignore":12232,"recognise":12233,"recognizes":12234,"PROVIDED":12235,"bringing":12236,"Ġeducation":12237,"Ġeducational":12238,"Ġtolerable":12239,"Ġtolerate":12240,"Ġmali":12241,"Ġmalum":12242,"precepts":12243,"Ġautomaton":12244,"Ġswamp":12245,"Ġpoles":12246,"Ġpolice":12247,"ĠINDEMNITY":12248,"Ġricher":12249,"Ġtheorems":12250,"Ġslip":12251,"Ġpublish":12252,"Ġpublished":12253,"Ġparents":12254,"Ġinspires":12255,"Ġincorporeal":12256,"Ġmarvellous":12257,"Ġmasses":12258,"Ġrefinement":12259,"Ġredistribute":12260,"Ġredistributing":12261,"Ġprolonging":12262,"Ġprolonged":12263,"Ġratiocinant":12264,"Ġvisionary":12265,"ĠBEFORE":12266,"Ġperpetual":12267,"Ġconsulting":12268,"ĠAgainst":12269,"ĠSeat":12270,"Ġsubdivided":12271,"Ġsubdivisions":12272,"ĠWolfian":12273,"ĠCanon":12274,"ĠCognition":12275,"ĠCognitions":12276,"Ġcommercium":12277,"Ġvalues":12278,"Ġvalued":12279,"Ġsimplest":12280,"ĠDetermine":12281,"ĠDetermining":12282,"Ġresponsible":12283,"Ġresponsibility":12284,"ĠSubjective":12285,"Ġaddresses":12286,"Ġparadoxical":12287,"Ġchemists":12288,"Ġfacility":12289,"Ġtautological":12290,"Ġbeneficence":12291,"Ġwavering":12292,"Ġarchetypal":12293,"Ġarchetypes":12294,"substantia":12295,"obscurity":12296,"Ġepisyllogism":12297,"available":12298,"requisite":12299,"Ġpotential":12300,"Ġlarger":12301,"Ġlargest":12302,"plainly":12303,"abandoning":12304,"abandoned":12305,"doctrines":12306,"doctrinal":12307,"impulse":12308,"impulses":12309,"authorized":12310,"beneficial":12311,"cultivated":12312,"flown":12313,"framed":12314,"ratione":12315,"sketch":12316,"sentiments":12317,"reconciled":12318,"settlement":12319,"exercising":12320,"Idealism":12321,"Philosophical":12322,"1887":12323,"Caius":12324,"Causality":12325,"diversity":12326,"diversities":12327,"master":12328,"mastery":12329,"temptation":12330,"temptations":12331,"Ġfluid":12332,"strength":12333,"strengthened":12334,"performing":12335,"private":12336,"privilege":12337,"ficiency":12338,"functions":12339,"parents":12340,"Ġmountain":12341,"Ġmountains":12342,"Ġdrops":12343,"iverance":12344,"Ġadversary":12345,"Ġarticulation":12346,"Ġcardinal":12347,"Ġsanct":12348,"Ġsanctions":12349,"Ġseduced":12350,"Ġsmoke":12351,"Ġsmooth":12352,"Ġsoftware":12353,"Ġincapac":12354,"Ġincapacity":12355,"Ġmilitates":12356,"Ġflatten":12357,"Ġelucidate":12358,"Ġdiameter":12359,"Ġdiagonal":12360,"Ġlimbs":12361,"Ġforgetting":12362,"Ġhastily":12363,"Ġunconsciously":12364,"Ġshadows":12365,"Ġappetite":12366,"ĠPGLAF":12367,"ĠPostulate":12368,"ĠPostulates":12369,"Ġyea":12370,"Ġarguing":12371,"ĠSchematism":12372,"Ġsubreptions":12373,"Ġsubreptio":12374,"ĠCauses":12375,"ĠCausality":12376,"ĠCertainly":12377,"ĠCosmical":12378,"ĠCosmology":12379,"ĠRedistribution":12380,"ĠRedistributing":12381,"Ġpresumed":12382,"Ġconfounding":12383,"Ġindividuum":12384,"Ġimaginarium":12385,"Ġheroes":12386,"Ġfalsity":12387,"Ġ5682":12388,"Ġ5683":12389,"Ġadmirers":12390,"Ġsignalize":12391,"ĠWhoever":12392,"Ġsharpen":12393,"Ġpoisons":12394,"ĠDISTRIBUTE":12395,"ĠDISTRIBUTOR":12396,"Ġectypal":12397,"threatens":12398,"mysticism":12399,"Ġardent":12400,"Ġlatent":12401,"embarrassment":12402,"Concluding":12403,"transgression":12404,"5683":12405,"architectonic":12406,"laborious":12407,"sensualizing":12408,"Epicurean":12409,"Morality":12410,"Stoics":12411,"azard":12412,"calculation":12413,"destination":12414,"easily":12415,"elevated":12416,"facility":12417,"familiar":12418,"humiliates":12419,"loving":12420,"penetrating":12421,"wisdom":12422,"warranties":12423,"inozism":12424,"instructed":12425,"enumerate":12426,"animals":12427,"ithmetic":12428,"conjectured":12429,"confines":12430,"convenience":12431,"primary":12432,"speculations":12433,"serviceable":12434,"undoubtedly":12435,"granting":12436,"PLEASE":12437,"scholastic":12438,"circumstances":12439,"6221541":12440,"Wolfian":12441,"motherly":12442,"Ġadequacy":12443,"constantly":12444,"ademical":12445,"adapted":12446,"consequentiae":12447,"Ġtears":12448,"Ġtheologians":12449,"Ġwandering":12450,"Ġcandour":12451,"Ġcitizen":12452,"Ġsagacity":12453,"Ġincomprehensibility":12454,"Ġindiscernibles":12455,"Ġinstrument":12456,"Ġincontrovertibly":12457,"Ġbroke":12458,"Ġthirteen":12459,"Ġthwarting":12460,"Ġmingles":12461,"Ġfantastic":12462,"Ġnominally":12463,"Ġeclipses":12464,"Ġreverses":12465,"Ġliquet":12466,"Ġlanguages":12467,"Ġweariness":12468,"Ġsupposititious":12469,"Ġsuddenly":12470,"Ġalkali":12471,"Ġunsolicited":12472,"Ġunquestionably":12473,"Ġempiricist":12474,"Ġembellishments":12475,"Ġtradesman":12476,"ĠBecause":12477,"Ġimmediatae":12478,"Ġnovelty":12479,"ĠFaculty":12480,"ĠFOUNDATION":12481,"ĠAdditional":12482,"Ġaccusation":12483,"ĠPrecisely":12484,"ĠParalogisms":12485,"Ġdissipate":12486,"Ġdisappointment":12487,"Ġphantoms":12488,"ĠIntellect":12489,"ĠGregory":12490,"ĠClue":12491,"ĠCopernicus":12492,"Ġobliterated":12493,"Ġdiscretum":12494,"ĠHistory":12495,"ĠHypothesis":12496,"Ġenvy":12497,"Ġenigma":12498,"ĠEvents":12499,"Ġtertium":12500,"Ġentrusted":12501,"Ġimpotence":12502,"Ġshallowness":12503,"Ġinflexible":12504,"Ġappertaining":12505,"ĠLatin":12506,"Ġdecrease":12507,"Ġilluminated":12508,"ĠOntological":12509,"Ġdegraded":12510,"Ġmisleading":12511,"Ġsurrounded":12512,"Ġsurreptitiously":12513,"ĠImperatives":12514,"Ġdetails":12515,"Ġprosyllogisms":12516,"Ġdeviations":12517,"ĠDiscovery":12518,"Ġtreasures":12519,"ĠNegation":12520,"ĠOriginally":12521,"Ġzealous":12522,"Ġsteadfastness":12523,"Ġsilenced":12524,"ĠAbbott":12525,"Ġauthenticated":12526,"Ġastronomers":12527,"Ġeconomical":12528,"ĠEDITION":12529,"acceptation":12530,"Ġgerm":12531,"ĠIRS":12532,"ĠPHILOSO":12533,"Ġarmoury":12534,"struggle":12535,"escape":12536,"Ġducat":12537,"Ġallege":12538,"ĠRIGHT":12539,"admiration":12540,"obstacles":12541,"Ġpushed":12542,"ectypa":12543,"paradoxical":12544,"Substances":12545,"opponent":12546,"indubitably":12547,"omnipotence":12548,"Aristotle":12549,"Categories":12550,"Criticism":12551,"DAMAGE":12552,"GRAPH":12553,"Juvenal":12554,"Meanwhile":12555,"Pleasure":12556,"Possibility":12557,"Particular":12558,"Revenue":12559,"Things":12560,"Until":12561,"busy":12562,"civilized":12563,"dollars":12564,"fanaticism":12565,"fictitious":12566,"fruitful":12567,"hindrances":12568,"hopes":12569,"mundus":12570,"movable":12571,"pobox":12572,"soundness":12573,"twofold":12574,"victory":12575,"welfare":12576,"Ġaverage":12577,"Ġaequivoca":12578,"Ġoptical":12579,"repeated":12580,"resemblances":12581,"encouragement":12582,"alleged":12583,"Ġnisi":12584,"Ġnetwork":12585,"Ġconditio":12586,"Ġdictionis":12587,"starry":12588,"omnitudo":12589,"theorem":12590,"improvement":12591,"Ġlibitum":12592,"ibiblio":12593,"persisted":12594,"perpetually":12595,"perplexity":12596,"conjunctio":12597,"detrimental":12598,"pragmatic":12599,"suppositio":12600,"excellent":12601,"behoof":12602,"commencing":12603,"Prototypon":12604,"TRADEMARK":12605,"Ġtibi":12606,"Ġatheistic":12607,"reluctantly":12608,"recommendations":12609,"Ġwalks":12610,"Ġcunning":12611,"Ġcathartic":12612,"Ġcubic":12613,"Ġcrowded":12614,"Ġinanimate":12615,"Ġinexplicable":12616,"Ġinestimable":12617,"Ġinhabitants":12618,"Ġinsensibly":12619,"Ġthreshold":12620,"Ġdiligence":12621,"Ġdialetic":12622,"Ġbequeath":12623,"Ġwholes":12624,"Ġhostile":12625,"Ġaspirations":12626,"Ġlaugh":12627,"Ġluxury":12628,"Ġlibrary":12629,"Ġwearied":12630,"Ġforbear":12631,"Ġsupremacy":12632,"Ġgbnewby":12633,"Ġprolixity":12634,"Ġdeletions":12635,"Ġintimidation":12636,"Ġintegrity":12637,"Ġhaphazard":12638,"Ġunshaken":12639,"Ġunqualified":12640,"Ġunexceptionable":12641,"Ġunsettled":12642,"Ġunalterable":12643,"Ġcaelo":12644,"Ġraindrops":12645,"Ġmelts":12646,"Ġtriangles":12647,"ĠBerkeley":12648,"Ġpermanently":12649,"Ġnoblest":12650,"ĠFACULTY":12651,"ĠFebruary":12652,"Ġcognizant":12653,"ĠACTUAL":12654,"ĠAldarondo":12655,"ĠPolemics":12656,"ĠPARAGRAPH":12657,"ĠSMALL":12658,"Ġphilanthropist":12659,"ĠNoumena":12660,"Ġsubdued":12661,"Ġsubsidiary":12662,"ĠGovernor":12663,"ĠWORK":12664,"ĠWILL":12665,"Ġcontrariwise":12666,"ĠCartesian":12667,"ĠCOROLLARY":12668,"ĠCarolina":12669,"Ġobnoxious":12670,"Ġobsolete":12671,"ĠHarmony":12672,"Ġvalueless":12673,"ĠElucidation":12674,"ĠEBCDIC":12675,"ĠELEMENTS":12676,"ĠDirector":12677,"ĠDOMAIN":12678,"Ġcorporation":12679,"ĠMendelssohn":12680,"ĠContributions":12681,"Ġeloquent":12682,"Ġfinancial":12683,"Ġnonproprietary":12684,"Ġcoercion":12685,"ĠPriestley":12686,"ĠSubstance":12687,"Ġmisinterpretation":12688,"Ġundiscovered":12689,"ĠAnalogies":12690,"Ġparabola":12691,"Ġinvoluntarily":12692,"Ġfrankness":12693,"ĠArchitectonic":12694,"ĠJUDGEMENT":12695,"ĠKingsmill":12696,"ĠREPLACEMENT":12697,"insipid":12698,"ĠPhalaris":12699,"ĠPUBLIC":12700,"ĠPROBLEM":12701,"Ġhyperbolic":12702,"ĠTrancendentale":12703,"Ġincumbent":12704,"ĠÃĨSTHETIC":12705,"Ġ84116":12706,"ĠEXCEPT":12707,"Ġcourtesy":12708,"Ġty":12709,"Ġore":12710,"Ġose":12711,"Ġci":12712,"Äłent":12713,"ÄłIn":12714,"Äłgr":12715,"Ġposed":12716,"Ġll":12717,"Ġize":12718,"Ġort":12719,"Äłj":12720,"Äłel":12721,"Äłrel":12722,"Äłconf":12723,"Ġtern":12724,"Äłco":12725,"Ġists":12726,"Ġig":12727,"Ġives":12728,"Ġak":12729,"Ġpt":12730,"Ġfere":12731,"Ġite":12732,"ĠIS":12733,"Ġory":12734,"Äłas":12735,"Äłstr":12736,"Äłappro":12737,"Ġven":12738,"Ġving":12739,"Ġents":12740,"Ġia":12741,"Ġently":12742,"Ġial":12743,"Ġice":12744,"Ġized":12745,"Ġces":12746,"Ġec":12747,"Ġances":12748,"Äłres":12749,"Äłapp":12750,"Äłext":12751,"Äłref":12752,"ok":12753,"Ġire":12754,"Ġious":12755,"Ġ00":12756,"Ġination":12757,"Ġue":12758,"Ġual":12759,"irre":12760,"ÄłU":12761,"Äłam":12762,"Äłpl":12763,"Äłwe":12764,"Äłunder":12765,"Äłund":12766,"Ġks":12767,"necessit":12768,"philosoph":12769,"ĠÃ¢Ä¢Ä":12770,"Ġx":12771,"Ġution":12772,"Ġting":12773,"Ġace":12774,"Ġcrib":12775,"Ġbit":12776,"Ġised":12777,"Ġistic":12778,"Ġash":12779,"Ġust":12780,"Äłev":12781,"Äłob":12782,"Äłcomm":12783,"ÄłCon":12784,"Ġification":12785,"ĠAL":12786,"Äłinter":12787,"Äłfr":12788,"sign":12789,"Ãĥ":12790,"Ã¢Ä¢Ä":12791,"ĠX":12792,"Ġener":12793,"Ġtain":12794,"Ġological":12795,"Ġments":12796,"Ġished":12797,"Ġult":12798,"Ġangu":12799,"Ġles":12800,"Äłover":12801,"Äłcons":12802,"Äłinv":12803,"Ġlect":12804,"Ġarch":12805,"deriv":12806,"ĠEM":12807,"guarante":12808,"Äłmod":12809,"bor":12810,"cern":12811,"leness":12812,"Ġib":12813,"Ġility":12814,"Ġame":12815,"Ġsect":12816,"Ġbal":12817,"Ġures":12818,"Ġld":12819,"pted":12820,"Ġunt":12821,"Äłto":12822,"Äłass":12823,"Äłcogn":12824,"Äłcor":12825,"soph":12826,"ĠOU":12827,"measure":12828,"Ġtermin":12829,"synon":12830,"Ġress":12831,"Ġuted":12832,"REM":12833,"Sol":12834,"liber":12835,"ping":12836,"Ġict":12837,"Ġides":12838,"Ġale":12839,"Ġade":12840,"Ġome":12841,"Ġoft":12842,"Ġson":12843,"escap":12844,"Ġning":12845,"Ġising":12846,"Ġishes":12847,"arp":12848,"Ġured":12849,"idic":12850,"quire":12851,"awaken":12852,"travag":12853,"Ġrust":12854,"Ġrough":12855,"hers":12856,"ÄłK":12857,"ÄłV":12858,"Äłu":12859,"Äłle":12860,"Äłem":12861,"Äłreg":12862,"Äłbr":12863,"Äłpres":12864,"Äłatt":12865,"ÄłEx":12866,"usett":12867,"Ġuses":12868,"ffer":12869,"Ġstem":12870,"Ġque":12871,"Ġmort":12872,"ĠAM":12873,"Ġjunction":12874,"Ġjoined":12875,"inted":12876,"roble":12877,"Ġences":12878,"Ġentia":12879,"iousness":12880,"iqueSol":12881,"scr":12882,"Sub":12883,"Ġordin":12884,"indiscern":12885,"sympat":12886,"piritual":12887,"AND":12888,"BOL":12889,"GIN":12890,"IOM":12891,"Judgement":12892,"LLI":12893,"Mont":12894,"NIC":12895,"Ok":12896,"Wiz":12897,"aver":12898,"cit":12899,"hall":12900,"lor":12901,"lvan":12902,"mount":12903,"nos":12904,"rin":12905,"ris":12906,"uck":12907,"year":12908,"Ġ/":12909,"ĠÄ":12910,"ĠÄłÄł":12911,"Ġxi":12912,"Ġizing":12913,"Ġtil":12914,"Ġake":12915,"itical":12916,"Ġcing":12917,"Ġcul":12918,"Ġcel":12919,"ndoubted":12920,"Ġbi":12921,"Ġfer":12922,"ana":12923,"Ġises":12924,"lej":12925,"Ġree":12926,"omin":12927,"Ġhat":12928,"ivum":12929,"ospect":12930,"Ġgone":12931,"ĠIT":12932,"awa":12933,"Ġraw":12934,"Äłnot":12935,"Äłant":12936,"Äłdisc":12937,"Äłreal":12938,"ÄłRe":12939,"Äłden":12940,"Äłsupp":12941,"Ġusion":12942,"Ġify":12943,"pharm":12944,"Ġstood":12945,"Ġjoy":12946,"sovereign":12947,"etamorph":12948,"tell":12949,"ismis":12950,"root":12951,"achusett":12952,"Ġency":12953,"parallel":12954,"ĠER":12955,"earth":12956,"serious":12957,"angle":12958,"rap":12959,"controver":12960,"Ġrespond":12961,"arrog":12962,"Ġovert":12963,"legitim":12964,"schemat":12965,"thank":12966,"return":12967,"afford":12968,"Äłcoun":12969,"Ġ78":12970,"PRIN":12971,"Ġversa":12972,"combat":12973,"errone":12974,"UNDER":12975,"Trancendent":12976,"Ġyielding":12977,"100":12978,"655":12979,"AH":12980,"Ab":12981,"App":12982,"Apr":12983,"Astr":12984,"Ant":12985,"BE":12986,"Bod":12987,"Bole":12988,"Cr":12989,"Cogn":12990,"CON":12991,"Do":12992,"Des":12993,"Dem":12994,"Dak":12995,"Det":12996,"Del":12997,"DON":12998,"DIS":12999,"DES":13000,"EAL":13001,"FIN":13002,"FUT":13003,"FOU":13004,"GS":13005,"Gign":13006,"Hold":13007,"Hypothe":13008,"Hamps":13009,"IP":13010,"Ind":13011,"Ill":13012,"Imag":13013,"IBOL":13014,"IGIN":13015,"Law":13016,"Look":13017,"LED":13018,"Mich":13019,"Mand":13020,"Mod":13021,"Mast":13022,"MOR":13023,"Nat":13024,"Nol":13025,"Nun":13026,"Numer":13027,"Neg":13028,"New":13029,"Ov":13030,"Ox":13031,"Object":13032,"Ont":13033,"Pre":13034,"Phenomen":13035,"Pun":13036,"Pers":13037,"Post":13038,"PER":13039,"PAR":13040,"Prop":13041,"Plat":13042,"Sh":13043,"Sim":13044,"Scept":13045,"Sach":13046,"Socr":13047,"TU":13048,"Te":13049,"Tem":13050,"UTION":13051,"Vari":13052,"Wel":13053,"WIS":13054,"WAN":13055,"XIOM":13056,"Zen":13057,"aed":13058,"aum":13059,"aest":13060,"aign":13061,"aert":13062,"aug":13063,"bu":13064,"bur":13065,"bul":13066,"bial":13067,"burd":13068,"bvious":13069,"boast":13070,"benevol":13071,"cle":13072,"cent":13073,"cation":13074,"cans":13075,"cod":13076,"cens":13077,"cro":13078,"cula":13079,"dr":13080,"dy":13081,"dit":13082,"dich":13083,"decess":13084,"dise":13085,"dro":13086,"eter":13087,"eth":13088,"eur":13089,"eorg":13090,"fat":13091,"fle":13092,"fol":13093,"fide":13094,"fant":13095,"fert":13096,"foc":13097,"frequ":13098,"fool":13099,"fair":13100,"fals":13101,"foot":13102,"fri":13103,"gem":13104,"gard":13105,"gart":13106,"gra":13107,"gene":13108,"hi":13109,"hor":13110,"hur":13111,"hus":13112,"hast":13113,"htm":13114,"hole":13115,"harm":13116,"iation":13117,"iec":13118,"iogn":13119,"iothe":13120,"iably":13121,"ips":13122,"iocr":13123,"ju":13124,"juris":13125,"ko":13126,"kak":13127,"lical":13128,"lib":13129,"lam":13130,"laps":13131,"lax":13132,"loric":13133,"lah":13134,"laud":13135,"mar":13136,"mate":13137,"mil":13138,"mel":13139,"mole":13140,"mometer":13141,"micros":13142,"nest":13143,"narr":13144,"nob":13145,"noc":13146,"narrow":13147,"ncret":13148,"oil":13149,"obe":13150,"oister":13151,"pit":13152,"pate":13153,"pol":13154,"pered":13155,"podeict":13156,"pair":13157,"ric":13158,"ran":13159,"rif":13160,"rality":13161,"rav":13162,"rane":13163,"rip":13164,"royal":13165,"ranc":13166,"rho":13167,"sink":13168,"swe":13169,"sedu":13170,"sident":13171,"slight":13172,"salt":13173,"saf":13174,"soft":13175,"tus":13176,"tol":13177,"tof":13178,"tuition":13179,"tress":13180,"uend":13181,"uber":13182,"ufact":13183,"vil":13184,"vig":13185,"vest":13186,"vestig":13187,"viol":13188,"wre":13189,"war":13190,"wide":13191,"yom":13192,"yrin":13193,"zard":13194,"~),":13195,"Ġ<":13196,"Ġutes":13197,"Ġided":13198,"Ġtort":13199,"Ġtending":13200,"head":13201,"heav":13202,"Ġaud":13203,"onten":13204,"inher":13205,"inex":13206,"insp":13207,"intern":13208,"instit":13209,"inconce":13210,"incompar":13211,"inhab":13212,"instrum":13213,"Ġthew":13214,"rece":13215,"retr":13216,"restr":13217,"refin":13218,"remit":13219,"reward":13220,"rearr":13221,"revel":13222,"revere":13223,"reinst":13224,"repet":13225,"remiss":13226,"itus":13227,"itab":13228,"isos":13229,"isiana":13230,"enes":13231,"enem":13232,"ench":13233,"enman":13234,"enni":13235,"encro":13236,"athe":13237,"atom":13238,"atag":13239,"atern":13240,"erving":13241,"ermon":13242,"eriality":13243,"ionet":13244,"Ġpit":13245,"Ġpict":13246,"alism":13247,"alhall":13248,"icut":13249,"Ġined":13250,"escrib":13251,"Ġbat":13252,"Ġbent":13253,"Ġbul":13254,"orphist":13255,"oribus":13256,"Ġtou":13257,"Ġmour":13258,"Ġmount":13259,"cel":13260,"Ġfast":13261,"anas":13262,"anarch":13263,"Ġnight":13264,"Ġeur":13265,"Ġemin":13266,"sear":13267,"seld":13268,"Ġishing":13269,"leag":13270,"stud":13271,"stret":13272,"oms":13273,"omit":13274,"omorphist":13275,"entient":13276,"entuck":13277,"arie":13278,"aser":13279,"ashing":13280,"asym":13281,"Ġhor":13282,"thesis":13283,"theism":13284,"theolog":13285,"theosoph":13286,"ivol":13287,"ivating":13288,"immeasur":13289,"itionem":13290,"Ġana":13291,"Ġanch":13292,"Ġong":13293,"idical":13294,"ibil":13295,"irmat":13296,"irks":13297,"irreconci":13298,"urate":13299,"ursu":13300,"urope":13301,"urmount":13302,"cipit":13303,"quaest":13304,"respon":13305,"istingu":13306,"istration":13307,"ceptionem":13308,"Ġorg":13309,"ecub":13310,"ifici":13311,"anda":13312,"perman":13313,"permiss":13314,"perdur":13315,"Ġalloyed":13316,"ulary":13317,"veill":13318,"veget":13319,"conca":13320,"condu":13321,"charm":13322,"challen":13323,"chican":13324,"endless":13325,"ilas":13326,"ilater":13327,"hensibilities":13328,"illimit":13329,"ama":13330,"amber":13331,"amund":13332,"amatic":13333,"ambig":13334,"plau":13335,"abund":13336,"Ġatom":13337,"deep":13338,"delight":13339,"develop":13340,"degrad":13341,"ummat":13342,"umni":13343,"olix":13344,"olumb":13345,"olta":13346,"minuend":13347,"Ġrous":13348,"standard":13349,"Äłout":13350,"Äłwh":13351,"Äłsol":13352,"Äłag":13353,"ÄłTh":13354,"Äłcont":13355,"Äłpart":13356,"Äłdiv":13357,"Äłpost":13358,"Äłprop":13359,"Ġvarying":13360,"odox":13361,"prae":13362,"Ġpertain":13363,"Ġabol":13364,"advers":13365,"adminis":13366,"aduc":13367,"supre":13368,"possident":13369,"Ġkill":13370,"individ":13371,"indemonstr":13372,"indescrib":13373,"indistingu":13374,"phantom":13375,"expon":13376,"extravag":13377,"Ġsevered":13378,"ourable":13379,"acop":13380,"acerv":13381,"uninter":13382,"unfit":13383,"unexception":13384,"unyield":13385,"unrecogn":13386,"unveil":13387,
[...]
